##dyà
mràč̭a
hasì
vasyátti
mr
bàboˈ
##xìvaˈ
góran
pšə̀rrə
Tù
č̭ambùruna
bàvam
##ə́t
garavátə
##ét
k̭ā̀
hayyàrta
gašùk̭ələˈ
##čələ
bəxzayèva
##vta
xlə́
bàxtuˈ
ʾójax
##su
byàyətva
màcrəzz
bàk̭raxˈ
yáccə
dílə
k̭átuxˈ
čòbanˈ
##zùmə
švik̭
dàv
##rbət
gečìtaˈ
park̭ə̀nnux
túy
sèpi
górən
máyyat
čer
šeráxvala
ṱá
ʾams
bílun
masa
hamananúytət
xamyànnun
##k̭úpə
xurjé
miyyèˈ
##òxva
Màhe
šuršìyyə
xúta
##satˈ
##jə
xumyè
k̭arùvvaˈ
xvìṱəˈ
paš
práxa
##ptətˈ
dàyˈ
##mìšəˈ
bráti
muttílunˈ
##ə̀nnələ
##ppa
myú
##ìvalu
massùk̭ona
ʾotá
mə́x
prák̭əl
mằdənxaˈ
mān
##vàtuˈ
mṱàyələ
ʾi
##səvən
jammívalə
məlláttət
vádət
##nəl
##č
##tré
váyəl
k̭da
##úr
čarpùvvə
àzənˈ
xlíma
##ə́k̭
šabay
zábniva
táləx
xàk̭la
xar
##šəna
ʾálmas
gašùk̭əna
yavvànnə
xànjal
víyyulə
tmanyàmmoˈ
šuršìyyənˈ
xank̭ìli
lḕn
bəšvak̭éla
mə́nnuxˈ
nə́
šok̭itun
paxà
ʾə́tvaˈ
matrúsələ
xə̀l
denànəxva
lablàt
č̭a
odáxvalun
susav
Fáy
xùš
ṱā̀l
tup
də́t
##yw
mxílun
rigavày
k̭áblun
clítəla
gabə̀tvalaˈ
k̭àmetaˈ
šàraˈ
ṱàlbən
##lə́
##lt
##ùrˈ
hàyyə
mə́lya
arzéš
pšà
##ùni
maxzùyulə
zarduštàyə
gàrbiyyət
k̭ày
màrəxˈ
##lúšə
pəlxà
màṱəˈ
xàyyən
àms
yúxsa
ʾaxlə́nva
ʾarabànə
##ə̀lli
šlùg
lìpəl
xmùl
xòla
məttəlyày
##pnət
yáṱṱat
dàxitun
magvərr
brúnu
dinàrə
prášəva
ʾak̭lə
sùrə
##ùšunaˈ
bəšyàpovaˈ
ʾàšurˈ
##mmən
brúnan
mànivət
byáyon
ʾava
##ìyyə
cìmə
dòk̭i
hamz
dòstə
yatvíva
xamúvvələ
##ámga
ʾatìk̭əˈ
mìrəvaˈ
yavə́nna
jà
tanúyra
dáyyana
xurdì
vàdutun
##ylé
Máhə
ʾayy
čolə
ʾáxun
šók̭ax
##ṱṱaˈ
púlə
gnivávalux
zardušt
tmán
bìša
mak̭réta
dúk̭
Ra
k̭ə̀m
šak̭lə́tvalə
byàyət
ʾàrxəˈ
##ṱàla
jǘllen
bəxza
##xča
badəmjā̀n
nə̀sbat
##gan
okèy
far
ʾə́m
jigàr
ʾurusnàyə
##yéla
gurgə́š
k̭atuli
##rənaˈ
re
xol
tɑ̄̀n
mattùyə
basə̀mtaˈ
mux
švik̭àlə
bšàləlaˈ
##mìduxˈ
bəč̭lápulə
górat
p̂álši
##pt
táxta
k̭yáta
##àxəˈ
tanéta
ṱrə̀sta
buk̭ára
mor
də̀rrangˈ
mx
smùk̭aˈ
lelavàyˈ
paluṱéva
xoṱíva
yuma
azə̀tta
##yuˈ
racə́xta
zon
##yyini
##áxva
bùləˈ
##xtət
xelé
bə̀xyəla
rabèˈ
lvəšt
k̭aṱlə̀n
##žž
bək̭yáməla
ʾé
ptix
rk̭ə̀dlə
gúy
poxtèˈ
k̭àxə
vúdlə
xurjúnu
avə́dva
muttèlə
tanúyə
##lìli
bašlə̀tlun
ṱámtət
pi
##úruna
##ále
##tma
##nārˈ
zonìva
##yay
##yst
əmtəhɑ̄̀n
bustanànə
xàsi
jammìvalun
bəč̭yàmulə
sə́pyə
cullóxun
gàvu
mìsˈ
šamaša
maccùpovaˈ
məttə́lta
huy
##náy
márla
lə́pla
cnàšta
búš
ʾálpo
##noxunˈ
##səl
súp̂p̂i
k̭áplan
mírun
bərdàxa
##k̭va
maccùsona
##yuləˈ
xixə̀ccələ
k̭araxlə
nú
ṱína
muṱmə
láʾé
mə̀šxaˈ
axlə̀t
gíba
##áləva
xaz
ʾəč̭č̭a
##yàlax
plə́ṱ
sìtən
ʾìtar
##ànnə
gá
ʾúže
##yɑ̄
húcma
Šā̀h
denànə
##k̭íva
yadlíva
sògul
dúk̭un
ṱā̀v
vənˈ
##ácət
##bta
cp
xə̀dyənva
Spùr
dòˈ
hamman
##ə̀rrəˈ
k̭ə̀mlə
hošarúyta
k̭əryána
lèlə
yàvolaˈ
xàdax
bàbax
##baxt
##bšemˈ
k̭atulik̭àyə
betan
tə̀vlun
batvatèˈ
bára
dárya
xílona
nòšux
šuršìyyət
##lúxta
hóna
bayyax
##mma
yarìxa
mapləxx
##xa
yarə̀xta
##tiv
k̭ək̭k̭àšta
##olə
ʾávva
giba
pràmənaˈ
hayyàrtaˈ
##manyˈ
ṱarpìvala
mə́xyəva
ʾílaṱè
dùcaˈ
mìrəva
ʾátənˈ
vadḕx
xallàtlunˈ
##užé
Màh
mdiyàyˈ
zàyo
##béta
mas
##ṱú
tumbánuxˈ
mə́s
àtə
cálən
ʾavini
mdinátə
bàruxˈ
##àyonaˈ
ʾaturàyəˈ
##lamà
##nətʾàt
ganày
šadúrəl
nə̀z
šok̭àxxa
tamməzzáxla
zdí
bərrə́xšəlaˈ
značet
##àyən
prə̀zlaˈ
àzaxˈ
símun
pə́šlun
soyátə
líp
muxziyyú
##áyəl
k̭ubbúxtət
pàyyət
bəxzáyəx
máno
xamívalə
ʾəč̭č̭
xayyə́nva
šaluxèla
làzəmˈ
cséta
Xan
##niˈ
##írələ
mə̀nnuˈ
bəṱráya
k̭ànə
ʾarəmnáy
ʾùrxa
múyyulə
##rrət
rumy
##ùyə
pəlxánələ
amsən
k̭ə̀n
nàšələˈ
xə́šlunˈ
xàyəvən
crəsyánə
ṱlə́btət
gərdèta
xelànta
##ògəˈ
šadùruna
prùk̭ˈ
##ɑ̄rtm
berášə
vìdux
##ə̀šlaˈ
##yət
p̂aṱùxəvaˈ
dmíxəl
k̭ámči
##drun
##zzles
yaṱṱìtun
yuvvèlə
p̂làšə
mazdùyul
k̭alyàtləˈ
xína
gánan
pašk̭
čumbə́lta
rìšuˈ
##xuntaˈ
jàjəc
##ùvvaˈ
partùləvaˈ
##ə̀rraˈ
##varòṱ
vádu
šə́xta
grafínk̭a
ʾùˈ
##nanè
vidàle
##hə
bəpt
##k̭nàya
maxàxva
párk̭ət
xáyyo
ʾàzaxˈ
lípon
bərrák̭ələ
mélan
paluṱèla
mxíle
##ə̀llux
ʾaširàttə
bəxlàṱənaˈ
dánəva
ṱə́lpu
sìrəˈ
##ciyyaˈ
nòšo
púš
muǧǧəbbálunˈ
ʾàllo
mazdiyyánta
##rtist
suk̭ə́lta
bədmáyəla
##c̭a
čullúxta
k̭urtòpə
##dyu
bəxxáya
k̭átux
ʾavívaleˈ
ʾànaˈgu
pálṱən
tunyé
máyəle
pùmmoˈ
zv
##àrto
ptixàləˈ
ʾamsi
muyyíta
gùrta
ʾàt
mač̭
apɑ̄rtmɑ̄́n
tapáxvalə
##do
k̭azìˈ
bun
yásk̭ən
də̀r
k̭ark̭ùzəla
mašìnə
bək̭k̭àrəna
##nètaˈ
mxáyəla
šadrála
xšə̀vləˈ
və́rtəla
##ràva
davə̀ltəva
pruk̭ˈ
##íyya
ʾalula
bašúrələ
gàrmə
parpəssàlux
##áyot
##valà
##àtəˈ
dámxət
mútta
šràˈ
axə̀lluxˈ
mayyə́ttun
bayy
lab
bəgvàra
##jā̀n
bəxyàpəlaˈ
pyàyəlaˈ
tar
purə́k̭li
nùsli
làxxaˈ
xlúyla
gilàsta
ʾurzḕtˈ
maddurélə
##muna
máṱax
bətk̭à
məndiyyànəˈ
##blem
yàccə
šudə̀nnəna
sə̀vlə
bərdàxaˈ
ʾàlluˈ
ctìvəna
càrma
mə̀rtəlaˈ
də̀pnuˈ
ybàˈ
##nəlaˈ
ʾàzəl
k̭rə́m
pencíl
##xùl
hadrìvaˈ
šm
marùmuˈ
bənpàsəna
ʾaxtóxun
gòneˈ
mdinátət
dvə̀k̭lə
cù
##ura
bašlánnə
šuddə̀nnuxˈ
sc
vàrdəˈ
və́ttəva
ʾOdìšu
tápi
spáyˈ
bašìlə
yavvílun
parsùpəˈ
##ə̀tt
mač̭č̭ìvalun
##yula
slà
maxzúyul
mǧuš
##hatˈ
nàrələ
ṱálə
baxt
xmárux
##buxˈ
saṱà
##rívala
purziyyèla
màniləˈ
lubléna
tórba
##xvagùptaˈ
xdirèləˈ
vazzirùta
čurmə̀xxaˈ
zàyoˈ
##̄̀t
arzé
mak̭rə́
##ur
darívalun
nišànk̭ətˈgu
xáčo
smúk̭ə
yani
##màx
yànˈ
payyàxxə
Rʾužé
ʾojax
bitàyənˈ
hə̀nnəˈ
ṱáləbva
càmraˈ
ṱlíbo
bəzyàrələ
máčxən
varák̭a
hó
nùk̭
##lāš
k̭aṱlə̀nna
k̭ə́s
dvə̀rra
p̂aṱùxta
pat
mìləva
bə́ššət
sùrayəla
bəxzáyəle
avə̀d
vìyyə
xàč̭č̭əva
xà
##blonaˈ
nátət
ʾurxavàyˈ
ṱlìlə
k̭àmˈ
xállulla
payyívaˈ
gúčuxyàtəˈ
dəpnátət
bəzvá
##dùta
morìvalə
mattuvvèla
máčxan
ṱlíbolə
ʾapəsk̭ùpə
ʾəsrì
dárta
díta
mə̀n
púllu
##yyiˈ
##ə́ltəva
xeṱān
xlulanèˈ
zíla
##zzo
săbábət
xàyəvət
bušə̀ltən
tùrcətˈ
bəddáyəl
##̄́p
k̭aravàttə
zùrza
šə̀mmo
##liyyaˈ
Və́
k̭àlə
vìdut
munyə́xla
dinárəˈ
xuyravàtuˈ
yàvvən
Rezəˈ
##ulèva
ʾàrra
slì
##volə
c̭àp̂p̂
tabák̭ət
cpəntət
hə́
ʾak̭
##eta
tagbúru
yumánəˈ
nùs
##ti
dvík̭ut
k̭uravàtə
##ini
##ɑ̄̀n
##ə̀tvalaˈ
##ṱṱìvalun
##ùra
mùlpona
gə́ldu
ʾə́tlan
ʾùrhe
Bà
ríga
##vəˈ
mattuyéla
šuxlə̀plun
##tion
ṱl
yuvvəltéla
##ḕ
##ár
sṱò
àtya
##lafàyə
ʾodìlə
##mmələˈ
xállulə
muxrə̀vlux
bəxxá
bəjmàyələ
##man
xas
ču
k̭éməndyànta
c
##ílu
laˈ
bəgvá
jó
##rxu
odívalunˈ
k̭ùbloxvaˈ
šaddə̀nnət
nèrvRuˈ
jə́p
á
##tí
bnátət
gvàri
bəlvàšələˈ
[SEP]
##lla
##jjɑ̄r
manə́xləˈ
šə
šak̭ə̀llə
ʾamá
ṱur
váyəle
bəgràšona
šə́myon
tanùyra
##áyənva
gə́
##rəzz
hàja
ré
yárxə
vìdəva
margəlyàtə
mšix
ṱā́nva
##àxux
##tra
samé
ṱalašyàtə
də́ryalə
:
##və
bəšvàra
zvínə
ʾoyə̀n
ʾùy
gášək̭
càraz
paṱìrə
dḗn
ṱúpru
##re
##k̭ré
ṱùrsəna
làlən
sóta
yávattun
bək̭ràyələ
bašlìva
mə́rreˈ
də̀rrunˈ
tak̭
##ptulˈ
##tˈxut
hùcma
##víyyu
labùlə
##ák̭a
p̂ə̀p̂si
##zzər
mə̀rruxˈ
cu
Mə̀srən
bəlvášəl
dàvə
pìrə
váyəla
mumr
turc
mənyànuˈ
##həˈ
məš
tuymànəvaˈ
pálgu
mattílə
brú
sírun
p̂ravas
vídələˈ
mdítəla
nòšulə
bixáləna
##car
sk̭ìdələ
bək̭y
labl
##ìtu
##šur
##gg
##našə
##nnè
##muˈ
calàmə
dàvlaˈ
xzùyra
##šāh
ʾúrza
##pon
vadét
mask̭ùtul
xabra
palṱàxlux
taxmántu
munpə̀llə
smùk̭ta
xìna
nàgəs
sámm
dók̭ax
muj
##lova
páyə
palùṱola
ṱlá
##šiva
ʾàziˈ
duk̭tùy
##bba
yàvələ
yúvvo
mèlan
ʾàniˈ
ṱúmr
báru
pláṱən
ʾàha
víle
tmà
##dàləˈ
N
ʾaràlləǧˈ
pàh
tahárət
po
bəxvaṱḗx
##še
gv
màlcəna
my
mazdiyy
duxrána
bìšələˈ
bəjvàja
hak̭ù
ʾárp̂á
taxmúnaˈ
##pìvala
šùrva
tanùvvoləˈ
cil
šap̂ìrəna
šadúrona
##ìyyələ
čeresčùrˈ
ʾáviva
nìxa
bitá
cavə́dnə
vs
p̂ə̀p̂siˈ
sùrṱa
Sa
##rica
cə́lyəna
##yəl
ʾurxàči
##yày
màvolə
bəšk̭álot
k̭àlpu
tùyun
bərk̭àda
ʾəslamàya
##ˈmən
tanìvaˈ
##úyol
##òč̭an
byàyənˈ
xarzivalè
šàlə
ṱám
dánadúctət
yavèna
márona
##ìv
ʾum
šuršìyyəna
bak̭úra
dáglən
dinarə
práša
šadúr
bəštàyələ
tàlma
gúzarduštàyə
rappùyoləˈ
təpətə́
cé
rú
šə́nnə
šə́mmo
gnùvun
bitáyəx
šváva
##mlun
labúləla
k̭arávat
ʾə̀ngli
ták̭ə
ʾapəs
ciló
##yásolə
##dùvvə
mə̀l
mắ
##bavàtət
íva
mə̀ndilə
k̭ablə̀nnun
zə́nga
cánšət
láxxaˈ
k̭ràmta
##sə̀r
rappúyələ
goràna
##nátə
xatóxun
p̂lá
xoṱìlunˈ
bəsnàyələ
cavətránə
mítət
xamìna
##òtaˈ
ducànə
ʾámsət
##gə
tápxiˈ
ʾúp
ràmaˈ
malə̀gg
bəxxáyəna
nò
sḕl
məšší
k̭ə́mli
##là
labùləˈ
ʾulaymùta
##ə́jj
##he
marrúvvəxvagùptaˈ
šav
zàǧa
dayyána
bə́l
šok̭àxvale
vídəva
laxúymə
vàr
gərdèyəˈ
bə̀š
##ləmy
gibət
ʾaṱṱàš
mə́rta
##tux
ʾùršanˈ
mattáxlə
òdil
ʾər
ʾə́mma
zarə́zva
canùšta
tgu
palacànə
ʾurxátə
yuvvélə
susavayèˈ
déran
pílə
tanə̀nnoxunˈ
##munˈ
##lə̀nnun
də́
údalə
yuvvə́llun
gə́xcəlaˈ
ùllulˈ
yur
dàyyaˈ
Jì
ʾàk̭luˈ
vazzìrulə
garbiyyètaˈ
cusíta
malvùšolə
##ə́č̭lun
mumrə̀lla
mùyyu
tanàxlun
šlà
bək̭yásolə
šə̀clələ
šir
gúpta
axlə̀nnun
rappuvvḕl
zòdaˈ
marrúšol
Jos
gànu
##ànk̭ət
šuršìyya
tanúyət
p̂ək̭
cùpa
ləbbè
Mùš
cullanaʾ
ʾavívalun
ʾatxa
##ùbənˈ
tmanə̀ssar
##k̭ə́zz
k̭ə́š
mamṱi
purk̭è
taxmúnələ
tápə
##mə́tra
##zəm
xázə
bərrə́xše
tapk̭íva
##ltux
láxmaˈ
##šcaš
xzàttaˈ
bəyyavé
màzrak̭
p̂urtə̀
##vánan
##ávala
palúṱəxva
màtaˈ
Danìyyəlˈ
mačúxu
màyyi
yàzan
dvák̭əna
bəddàya
##ne
ʾə́sra
bàxtila
ʾùrmiˈ
mattàxvalə
marùmoləˈ
ʾArmànəs
xdìla
bəxzáyəla
bəjmá
Rò
##v
yávən
##šənaˈ
muny
##nən
vìlə
ʾaxúniˈ
k̭àzi
lublḕl
zùyzəvaˈ
##bábət
bulmə́lla
xàpraxˈ
malcùta
##llaˈ
muk̭rə̀mla
##yèna
du
##̄rˈ
##uràyəva
##ula
yatə́vva
##lləǧ
##ə̀s
ruppílə
é
##tuxˈ
xixə̀cca
marániˈ
mazyəddívala
dólmət
lə
k̭ošunàyə
ṱmì
##yyat
xayúyta
bìyyo
malyúzət
dḗ
r
buk̭ḗ
yav
##c̭xa
rìšu
ʾə̀č̭č̭iˈ
lèlaˈ
ʾə̀tvaləˈ
xal
##yànə
šudr
màra
Zumàlla
búšk̭a
##íli
gadušyày
mardútət
jammìnaˈ
zo
šùk̭aˈ
c̭ùra
##ə́nna
ʾaxlə̀tti
##n
dmìxələˈ
##lc
gurvəss
lìpələˈ
jvàla
mára
##lən
malc
zlúmya
bol
ʾəsk̭ùta
pallì
##məxva
mučə́xlə
ṱúpra
##yámma
míyyo
ʾazəl
gurànəˈ
##̆̀
##vrā̀
##búsuna
ʾáʾa
##əntət
mámu
šulánət
##volù
##k̭an
manə́xlə
tìyyəlˈ
gòrətˈ
parmìva
dvík̭olə
càm
ṱrùbaˈ
gávo
##k̭uˈ
mə́l
sára
jílət
sílax
xámən
bušlèlax
lvə̀šta
ʾodáxən
mask̭ívalan
múyyəva
prə̀k̭lə
Bə́r
máyyax
odáva
ṱavàltaˈ
ʾàk̭ləˈ
dū́l
č̭urč̭ə́rrə
##lta
davé
ʾàynu
brúnux
bəšk̭áləla
dmə̀xloxun
crəstyànə
nòšu
və́rrux
šk̭ù
dàrta
##čat
gurvə̀stolaˈ
tə̀vlə
##mə́ndi
##gàr
mə̀nnu
##àyaˈ
##vàzətˈ
mə̀ttəla
##ə̀štəla
hayyùrəna
k̭dálo
məttə́ltət
odívala
bári
šúyša
k̭ənyà
##yá
càlu
carmánət
jǘ
##žé
##nuˈ
britèni
k̭árilə
##dì
bədvàk̭əla
cìpələˈ
pìraˈ
ṱlámma
díli
malə́
bázar
rábi
##ìvalun
bitàyəvaxˈ
gə́x
ʾavìlaxˈ
lubə̀llun
làˈ
##le
tuymànə
múttova
vírəl
ráppax
##ə́blun
īn
xmára
pallìtunˈmačx
k̭u
simálta
gušə́k̭lun
càrvan
bnàtux
##vášta
yumá
zabnàvaleˈ
bətfá
##pì
šrà
xálta
c̭ùrə
k̭àmxaˈ
##íxəna
k̭ark̭ə́zzi
dàvvəna
k̭unjíyya
cìpəˈ
##k̭àšta
ʾilánə
zambəllìlə
purt
taxàna
zonìlun
munšìli
##čx
xmàrələ
##yálunˈ
xóšo
burbəzzèlun
pàlla
bəṱlá
##ʾàx
mázyə
yávvona
nàšəvən
bušála
bur
panjàra
tàrəsləˈ
šidan
šádrun
šuxlə̀pp
tanùy
##̄́v
##vàtə
##lca
##án
balnìtsa
və́dlunˈ
vázzər
ʾəs
yùmaˈ
##məš
##k̭k̭ə
màsalaˈ
bək̭yámən
xéla
buk̭ə̀rrəˈ
vàyan
tása
bo
ràbəva
Xánəm
muk̭
carmànə
k̭ə̀mlunˈ
k̭ašaˈ
tàlk̭i
nanúntət
gašúk̭ən
ʾavə́d
parpəssíla
jarayɑ̄̀nˈ
šàdərrə
##saˈ
vazzí
xabū́š
baxtávar
daráxvale
hál
bnúnə
Šapúrə
pláṱə
pùs
##àyəva
hə̀nnəlaˈ
##zè
##dàxə
šàcar
##dəˈ
##àyəlˈ
šk̭ùlunˈ
ʾaxə́llunˈ
masàlla
dèrax
Màšad
##àrra
šák̭lax
si
mìrələˈ
ʾáynəˈ
šuršìyyələ
Hayə̀s
šak̭iyyày
muttḗn
##ápə
hayvánə
báyyənva
##rp̂
gáv
čòlə
##ə̀nna
k̭arax
Yangə́jja
sáccun
hàk̭ya
mxáyu
cī̀n
##ə́šk̭a
budràtə
məššəlmànta
raba
tazì
##ruˈ
Gèrmanyˈ
svèta
##zḕtˈ
ʾabúyri
čè
bíli
##yyàxvala
òdan
ʾə̀š
ʾəryànə
##xəla
ayyé
pn
tf
léša
yáṱṱə
muttìlə
mə̀ltaˈ
tanuyḗlˈ
##prə
##̄̀xvaˈ
rišət
də̀rrang
bəxdàrələ
mə́tla
xàmruˈ
mxayòxva
ptáxa
ptùxun
##vala
ʾalàha
##biˈ
taǧàrəˈ
tániva
bəddá
##àvuz
jammàtt
ʾìdaˈ
##vələˈ
ṱurə̀stəva
tunyḗl
və̀dlun
##əl
huydàyələ
##yə̀nnun
muč
šudə́rro
juvv
bíta
sála
prə̀k̭
##yətun
##loləˈ
##har
nàjjarˈ
k̭alyàt
mallíva
palṱìvalunˈ
##dəx
k̭ark̭ə́ptət
muzyəddálun
mèlun
básət
bəxyàpə
##ínə
##zə̀x
šáləx
##arə́xva
##̄́xˈ
p̂uč̭p̂
xlítəva
ʾərbà
ʾā̀ntəla
bùlč̭u
moráxvalun
díyyan
šlə̀x
bərrə́š
maplùxəˈ
ruppèləˈ
gúydət
##yyar
šù
##nətˈ
də̀p
xə́r
jùrra
mṱétu
gvírənaˈ
pulṱélə
pə́sla
dóbáva
mayèna
salìva
báxti
ódi
vílə
súppu
ʾavìvaˈ
xəz
zaryà
palxívaˈ
pénci
bək̭ṱálu
yavvə̀llunˈ
##tíyyə
lèʾva
k̭òšunˈ
muyyìti
pəlxànuˈ
taxtə
brunùx
máyələ
xlàp
kus
tanáxva
zubə̀nnux
šə̀myənˈ
ʾìlaˈ
gṓl
čòba
ʾoyà
##ə́nne
máynts
šə̀m
vídu
ʾamricàyəˈ
lípəxva
jav
rùšnuc
pahlavì
dro
grišálə
ʾIràk̭
mírəna
bíyyə
šuxlə̀
mutyəvválə
Yə̀prəm
lé
léva
nàk̭ša
šlámalux
pullìlə
lò
##xan
clìta
sapk̭áxva
átən
le
k̭aṱlə̀t
sət
rušanáno
##únə
mabsə̀r
ʾarabánət
##màra
mxáyot
##̄̀h
bahrèˈ
dvà
bətvày
brùnuˈ
xə́rru
pallúyəva
bənpàləlˈ
ṱùš
lap̂àṱk̭aˈ
dana
bəxzàyə
húšo
huk̭ìlə
c̭ə́č̭č̭əˈ
##irùta
##lànəˈ
dvìk̭olə
cnùš
gané
hə̀lma
représya
##nu
bəyyára
xallə̀lla
##pa
##ší
jammìvaˈ
gùˈsámət
ʾuydá
ʾánjaǧ
##vəlˈ
##̄̀c
##tùn
fran
Čín
tuymánəˈ
ar
##nèta
k̭upšìta
pahlúvvan
várəl
šənnə
cùmtaˈ
cəndùrəva
##lock
yavvə́nnoxun
k̭átta
xíyyələ
mə́txət
##ṱì
ṱā̀s
huydáyə
payyíva
##dla
ʾodátlə
bədra
sū́r
##nànəˈ
##məzz
ʾáyna
ʾullu
cilòyə
dúctət
hàk̭yatˈ
ṱúllunte
k̭aṱlàxxə
bəddáyəna
##lə̀ṱ
ʾásfalt
##rr
darvàzətˈ
tá
xina
k̭ə̀dli
ʾotā̀
manpə̀lva
salyà
abyavlyèniye
tə̀vləˈ
##èlə
k̭únya
dan
k̭aṱl
bəyy
##ráli
šəccàya
də
xabúyša
ʾAmè
lə́tla
ʾə̀tvala
šəp̂p̂ə̀šk̭a
##nélə
##sìvalə
garvúsəva
šammánnəˈ
mask̭ílə
šak̭lànnaˈ
pyàšaˈ
ʾòrənˈ
tə
bašlə̀t
tùyma
bàb
dak̭
šeríva
##ə̀xlun
##vvətˈ
##ray
##rə̀m
##xaxˈ
garúsa
jə̀myəxvaˈ
ṱala
payṱùn
xùtoˈ
##valuxˈ
k̭avìni
##ə̀rrux
xàmi
yalə̀n
nánaˈ
màna
..
víta
ʾahà
pàlləˈ
##sməl
búdra
čə́r
mánzəl
##tàlta
##lavì
nesə̀nnə
##ə̀nnə
vartè
k̭ari
hàˈ
xàlaˈ
##zùvvə
gùyba
dáha
ʾàxnanˈ
rík̭əlˈ
švə̀k̭lə
K̭òč̭an
ʾə̀tlan
xùbba
##ìnaˈ
muyyélə
mázyəd
čurmə́xxa
mamṱ
ʾAzar
pyášəl
láxma
labùlona
ṱarṱùmə
##šta
maplúxəvaˈ
Tùr
mujjúrra
marú
šak̭ìtəva
pā́š
odə̀nnaˈ
maccùsutˈ
mašxù
##bànux
k̭edàmtaˈ
k̭ə̀ṱlə
##ùrta
jə̀pnələ
háčə
##áməna
dìleˈ
síru
crìbəva
mənd
malvášta
xìšələ
dir
bayyə̀tli
##ìlax
mattə́tlə
k̭ùy
šk̭ilàləˈ
##hó
mayyáxvalə
yàvvətˈ
##làpə
xáyá
ʾIlìya
k̭ùya
ʾùžeˈ
cli
bəsyàk̭ələˈ
̂
##ìta
ʾáti
palṱìla
bitáyənaˈ
##llo
gòra
bəcl
mèla
xazdìvaˈ
hamzəmmíva
lablàvalə
hà
ʾatə
##útaˈ
k̭uravátə
məšmə̀ššə
axə̀llux
mák̭k̭əm
tánili
bàtmanˈ
##pú
ŕ
xzíli
béti
huyyə̀rra
##d
pə́llan
ʾàtxa
šulā́n
mavur
tanùyraˈ
cə̀lyaˈ
##məˈ
bərrə́xšən
lùš
xólə
ʾádùcta
sùstaˈ
xìšəl
mə
carməxxìvaləˈ
ṱlì
yalsúy
ʾaxlàvalə
xálva
víyyəvax
xzátta
##lyà
yuvv
mattívalə
várələ
jilùta
bixàləlaˈ
k̭ulvè
##č̭č̭əl
dùna
tpə́k̭lun
##ṱvaləˈ
sálə
mad
cìpə
bəṱlábən
dərmànaˈ
zaˈ
prə́k̭la
bàyyatˈ
##k̭la
pyášəla
ìca
mapšurèlə
##yàləˈ
pláxa
mə́ndit
##k̭àrə
xə́štəva
##ìxəna
ʾìcəla
##ə̀bb
xùrmə
##úbəva
ʾə̀m
xə̀šləˈ
laxmé
ʾamk̭ùytu
xvíṱə
dašdəššàxvalə
ṱrù
k̭èsiˈ
ʾaxunvà
tə̀r
ʾóyaracə̀xtaˈ
ʾùxča
ʾílə
ʾadáttət
mašxə̀d
##ṱùmə
##ī̀tˈ
dbíšəna
bak̭úrəla
##rəmm
##étun
##dənva
K̭uryàk̭us
##ìṱəˈ
vàrtuˈ
ʾaf
ʾì
xùlun
##səva
p̂ur
màlpən
dayyàna
suk̭ə́lla
##ə̀ltən
ʾav
ʾàhəlaˈ
carxanánət
##tti
bì
##ə́rrun
ṱalbìvala
jù
##ə̀xtaˈ
dàrs
##bbà
dìnar
buk̭ə́lla
##ìvalunˈ
yals
##uxètˈ
šmílux
ʾáhd
drí
bəxšàvənˈ
zabnìvaˈ
nàšə
##raxa
##bab
k
bàru
bəclàyəlaˈ
mutà
vayəlà
##ṱun
ṱarpì
šə̀nno
ʾàla
basùraˈ
šrìlunˈ
báxca
mutàcca
dárət
k̭àtuxˈ
ʾáyən
xə̀zman
suzgə̀rre
##sək̭
##k̭ul
mújjur
mujtáyyəd
##zaˈ
pèčə
##úlə
mṱáyəla
lubə̀llə
šudə́rroxun
hā́l
##k̭k̭
ctayày
##léla
k̭arìta
məxyánnəˈ
vazírət
##ə́tti
tapuvvélə
##ə̀nnax
smùk̭a
##bə
bètəva
pipàl
gambúlə
gnivále
npála
clílun
ʾàlaha
##ənj
plá
próblem
prùk̭
xàrayəˈ
##k̭àyaˈ
malcútət
jarb
láblunˈ
bəsyárova
xoràna
ṱəryéla
Mah
dáməx
dɑ̄dg
xak̭lánə
momátət
gar
cáraz
mā́r
lə́ttən
ʾémarganíta
ʾánga
xàrtoˈ
dok̭ítunˈ
saccunyày
##ré
##k̭ùta
ml
bŕ
bəxšá
xártət
##zìyyə
##ùyto
tanáxvaləˈ
gə̀pta
dàvələˈ
pay
masálo
k̭avv
ganáx
purtə́lləl
màrolə
k̭álpu
čardàk̭əˈ
gnétət
sùysiˈ
ṱì
ʾatyánə
##rák̭ət
bìtaˈ
ʾàhmak̭
mayyìvala
##k̭ula
##ə́k̭ni
záyə
dànətˈ
zabùnən
bək̭k̭àrona
ʾaturáya
##ə́ltu
##yána
ʾəll
jáldə
##pət
mxàyoləˈ
dúglən
bəṱlàbənˈ
màšə
park̭ə́nna
##átte
bədráyula
òya
švà
šavvì
##pí
garavàtəˈ
hálʾá
ʾaxunvày
səppàtax
pàrpəssunlə
gùrələ
##ə̀rtaˈ
##páx
ʾətvála
mlàyola
šap̂írəˈ
##tɑn
nā́š
dá
bəsyàk̭əvaˈ
ü
munšì
kaz
šap̂ə́rtəva
báxta
msàya
bayyáxva
viyyà
laxùmtət
danə
##ʾə́t
basìmə
##yádk̭a
c̭urìyyə
candùrəˈ
hammananuytèni
tunyélaˈ
ʾaváxva
tálax
##lek̭tìv
mə́lla
čə́m
prə́zla
jùrrə
##usèPvaˈ
bəxlàvəlaˈ
mə̀nnuxˈ
gorə́nnaxˈ
pàgaˈ
##cátta
daryànnaˈ
tanyána
bašùluna
##ə́nvala
##sut
tanúrə
ṱàšilun
myúk̭ra
avì
X
ʾàngətˈ
tammù
xazzə́nnax
map̂rəmmàxxə
##yələ
k̭àˈ
námaz
##rəla
xamúyut
##šáxva
mə̀tla
Hay
k̭ùylax
##láṱət
ʾáxtun
racìxa
k̭dálux
bàšlat
šə̀nnonaˈ
máttiˈ
##bəna
dùyšəla
##àxvale
honé
##mr
ʾavədlə
xazzə̀nna
hamanan
có
dìyyanˈ
xyàrə
muyyílə
ʾàyən
k̭usár
ràk̭əd
nan
cambəl
várəla
##ùrəˈ
##sìvaˈ
gur
##mran
hàzər
šlù
##àxlun
xútu
k̭ə̀tla
bí
ganvìlə
ʾatvàtə
##làvalə
dàrya
##yél
xamə́ttun
ʾaxunváy
##dìva
##èˈ
ʾódax
jùmˈ
zabàntaˈ
bušəlté
##kəṱṱ
múdilə
pī́s
xarùjəva
gár
ʾàrraˈ
dàyən
sùltəva
ʾùydalə
davə̀ltənaˈ
zrùtaˈ
##xə́rri
k̭nìli
##ə̀rra
vídətunˈ
margan
dávəna
##úrə
bəxlápəx
dánaˈ
##tac
masèta
duxràna
mə́nnuˈ
ruppìlə
partulélə
##yátax
bədvák̭ən
##vətˈ
sabáxta
vùuuˈ
bušə̀lli
ʾotā̀ǧˈ
pī̀s
mahànaˈ
bəsk̭à
##áxla
Xánə
máṱi
mláyol
ʾicə
##ávar
##ə́vva
bədmàxənaˈ
tíca
##láxva
##ntaˈ
zə
šár
##ə̀rvaˈ
paryádak̭
múdi
càlbə
ʾàzəx
nàgəstanˈ
ṱarsívale
##sà
spayùta
tə̀vla
##vaxˈ
xìlət
vítəla
hamma
bəzmàrəl
pallúyə
píšəna
ʾəllàyət
ptùxlun
##puˈ
motàna
Yòsəp
yàṱṱa
##th
stùyna
táppa
lablàxxa
farsáya
hrə́mma
məššəlmànəvaˈ
ʾítaˈ
ʾállux
gdìlaˈ
##stə
tə̀vtəla
Téh
k̭
hèˈ
##ínət
lublálun
robabábi
zak̭ránna
danaˈ
zubn
p̂armìva
xə̀llə
##msa
##íniˈ
arallə́ǧǧ
bəsp̂à
xàlva
axlə̀n
lublèlaˈ
p̂ál
##ty
mòṱor
tílə
polìsə
mubsə̀rra
lublè
manàˈ
ʾak̭rívala
sàmk̭i
da
yàylaǧˈ
##íyyət
məsc
morìle
##hu
cólə
##ərd
k̭ímət
šulā́nˈ
##xù
bək̭ràya
zabnìvalaˈ
mìyyəna
dríle
k̭az
mattìtunaˈ
ʾùrxaˈ
májbur
Nasrádən
tazìyyu
dévə
##àltaˈ
xodk̭àrə
xùmsa
k̭azán
tavàna
xazzə̀nnaxˈ
tanúyran
garbiyya
xàč̭č̭a
šuddə́nna
simàx
marəsxànaˈ
##làsarˈ
míyya
vàdrəˈ
candú
nesə̀ttə
dúr
zarra
culliyè
ʾəštammà
búlč̭u
ʾijáza
##pəna
ʾAzā́d
šak̭làxlə
rappùyola
k̭amù
mazràk̭
yavvə́tlə
ʾoyáva
yə̀mmo
##ə́n
banə̀nnun
##vər
##vázət
bàtəˈ
purk̭ḕtˈ
dàyk̭ə
##úyən
##ǧay
mxàyol
ʾəč̭č̭assàr
##vaˈ
pìlə
ʾəspən
k̭urṱó
mi
tanuyrələ̀
clàyənaˈ
bətfák̭əna
cùmta
tíyyəl
bə́rra
##ss
##ə́ltət
bəxdàrənaˈ
##taǧ
rk̭
canuš
vədlóxun
##yyà
zulàlu
##ʾva
##ə̀mmuˈ
muvv
gànoˈ
šəmmà
bé
##áne
xə́šša
k̭ámə́ndi
##ʾav
badəmjànəˈ
xv
manày
k̭úrbəva
K̭ara
ráng
rà
čá
huyyə́rri
góro
drìlə
xətnavày
Zà
##ə́llə
javə̀jva
vayé
yelə̀nk̭aˈ
ʾáy
k̭usárta
De
marč̭àxlunˈ
Suríya
zòl
##̄̀nˈ
vàtta
bətxarḕn
gózə
k̭ək̭
hošá
č̭uxč̭əxxèlə
ṱàl
bàxtu
pàrk̭ənˈ
batvátə
císo
##ələˈ
yás
bək̭yàmət
bək̭ṱàləna
xúvva
sálax
yò
##nayḕ
##ál
mumṱ
gašú
##lə
tùr
cúllu
báxčaˈ
##nik̭
bnāt
꞊
k̭urṱòpə
##rrux
dìva
bayyena
ʾəngləznáyə
maddə̀nvala
də́ryə
mìtəva
naxr
ṱúmruxˈ
##pək̭k̭
k̭àrk̭əz
Spùrǧan
maštúyul
k̭ùˈ
bəsyar
##lī́s
myàtən
ʾán
##lunaˈ
##myəna
ʾárp̂i
bixàlu
palùṱ
##lanèˈ
mučə̀xləˈ
dyàn
dàmxən
xì
##èta
##bùvv
ʾórət
vàyu
##nyaˈ
šuxlə̀plunˈ
##àyəˈ
brā́t
šéfu
šok̭ə́tlə
míyyət
##boˈ
nírə
##mə́z
##nap
zurzə̀x
Stálən
tmanə̀ss
##eles
zā̀dˈ
maxlúpəna
tìraˈ
narahat
xṱíto
gàruˈ
yəmmé
bàsə
balbalùk̭ta
ʾaviva
línə
##rək̭
šə̀mmuˈ
barrànta
jarayɑ̄́n
xurdìyələ
mávə
gàr
k̭àplan
ʾàbiˈ
ʾàmtola
ʾàl
jā̀nˈ
ʾállan
mètraˈ
məttəlyàyˈ
švə̀k̭leˈ
mùttələ
k̭ála
spáyəla
davə́k̭valə
yuvvə́lli
##če
čèdi
ʾavun
##gəl
múyyəvən
ávən
maz
##tvaxˈ
vidèna
bədráyəl
cúpa
múyyəl
myásaˈ
šv
baš
ʾə̀rbuˈ
ʾilànaˈ
ʾə̀s
p̂àp̂a
Tə́k̭la
taxmúnəl
xásu
canúšta
ʾàtən
gvə́rrə
##yàpələ
məscə̀ntələ
dàxivət
bayyíva
##úrči
##hànna
ṱā̀sva
##txa
badùšəva
ʾə́tli
gàv
xə̀šcaˈ
k̭èmətˈ
ʾə̀rbaˈ
xə̀šlunˈ
nā̀šˈ
txə̀rraˈ
hádax
##ùsuˈ
gā́n
sápi
##úšk̭a
##bəla
rxə́ṱlə
bəlcàxux
ʾaxunvátu
ʾəč̭č̭ámmo
##ríyyə
ʾàrak̭
šùlaˈ
##átli
##yyolə
xzílux
muyyèləˈ
##yuna
calbana
pā́švaˈ
##bad
šk̭íla
gvì
sá
mšixayú
max
##ə̀tta
gúbba
gušə́k̭la
rx
##ʾó
basim
jmílun
ráppə
bəxzày
pátu
p̂lášət
bəgràšulə
ctùyta
rə̀k̭k̭əva
##sùpəˈ
dùnyə
##yánnun
bəj
##úrtət
ṱamràva
šùp̂ra
ʾàlpə
íduxˈ
huyyə̀rrun
pallìtunˈmačxìtunlun
ʾáv
pī̀sˈ
gurè
xayyu
bəštà
dàsturˈ
##nini
##̄́ž
##səx
ginàvaˈ
##xìva
ṱarúsəva
mə́rraxˈ
saháttə
##narə
márox
zaryádk̭a
odat
bək̭ṱàlolə
##luləˈ
rapp
ʾaturàya
Dewánda
miyyàna
avívalə
hàmmənˈ
k̭ámtət
##nəva
##ḗ
xál
p̂ere
šòpuˈ
bètələ
xə̀zyə
odívalaˈ
šxùnta
ž
palgət
bərrə̀xšaˈ
ṱlammà
##ruyàtəˈ
grí
ʾaturàyə
dár
xərba
ʾùrxətˈ
bəlyàšuˈ
Muràdxan
ʾullul
naxráy
šaryàlə
náta
byáyəva
xaltàna
byàyulaˈ
k̭aríva
ʾilà
ʾávəd
##véˈ
ʾák̭li
##ùm
##ə́lla
váraˈ
hurhə̀m
yòna
bək̭ṱáluləˈ
tamb
taxmùnəlˈ
pli
mulvəštèla
##ə́dnə
ndàyaˈ
-⁺
nášət
xánəmˈ
darbɑ̄̀rˈ
##rayəˈ
##čìyyə
zày
##k̭araxa
##čùrˈ
ʾā́v
ʾánnəˈ
balb
xə̀z
sedàčiˈ
ʾùstol
ʾux
##čča
gaváy
##úrova
mláyulə
##I
##liyè
mùyyut
gavàyˈ
ṱúlvuntoxun
ʾatívaˈ
##bbú
##yyan
rə̀k̭da
ʾak̭úbra
##tm
bədvàk̭ənaˈ
ʾAmèrca
čà
barə̀z
xìšələˈ
##k̭tət
bàšlənˈ
topày
šák̭əl
##lùpo
##ànətˈ
ʾojaxyátə
##ùrəš
mammùra
de
xamšámma
ganə
##sáyə
xla
bəddáyət
##nšar
mučxálə
k̭arívalaˈ
##rax
máya
gríšuna
ʾatí
mùyyunaˈ
bəxk̭àr
gávu
bəddàyuna
xamzùmə
k̭ará
madd
pálxən
k̭úr
déri
##íbə
##yran
##siva
baxxúlə
bə́t
dəl
##šəl
##bà
mràyəla
mattáttunˈ
yəssùrətˈ
dùcta
##ùlələ
xamša
bavày
odáxva
vəttḗn
rappuyélə
ṱlú
##šanˈ
bəšvák̭
lət
k̭azí
dìvə
##bd
plàyula
p̂ə̀c̭xa
##xay
##ʾo
xdərtət
mxìlə
xamə́tvalə
atyàvaˈ
##təna
sazgə̀rrətˈ
bəšk̭àlola
odànnux
k̭ámeta
našə
mašrèta
bəx
muyyəvàˈ
vaduxvà
mattétət
sammàna
rìšuxˈ
nús
marruvvèlə
##mbù
matxùrənaˈ
č̭àləˈ
va
##R
šàtaxˈ
mə́ṱyə
maràca
naràhat
áviva
rə̀d
vídəna
ʾàslanˈ
k̭ál
tíle
bəṱlábəna
macùsona
bək̭ṱáyolə
garš
bnátu
ʾàntu
pìliˈ
##yḕxvaˈ
##riša
tabà
hala
ptùx
yanə
##ə̀ssələ
##ggət
##ve
bri
xə̀šlə
santíyyə
##ánnux
cárvan
tànaxˈ
barɑ̄bàr
ser
xdíla
mátət
hamzùməx
myátələ
sák̭əl
sabun
aváxva
šví
na
ʾáyya
dòlma
##ə́nnəva
ʾàrrə
ʾaxə̀lle
##ə̀nˈ
títəlaˈ
clímun
msan
pīs
##rày
##xìna
k̭àlyaˈ
garavày
bə̀rk̭a
ʾij
arálləǧət
bərxáṱəla
##óba
##reman
##plə
cálbət
xàsax
plt
xàsoˈ
masùk̭
sépux
bak̭r
##áyuˈ
durbə́nnə
k̭o
##ətun
xmùlˈ
##dr
jə̀pnəva
šámmə
Mát
bas
labùlunaˈ
mənnéˈ
mazmə̀
k̭ə
ʾálluˈ
.
##ənva
gašùk̭əlˈ
sằbab
spartìvni
pə́l
və́st
xayy
pláṱəva
yávvax
dvə̀k̭lunˈ
yaṱṱìlə
šã̀ns
ʾə́d
tànya
súru
xamzùməxvaˈ
ṱavùlələ
##̄́b
ʾavíli
##ùpovaˈ
Óttoman
tunítəva
p̂urmì
nə́s
čúllə
šk̭úlli
yàlaˈ
dorána
parmì
àmsax
hálla
##yəˈ
##bon
mask̭əttə̀nnə
ʾáta
vadèva
ṱā̀ltaˈ
p̂armùyə
cə́pnu
pacùrələˈ
##ìxəˈ
mav
purpə́lli
tèmunˈ
##rána
##nánə
##vl
ʾátə
ʾaturáyə
jurra
##ùja
##bər
spadìtux
bak̭ùra
bìyyolə
gìra
gáva
Dah
pā̀t
bədvák̭əx
ǧ
##pəss
parzùvvə
gə́ldət
ciloyə
xna
##ùrəl
##ìxa
buzbək̭k̭éla
nàšətˈ
St
yúma
##ṱèlə
ʾòˈ
màyaˈ
griš
k̭uxā̀nˈ
k̭anu
cma
bnàtaxˈ
xumìtətˈ
bərrə́ššələ
##liˈ
rišòxun
bəšxánəx
ṱlə̀btəla
ʾùprəva
dvə̀k̭lun
ṱumə̀rrun
ɑ
mattə́tla
##píva
xṱìtuva
xáyyux
w
gànan
bətk̭àlunˈ
šap̂ə̀rtəlaˈ
bašlàxlunˈ
##ṱùra
##úvvələ
házər
##tapúta
susavàto
ázəl
muk̭rə̀m
brùnaˈ
ʾínasàpaˈ
jàldəˈ
hošar
##xú
gùrtəva
buk̭ē
yávu
šurílə
##ùnəvaˈ
pìšələˈ
dùr
šádrunli
pé
xúmyu
Šápur
##gày
dòrə
gé
##lə̀n
bàbu
zabn
k̭azì
##ènaˈ
##dálta
bətxá
bašlə̀nnun
ʾátxahə̀nnə
caríxə
##ṱələˈ
tp
##yəlaˈ
bràtu
mú
bìznes
taxmántət
##áləla
brunè
ʾúmrət
dì
miyy
xlə́sla
čə̀rtən
pah
xmárta
jìbo
ṱúyraˈ
sìrolə
ʾàntuˈ
cùndəˈ
zur
mə́nnoˈ
də́r
p̂urtə̀cle
bəryáxəl
##stmas
k̭aṱk̭úṱət
mànələˈ
xùšun
Xlì
xə́šca
##ùma
k̭áma
tamməzzìvalə
tanə́nnuxˈ
ʾàmti
k̭ṱúlun
##àli
tunítunˈ
k̭ərrə̀šk̭aˈ
šadúrələ
pràxələ
##p̂si
p̂uč̭p̂ə̀č̭lə
##ūn
šúk̭u
mayyə̀nna
macùs
##líva
ṱlə̀b
k̭arívalun
yavàtt
púmmu
##vur
múttələ
##rənˈ
dártət
k̭urṱópə
mdi
k̭aṱlə̀nnun
mahà
k̭átu
mərrə
pašìma
ʾùmrət
k̭álya
càr
ʾaxunváti
bək̭ṱàlu
zu
mə́xyəna
##rəna
bəxzàyəxˈ
pəlxànəl
##ybà
##ṱə̀nnə
##ˈgu
bs
##rašə
##mànəs
##dalìyyəˈ
bərràk̭əla
bəsláyəl
tavə̀rta
bíyyətun
palúṱolə
xelánə
mazmə̀ṱla
ʾə́š
##nə̀k̭
gra
plə̀ṱlə
yavə̀nnux
yə̀mmu
bušə̀ltət
lublé
ṱàlax
mač̭rúyuva
purk̭àlux
nuynə
##mbaš
##yyátət
lešíva
##cùnə
sìˈ
xázax
mòtila
ʾóxa
bək̭yàməlˈ
Re
##t
##ṱmə
bək̭yàdəl
mṱáyənaˈ
bəptàxəla
ṱúlvuntan
ʾavət
##úlələ
bək̭náy
jár
bəxzàyələ
dəbbà
k̭ən
##ək̭
##ydāl
prə́šlun
rišòxunˈ
k̭aṱlìvalun
k̭urk̭ə̀zlə
mə́lyənva
axlə̀nnux
##ili
šúrilə
##é
vádənvaˈ
beràšəˈ
k̭áṱlən
ṱamrìlun
ʾar
gánət
xank̭áxxə
tàmələ
pešìtun
ʾàzad
ganáyˈ
##làya
lublèla
pší
ʾaxči
mìyyəva
šə̀tya
##lílun
bayyáva
dmìxə
rušané
hàlˈ
cálba
xàyyi
thál
vàduləˈ
##xúna
malvušéla
xìlə
k̭amáyə
xə́š
lap̂àṱ
##nuc
##vənte
##ùṱ
ilaˈ
buzbək̭k̭
brə̀zvalun
##uyəl
ʾā́n
##ṱu
xólux
sávi
bək̭yáməl
yála
lə́b
rk̭áda
ʾàtənˈ
damə́xva
pallíva
švə́k̭li
ʾèdo
Daryavuš
baxčanā̀n
pašúṱuna
##čux
##áhu
jarbə̀nvalux
##xàyəl
mə́rra
xamúyəva
besməl
bəsyàk̭əla
dmí
xurdìyyə
dáryan
bàro
ṱúp̂ru
čò
bənxàpənˈ
ṱalab
sark̭àttə
ṱarú
bəzd
xayúytan
ṱarṱùməla
tàyyan
##dìtux
##xtaˈ
A
##láx
k̭aráxlun
##jàrəˈ
vàrda
bix
##álu
##rā̀
bəddáyəla
ʾəhtə
bùsra
odáxən
hə̀nnəla
gàrbiyyaˈ
avívaˈ
##ra
máydan
tanúyul
##lìtunliˈ
pyàšənaˈ
p̂armèta
sắbab
ʾərbàlaˈ
mattúvv
xya
šám
##šəlaˈ
ʾax
p̂armiyyáva
##ə̀nnux
ʾámma
ʾódaxva
yàx
xàlṱat
tambùyrə
plàṱa
səpp
váddar
aràlləǧ
ʾatətˈ
ʾavə́dlaˈ
k̭édamta
##hə̀m
##íla
##bəl
xìmi
gəd
mayyànnə
ʾúmran
ʾurusnáyə
taptəppánaˈ
švàva
xšívət
gárək̭ésa
##mánəˈ
ʾaturètaˈ
##tìyyələ
tav
##mraˈ
màxziyyat
mayyáxxa
k̭abú
Gavìlan
comunəstì
##màptulˈ
##évət
maxùlul
muttítən
##éta
xač̭č̭a
bnàyəvaˈ
ṱarpìlaˈ
hak̭ə́nvalun
xùvva
##záxlə
yàləˈ
xə́l
ʾúrmi
##gar
##šān
šak̭ə̀llaˈ
p̂lìṱa
##làla
munpə̀lvalux
bəmx
šùlo
ʾalulā̀n
##mídu
dúctaˈ
##k̭əvaˈ
##k̭àyə
bətvátəˈ
##ə́nva
##zən
##draˈ
bolòlola
xablìva
xazzìvala
cìsət
palə̀ṱləˈ
##px
cèlə
tarrā́n
##sax
##ràna
Nāzlu
dù
váyan
bàr
ʾùmtət
xzì
ʾAsò
##k̭áda
dùctaˈ
##yánə
náǧəl
čur
ʾupránət
##šk
v
vàyəva
Hár
byàyəla
ra
##yə̀n
##šux
badù
?!
##játtə
rxə̀ṱləˈgu
xə̀šlaˈ
mə̀rra
masyu
ʾodáxlə
bəšyárux
##mk̭i
ituva
##sìyyə
xázz
ʾabùnaˈ
léləmə́ndisiníyyət
partùlə
##íva
cósət
múyyət
pàssport
##rviy
k̭ə̀t
šap̂ìrələ
##praˈ
Máryamˈ
H
##úy
maxziyyànna
mə́nnu
ina
bnátə
šmìṱa
cəryùtaˈ
juvvə́blə
k̭alyàttun
lišànaˈ
dmùx
ʾáyni
##ə́lta
níxunta
xànaˈ
mayyən
##xot
drúm
mardùta
##ə́rro
##atan
ṱr
bənnàsiva
šadrə̀tlə
muntìyyələ
xank̭ìlə
muyyítəla
##únu
maga
bnùnəˈ
vída
F
riṱàla
avìle
də́štət
bàšəllun
nṱì
yàxsərˈ
ùdalə
hàlaˈ
ṱašyátte
cačála
č̭áppə
ʾaturàyaˈ
nammən
zvàn
Cər
xànəˈ
##lása
də́rya
##xàna
mattúvvot
mayyìva
ṱamráxa
##àṱə
##pulə
bəyyà
##bə̀llə
ʾaxùniləˈ
##diyyàlunˈ
c̭
rə̀xk̭aˈ
míyyu
mámṱi
máyux
##ìli
sirèlun
##jət
xḕr
marzan
ʾáxci
k̭àṱla
də́mmu
ʾatíni
burrə̀nnəl
tlù
gànuvaˈ
##vvi
mašxə̀ddaxˈ
càvə
ʾajjə́zva
láblax
k̭àlyəva
mabrù
mamṱiyyàxvalaˈ
parə̀mvaˈ
##daləˈ
ʾícəna
širə̀nnəx
ṱaryàna
bəšvá
muttíla
ʾìda
txúrtət
su
zā́d
mxa
ṱávulə
láxməš
##yèləˈ
##gav
##vàtət
ʾáxlax
k̭ab
blùslə
k̭alè
tíva
yàzanˈ
##ìxə
k̭ulìna
##k̭ám
xúmyolə
calbanā́n
ʾòtaǧˈ
mask̭íva
bitàˈ
manyə̀x
dást
taxnàxva
xəzmànan
fanati
tavəryatèˈ
bəddáyələ
nəsṱərnáyə
bəšvak̭ḗtva
##əc̭
yə̀mmuˈ
bəslàyələ
bàbuxˈ
k̭ə̀ntru
xavə̀rvaˈ
č̭mə̀
ʾadiyya
làxxa
##ḕṱ
##átlun
bábu
##ìva
##ənč
pnìli
##ccə
dok̭ə̀nnuxˈ
ˈ
k̭ṱílun
bədráyuva
taharˈ
məššəlmànələˈ
nùyna
ʾàllu
pacùr
dók̭ən
tàluxˈ
alumìn
ʾilànə
mə́rrun
ʾatíva
Sə̀bb
myu
šaxlùpo
vìdo
ap
##vìvaˈ
vày
##mulaˈ
ṱlə́bloxun
##ràyətˈ
jə̀pna
títəva
beràšə
##mməˈ
bašláxva
palùṱuna
prìsaˈ
dìyyiləˈ
ʾalà
búsra
##yàrə
##àri
xázzi
macsà
baxxúləl
bəxxàyəlˈ
xóri
xéli
xə̀š
diyyòxunˈ
##dàčiˈ
##ena
šíra
màtalˈ
lelaváyˈ
xoší
émpire
xíta
priṱàlə
ʾódan
camùtrə
bədvàk̭otvaˈ
p̂armiyyána
šak̭íta
mə́nˈ
ʾàrp̂a
ùz
ʾelčiyyùytaˈ
mšáya
ʾaxunvàtina
carí
##llə
ʾazət
ʾoyát
##ítunˈ
ṱùp̂riˈ
muxziyyála
dalàpčaˈ
pù
čòla
bne
zàbənnunˈ
##yàdə
jyà
šadùrəlˈ
muyyìlə
ʾátya
páləṱ
dəccàna
ṱurə́slan
hamzúmələ
maxdùrotˈ
bəč̭
vali
šula
šavvámma
bunìtən
##ṱòpə
məndyánu
mattùyuna
k̭àza
bə̀rrola
Smì
zvi
suràyəla
savùni
bərxáṱələ
##yənva
fanatik̭àyaˈ
##bada
tàrəs
ʾávənva
##àrux
ṱamráxxə
s
ʾaxunváyˈ
yùma
našaˈ
də̀n
##dàyaˈ
rappə̀tta
taməzzànnun
šūl
huyy
k̭íməl
buxaríyyə
k̭aṱk̭əṱṱàxvaləˈ
bənxápələ
sáparˈ
##p̂p̂
grə̀šlunˈ
R
ǘ
##jàlu
##̄n
catùn
bədyà
purpə̀llə
Tùrlock
##č̭u
bəsravèlə
ʾóini
##dxan
xayyìvaˈ
##áyəna
##mátət
xdárta
ṱà
##vátət
məššəlmànənaˈ
də́rraˈ
ʾìla
ʾàxˈgùpta
bəxdáraˈ
dē
Danìyyə
dùssa
ʾatítun
màyəlaˈ
dérsinˈ
##̄y
nigáran
##pàl
dɑ̄dgɑ̄́h
bík̭è
pipàlga
ʾáxər
susaváy
máyu
taxmànta
dày
hamzùməvət
zǧ
mavèlə
bəšk̭al
čarmúxəx
šúlət
k̭átmál
šàk̭laˈ
k̭èsəva
jàmməˈ
xàyəš
gắri
murrəšš
bàyyən
k̭átbrátux
mísəl
##rànə
múyyona
##lay
cmá
sústi
núslə
##ùn
##mmaˈ
pəlxánət
šuxlə̀ppaˈ
ràstə
##̂
##č̭č̭iˈ
##šar
pə́štəla
mač
zá
##áyyəd
mujtàyyəd
fə̀llan
dmax
làvəšlun
núsli
##dax
máynt
šṱó
taxmə́n
k̭urrùšta
##vuna
k̭bə̀llə
##mməva
dáriva
yalə̀nk̭ə
av
masyùdələˈ
gòri
yüzinnè
maxlètaˈ
Yú
bya
##bo
k̭èsəna
cə̀slo
balbúyələ
ṱamràvaˈ
k̭àzə
bəxnàk̭unaˈ
bəxzàyəlaˈ
k̭atòxun
suxsìyyə
##álələ
ʾarṱàla
šaddənnànnux
##ə̀tvaˈ
xelána
šəmyox
šak̭lə̀tva
gažž
maxpìvala
yú
##átə
pəlxànu
##vənaˈ
##àyˈ
ʾódi
mə̀rri
pà
hammú
ǧabàma
mačúxəna
Míster
cùllung
##ràttə
ʾadàttətˈ
mànzəlˈ
k̭ə̀
šák̭lən
rk̭à
ganè
gùr
##ə̀rni
báyyi
##k̭əlˈ
mag
partùlu
##yyu
pìli
parə̀k̭la
plàṱələˈ
k̭àto
cardìyyə
šábta
ʾálaha
##tist
k̭aṱlán
zòdəna
##àni
bayya
xarbùsuləˈ
dmù
ráma
mrìləˈ
xdàra
à
##sə́m
pàyə
k̭ə̀ryəva
##yàn
tə́r
dúca
hamzùməvaˈ
bašlàt
ʾàtxəlaˈ
tanùvvəla
davóxun
comu
ṱašúya
plùṱ
panj
mabrəzzívale
rac
bnùnə
tanìləˈ
mùttunva
ʾaturáyət
jì
mə́nno
supílun
váyəva
Šɑ̄̀h
xára
stùy
yárət
bàsmət
ndáya
##ccun
prə́xla
##rú
bšə̀lta
coùrtˈ
##viva
ʾodat
šīt
pacùrəlˈ
čríxənva
k̭amáy
k̭àlpullə
zubə̀nluxˈ
zàrdəˈ
ṱamrìlə
sətvè
ša
bašùlulaˈ
tíyya
muk̭ə̀ttaˈ
bədráyəx
##babábi
gab
tapu
bəddàyələ
cálax
bəddáyəx
bəjmàyəna
málcəna
nux
k̭ark̭əz
##ə́slun
xə̀šlun
k̭olek̭tìv
mláy
hamzúməla
šə́dda
bayyaxla
ṱav
mădə̀n
##àyəvaˈ
ʾávən
crə̀bla
ravàyəva
mə̀lxu
də̀k̭nuˈ
xìša
##bəva
##ə́šlun
k̭úrbət
##ùxə
gaššu
bùslə
šak̭lítun
dìyyan
tuyné
bəxdáyəla
mī̀zˈ
sùri
##úrəna
##mál
xatváy
##sălan
txa
čóba
##rəvva
dmàxa
ʾIl
##hə́
##me
man
##átu
ara
ʾə̀nsan
##mànəˈ
pùš
sà
ʾàvun
xə̀dyələ
barxəššàxvaləˈ
Már
##àtt
vàyənaˈ
lə̀tvalanˈ
##šəxva
##nì
ʾacc
nèy
mírələˈ
##dg
cùlləˈ
bəšk̭àlolˈ
##c̭é
p̂armù
##ṱənˈ
maxnə̀k̭li
ṱarùsə
hayyúrəl
lə̀b
##̆́ro
gášk̭əx
nšə̀k̭ləˈ
bərrə́šxən
labláva
buybà
tmáni
mete
tag
tuymánə
xošóxun
##ìnən
##dìvaˈ
palṱàla
##uva
bayyən
##ɑn
gáhə
##làyaˈ
##fər
##válə
ʾidət
xàna
cutànəˈ
ṱlə́btu
zvinélə
##mán
ʾùllulˈ
odáxvaˈ
xazə́nnux
##̆lan
parmáxva
muyyè
xlúy
ptáləl
##mad
glùltəlaˈ
mhál
Sultanàbad
ʾàlli
mémun
àyni
##ə̀slə
##lìst
##ssàr
šmílun
##sər
xsi
šavək̭va
yə́mma
xmarùytuˈ
bədyášul
palá
basùra
Màrezə
mašṱáxət
rxə̀ṱlə
k̭ark̭ə́zz
##xaˈ
##bìla
ʾurusnàyəla
pàri
ṱavvùyəla
bəddáyə
nàšət
msàyələ
ʾə̀č̭č̭a
yarə̀x
hamzə̀mmən
##rílux
##frey
šùk̭
ʾatnà
##jva
##tunliˈ
##bìtən
dína
sò
maxùlu
bábux
bədmáx
mìrələ
##sɑ̄zì
màyu
damxíva
dēv
mə̀lxaˈ
šəp̂p̂ə́šk̭a
ràmələ
yumánələ
k̭àlla
šə̀mmələˈ
maxzə́nnə
ʾàzaˈ
k̭ámetət
hotèls
ʾàmtət
ruppàlux
mu
máxzi
buybàrə
##šuna
##ìyyəˈ
##lày
##šé
k̭álət
masálan
k̭d
##yy
Hárun
##pə̀llə
k̭aluyèla
##təlyày
muttḗlˈ
zənjlìǧə
bìyyə
náraˈ
sə́l
mxáyolə
##ə̀stəva
k̭azànča
##láya
xàmilun
cáva
bàxtəla
##rà
##yyèlun
ʾíva
mačxə́nna
ní
xiyàrə
##balˈ
##əla
Mùyšava
gə̀xcəla
dvarətsì
##cla
màrzaˈ
ʾáxnan
pák̭dun
##sənaˈ
ʾə́ttənk̭ám
hə̀nna
sā̀ǧ
mə́trəvaˈ
##ánnax
mšixay
xdà
gə̀ptaˈ
##átəla
pàrək̭la
zabùnə
K̭ùrəš
##una
gə́xcəla
mər
xams
cyúla
gòrax
garvùsənaˈ
màxət
sòta
##mána
k̭ésu
nixúnta
mənyánət
K̭ur
##p̂à
ʾē
sandùy
dàvi
ròbəla
##ttun
pucə́rrə
##úrra
sírəx
pšìmət
gvàrəvaˈ
##èlun
dok̭íva
k̭əmlə
labláxlə
mattúyənaˈ
cárro
cà
mabsə̀rvalun
gurv
nàplət
pàlṱən
matvaté
##ə́k̭va
vadə́nvaˈ
čallə̀
ádd
##rā̀l
##ǧˈ
xvárəva
k̭əryànəva
xòb
p̂ri
mxí
##ùrəva
##mmi
bnū̀n
báyya
mə́nnax
davə́lta
víyyələˈ
vàdulə
rappùyila
ṱuyáy
##rəˈ
k̭ári
cìpaˈ
##yənaˈ
áməs
cici
tàrba
k̭ulína
caràvuz
ʾày
hivíyyu
mabrəzzívaˈ
lḗt
l
císət
##šyàvaˈ
he
##ə̀tvalə
##lù
Yuxànnan
ʾátíva
săbá
yálaˈ
bək̭yámələ
ʾáx
šaxìnə
##áttu
ʾalàhə
fay
ʾə̀t
sabú
šarílun
##ə̀n
k̭ərk̭ə́pto
p̂urṱəccàle
xət
rišé
ʾátən
##ntr
mətt
dák̭ər
bàlta
bitàyələˈ
##étu
##tolaˈ
cpìnən
gannəvv
lub
##ara
##šìtun
Nasrà
xəzmànə
mácc
rappúvvolə
spet
##áli
##dálət
šópo
dáni
rə̀k̭lə
lišān
xmàrəˈ
##bənˈ
ʾə̀n
##lìvalun
##pəˈ
##rxət
bədvàk̭ula
##duštàyə
yámtət
bəsmàk̭əl
čolátə
k̭ṱilàla
nùy
mùyyol
##k̭áxva
zvàntət
mixùlta
partul
##yyəd
xə̀šca
Cərmànšar
garšàvala
páto
nəsṱər
##yəlà
yə
lḕ
mùlp
hálli
ál
xàr
##ìvalaˈ
bək̭ṱàyunaˈ
čárəx
ʾàˈ
go
pə̀llan
lə́tvalun
tila
manšívala
bəxzàyətunˈ
pál
drítula
cálu
màrəlˈ
bəxzàyələˈ
bš
##ezə
pòxa
casíbə
mírələ
vídətun
šə́lxət
baxtàyˈ
##lánta
buk̭ràči
huyyə̀rrət
cò
ʾálma
clíla
zónax
xaž
maǧǧ
sávun
Suríyya
##rələ
càmrəˈ
msi
mattàtlə
k̭ərk̭ə́ptu
##ìlan
šk̭ilàva
##ùrra
##nilə
pàta
k̭dàlulə
part
pàss
dèˈtaxmán
db
##siníyyət
ask̭àxvaˈ
mattúvvət
xə̀lta
péncil
##ulˈ
gùy
barnàšaˈ
maxziyy
xazzə̀nnuxˈ
bəddáyuˈ
yàysu
##ə̀sta
##pər
##ī̀
##áxa
##rrèˈ
##yɑ̄̀j
mìtənaˈ
vàyələ
##ṱul
xallu
dane
k̭amàya
láx
maštíva
šk̭úl
##zìva
táxmən
zlìma
##dána
ʾurxaváy
##lèlə
Salàmas
mə́rrux
bərrášələ
maǧǧùbon
##k̭àr
mxíla
xíšəvaxˈ
cəndúra
jò
##dˈ
ʾáxūn
čún
sávuni
tanuyèla
ṱarúsəl
##ǧ
Leningràd
tàlmaˈ
bràtənva
masàlan
Xazàrˈ
byàyəvaˈ
šaxləpp
šk̭ílot
gó
líst
ʾú
##lávya
bàxti
dag
daryánnux
xási
xarta
mayéla
àtən
ṱúy
##éna
vídunva
jmì
Hilína
marùmul
rax
mšixayùta
yə̀mma
ʾodilə
##ə̀nnun
tavə́rta
dəccan
bərràk̭əva
pàrča
jul
càlla
palṱìtun
xazzə́nna
tmanə̀ssarˈ
mamùˈ
axlàləˈ
gánuˈ
bávu
##č̭ə́rrə
##ovaˈ
šurṱəˈ
ṱvè
dà
brílux
##mmax
ʾərbála
cú
púmmax
ʾAzarbàyjan
crə
##àyəvənˈ
hamzùməla
##crəzz
jvánk̭aˈ
ʾálluʾù
sk̭
hìˈ
čarmúxələ
ʾáh
šap̂
labə̀lla
rš
ʾəltíxo
##nà
xàmənnoxun
bəll
##li
tunítun
nə́sbat
gə́lla
##lə́tli
pyàšəna
mṱìlanˈ
šudràli
jammàtteˈ
štì
gùdya
##sé
mítələ
mavurél
##nun
òət
məššəlmána
##ə́rre
##k̭uva
dáx
ʾə̀rxə
##ə́
bàxtiˈ
##mànaˈ
##ə́zva
jahànna
jarùbənˈ
Z
ṱə̀lya
tìlanˈ
davə̀ltəla
tap
##buˈ
##ə̀lla
salúyəvaˈ
##úyəna
dagùlə
k̭éṱaˈ
mardəxx
šámpur
muštáyyəd
##tli
tòrbaˈ
bətpà
k̭apk̭ù
##xané
brìta
màxə
##yáx
cnàštaˈ
Ch
jùvvab
plə̀x
radxìvaˈ
mattúyula
túr
labúləna
gúbbaz
##ə́r
laváša
ʾústol
lìpəva
mšì
##áy
ʾàzə
cəšmìšəva
ṱarsíva
##dux
##úyəl
hamzə́
##yyənaˈ
maṱrə́ssənˈ
pəlxàna
avìni
##ṱtéla
báxtux
betè
carpíčət
bixàluləˈ
##rəl
##ùṱu
xalvanàya
pràmut
parə́mvala
##ī̀l
##yátət
mattùyu
mə́rya
dmì
##duz
o
##k̭yan
##yànnux
carìxə
palúṱələ
##vvəbb
##šeləˈ
##ic
daryànnuxˈ
dúk̭li
čurmə́x
yávva
šàdə
nìnələ
##áyənaˈ
ʾumrànəˈ
but
cá
yà
xamšammà
ʾaxùno
basə́mta
dìyyənaˈ
##nə
k̭ṱìlona
##ùyrə
##əva
mxayèlə
ctèta
tìliˈ
##k̭ùba
bəndáyələ
càdəˈ
rùš
lētva
bəxlà
parpùrə
bəzdàyəlˈ
dorà
##áxxəˈ
xùmyul
zəˈcú
##bàšə
##lul
ctə̀v
honána
##an
pā̀švaˈ
##ìtən
švík̭əva
ṱavv
Rùsya
yásər
ʾàxun
hàda
ázax
p
Nāz
nipùxta
dáv
báyyən
k̭alu
ʾavìva
sìruˈ
bəjmáyəna
bétux
šak̭lə́
gríšina
nàyəna
múttila
##k̭ta
beta
simàlta
hemə́zman
̆
Rùsiyya
gnāy
vàdəvaˈ
č̭ac̭c̭é
dr
Màcca
##j
ginà
##so
šadúrulə
bəšk̭àlə
xàlvaˈ
ròzəˈ
yáṱṱ
##láttət
yasə́k̭va
bəšvák̭a
##àrtu
##cò
##šərr
##yàttun
##bàjan
tè
p̂aṱp̂úṱox
##zanan
jumm
plìxaˈ
ʾàvvaˈ
##gù
xyà
šadr
č̭uxč̭
jī́s
tanìna
matvátə
simàxurˈ
xíšətva
bəzní
salùyə
##ha
##ə̀ntaˈ
lā́m
bəddàyətˈ
tarránan
Hamàdanˈ
camù
čək̭k̭ùrta
GK
ʾàvva
##šunˈ
palṱáva
k̭ùlyotunˈ
ʾəsrí
##ìlaˈ
nùyra
##k̭əˈ
tal
hušé
càbar
Sàndu
ámsət
šadrə̀nnunˈ
##àraˈ
##ìval
máraˈ
##bə̀nnunˈ
##ì
ʾoya
mxayéna
k̭ùččar
šadùrulə
##ə̀k̭k̭a
lìpəxˈ
ʾə̀mmaˈ
##bše
bak̭rə̀tlə
##càrəna
mə́dre
yavḗt
bəmṱ
bəxraz
lap̂à
pə̀k̭k̭aˈ
k̭tàlta
odánna
ʾətvalun
č̭mə̀č̭lunˈ
mač̭r
ʾaji
communìst
ʾAr
barùy
ʾìtaˈ
xdìtənˈ
Bark̭araxa
càmrə
hamzàmta
hemə́z
k̭upšə̀nta
##úṱu
mxàya
dmə́xtəla
mut
mátrəsˈ
g
bərr
urè
bədvàk̭ulə
patóm
ʾíman
tanílun
bazzə̀ttəˈ
bàvəl
muttácca
tòra
tanùvvəlaˈ
##àxla
ṱràptətˈ
pə́lli
švàvu
tànili
k̭usaryay
xazzìla
munyə̀xli
xuyraváy
gadú
##ǧǧ
lə́bbas
məššəl
##ṱat
šúlu
hajáttə
##ànča
##vùšolə
ybələ
Š
plì
daráxva
láxmə
pàtaˈ
k̭aralū̀c
rk̭ə̀dlux
slúta
##ùx
dmìxa
mút
bərxáṱəna
xurrày
ṱlə́b
carmànəˈ
k̭usártət
sux
##vvox
ʾàn
##də̀nnələ
šə́xtu
##yəvaˈ
lḕt
susavàyˈ
mabyən
xvíṱəvaˈ
mə̀drəˈ
bəxdára
rav
pulə
rappúvv
ʾàzi
màsalanˈ
də́mma
buš
tanùyəl
##mùta
bəxnàk̭ivətˈ
tarsìvaˈ
pátət
ṱál
bùlču
sùstələ
##ə̀ggə
mujjùrraˈ
mə́ṱyaˈ
dàhaˈ
madrásə
C
xúl
##búru
rxáṱa
tmanyámma
bə̀rc
yak̭ubàyəˈ
brə̀z
##ə̀ttaˈ
##k̭ə
zrùta
céna
ʾavá
k̭áy
palṱìtunli
nanùn
bə́rro
súpra
##vàyˈ
hák̭yat
ʾúdyu
a
##mìč̭əna
partúlələ
dvìk̭una
mùttəva
k̭údmə
##ʾáviva
##jv
zòda
ṱùmrutunˈ
čày
šlə̀xla
bəsyarèlə
##àxvalun
ʾavahà
znàčet
xarbùsulə
čámčaˈ
salíva
bašū́r
marrə̀nnun
zabúnəx
šə̀nnovaˈ
msàyəlˈ
mə́sta
tandə̀lvalun
mìta
bàyyan
trèˈ
ʾázi
k̭ázza
bək̭rayènaˈ
tanə̀nnox
##ùmə
ʾádù
##ílunˈ
san
janavàro
bàzārˈ
##nyəlaˈ
k̭avvùlənˈ
mə́drə
gadu
##árta
##šìvaˈ
taləmy
čóla
bəxdá
malcav
##̆́
momā́t
rk̭àda
##yənˈ
maxnək̭k̭
ṱə̀l
cī́n
bašulélaˈ
bəsyà
ʾAlà
##maxva
gùrtəla
xmàrələˈ
məššínər
##ìlun
hada
Yang
rùy
àvax
yavvə̀nnun
##šət
lítən
ṱavùləna
k̭amàytux
šuxì
šaríva
kənyànə
odíva
##yəxx
tábba
zarráxva
h
zvìnəva
Və́ktur
nanún
bədmá
##ràvaˈ
cát
tàsa
##xunta
garšà
Tùrlockˈ
duccan
xazzáy
tlùvvə
dví
k̭ə̀šta
ʾá
##ə́llux
múyyuva
mattìtu
ʾíla
park̭ìtən
məxyálə
máṱilə
##llun
hàvus
glù
calàma
##bátu
xə̀ššu
ṱavúlə
##màliˈ
##nˈ
hák̭ət
##àgo
dvìk̭ul
##yuvən
pisùyta
co
##noxun
zabnà
mará
xlìta
k̭aṱṱ
ùr
hamzə̀mma
##làv
##marˈ
xlìma
zabnàxva
ṱup̂p̂úrtu
k̭aṱ
##uxˈ
màma
nàša
##ùk̭ṱ
hə́l
ptixéla
ʾiranàyəˈ
##áxələ
tahar
k̭ṱì
ʾativa
##rádən
##yáva
ʾaxə̀lvale
túpi
tánya
bəšvàk̭oˈ
gna
tanìva
gvìrən
màllələ
rù
pal
mattìləˈ
##lu
##ə̀xla
yəssúra
ducta
##məvax
##ə̀xšə
ṱaláxva
màrəlaˈ
##vanˈ
váyələˈ
xúrrac
ax
maštìlun
##šyày
màraniˈ
ʾàza
##mxət
badùšə
tapp
##žm
jójət
Mahámat
bədràyəna
##ʾat
ʾak̭ràxva
##yànəva
##vun
ʾaxùni
lá
Rašī̀d
yavvə́nnun
fársət
rúyta
tàrrətˈ
##̄̀l
pr
manzílə
vàyəna
ʾùgaˈ
##rrə̀nnə
yə̀mmux
càlbaˈ
hayvàna
bəgvárəva
##úšol
və̀rrə
tre
##məxx
##fàyə
maǧǧə̀bban
dùz
palə́ṱva
##vā̀n
fòreman
mərtùxa
bəšk̭àlolə
##àleˈ
ʾàvə
váyəx
bətyá
ʾə́sri
p̂urmìli
parmìlə
vay
bəcyàpələ
dùctəla
ctávə
pyáyəlaˈ
péčə
ʾAmèrica
savə̀lta
ʾàxtunˈ
muǧǧ
bəšyàrəva
zə̀t
##mú
dàvva
##nəna
vùdˈ
##ə́x
xurbə̀ssuˈ
buxàriˈ
víyya
arálləǧ
bərrə́ššəl
sàbun
vídən
ʾodàləˈ
pyàyənva
##tamà
jàji
cā́r
##max
p̂uč̭
damúrči
málcələ
##galàyəˈ
xak̭lànəˈ
##əč̭lə
ṱyán
bək̭váya
##nérət
ʾávvaˈ
##llulˈ
##xáṱta
##urḕxva
hərrèˈ
mǧalyaté
šùr
mə̀tli
làbəl
##xut
lelavàtəˈ
ṱə̀lyələ
mə̀ṱya
ràpsa
k̭ésə
šap̂ə̀r
hamzə́mmən
ṱyántət
labláxlux
##č̭
də̀llaˈ
mudmə
zìla
##èləˈ
šrá
ṱarə̀sva
nàzucˈ
nammənnìvalə
bixáləva
p̂arsùpəˈ
palúṱ
hày
##k̭ùpə
ptixèlə
šmìṱuxˈ
cípəˈ
ʾaláha
šak̭làxvala
darrùnu
##toˈ
##̄š
gamə̀šta
##lúyə
##fu
mo
##̄z
k̭ulìnaˈ
##us
##rá
šə̀mmi
malcùtaˈ
šən
šaxə̀nta
sāǧ
šeràxvalə
buk̭ēṱ
bədvàk̭
pàlgət
zabnə̀nvalux
buxàri
mumrə̀llə
##ə̀nta
yaṱṱan
f
ṱuránə
xárayə
xažbənnə̀nnunˈ
##čè
bī́l
mə́t
##pu
##k
zarr
##nyələ
k̭uxā́n
ptixálun
##ílux
spadiyyà
čárpəc
##k̭un
mí
mòta
pàrallel
smú
tama
məndit
zdà
##on
màrza
bašùləxˈ
##et
bašàltaˈ
##bá
clì
hurhə̀mlax
rìk̭a
salúyəva
lìpə
k̭àziˈ
lú
vó
[MASK]
##yavuš
garv
##úsk̭a
ʾàxčiˈ
##šəlˈ
parmàliˈ
##of
ʾək̭ré
bəxzayèlə
ʾəsrá
məlyálə
ànyway
##mané
tunyíləˈ
bitàyəl
susavátət
və
dágəl
##ètˈ
##vəxˈ
psə̀xlaˈ
ávətva
tùymaˈ
ʾàlma
c̭úra
##yèˈ
šulx
hámmən
vàdələˈ
k̭əṱṱì
##təlaˈ
ʾə̀nˈ
bəcrà
pə̀tvu
švik̭èlə
tòraˈ
badúša
dvik̭àlə
bəcláyəna
bazbək̭k̭ílə
nàyə
pármən
p̂urmìlux
##mmuˈ
ṱlanìta
gabàxləˈ
##òxunˈ
bərk̭àdəna
##xt
muxə́ltəla
bənpàləvaˈ
nòraˈ
ṱalb
##pəc
honà
mána
malyù
bək̭náyuva
ʾázən
ʾaṱṱa
bədráyova
máta
Yanjìja
šàddu
bək̭ráyuna
bərrə̀xšeləˈ
yumaˈ
šòpu
gánonanùnti
azáxva
yámət
xəl
##bra
bək̭ráyəl
yavvə̀nnə
##zyə
##šən
dèvə
##təva
##ùlulə
váduna
xàdən
tanyánna
##̄̀v
ʾás
švàraˈ
k̭armàla
batvátətˈmən
ódax
npáləl
maláxvalun
vi
bušlè
sépət
šamà
mxáyənaˈ
marya
hamzùməva
hàl
##yat
ṱavùlə
məttə̀lta
šə́mmət
##ster
##vàtətˈ
gaššùk̭əlˈ
ʾášur
##ùta
##àxvalaˈ
##àrəˈ
suk̭
##lili
bərxàṱənaˈ
zabnánət
dàyənˈ
##ə́k̭valə
xmárələ
##tə̀nnə
ʾavə́dvaˈ
##xšə
bək̭k̭àr
hamzùma
iR
lešìvaˈ
cə̀sluxˈ
ʾàvəd
##ìle
##máyəla
ʾàlmət
már
Surìyya
##ánux
tíyyən
##oman
mállaˈ
Mahàbad
ṱàšilunˈ
dmə̀xtəlaˈ
šk̭ílələ
bərrə̀ššəlaˈ
bəšk̭álōl
ʾícətcú
smu
rappùyə
##yanˈ
canùštaˈ
samalyò
maxìlə
labúlulə
lélət
bərrə́xšəxva
##ùšta
k̭ám
ṱèra
pálṱa
dránux
##clət
maséta
bətxárən
##fín
##hát
##̄̀nva
k̭dílə
##nanu
##luva
cùl
##̆də̀n
##k̭una
brìzaˈ
síni
honánəva
ivaxˈ
xaməssàr
##yətbə́r
núyna
mčìxəna
xù
xíša
bíyya
##pránət
šār
cə́lyəl
k̭abulèna
císu
ʾaftamà
ilà
##səna
čullù
##sal
bak̭
##ìdələ
ʾàyni
bəxvá
##átiˈ
dùy
čin
##xánət
ʾaxlə̀nva
hàmmam
##nox
maštə́tvalə
##árən
k̭ànd
##mša
ída
bza
tòrba
xùšunˈ
##uk̭ˈ
xə̀šcəl
##yáy
ʾə̀mza
ṱlə́btəla
##pla
dmə́xlə
xurdìyyolə
yavvánnax
##lé
mìtaˈ
bó
ʾúdalə
sùra
nesə̀nnux
k̭àtu
ʾátxaˈ
yavvìlax
xàk̭laˈ
čol
ʾida
bə́ššələ
##rəlaˈ
mattùyəna
dáne
##xánələ
bíyyu
##yàmulə
júra
okèyˈ
bək̭yà
muyyíto
##vuš
Sə̀bbər
ʾáǧay
báyyə
ʾazə́lva
xəzmān
ʾàmb
##ciyya
šàvva
Nasràdən
ʾodàxlə
##ívaˈ
##dàri
##nè
šúli
plùx
k̭usàrtaˈ
ʾurusn
k̭aṱəl
rabìyyə
xə̀lto
maštə̀tvala
##álux
dmàxtət
òda
maxzìlə
palṱìva
tani
bətváy
zìlaˈ
##àran
díyyux
k̭amèˈ
##làləˈ
##xčət
ʾə́tla
##ni
##sivaˈ
ʾalúla
##əlaˈ
##yévaˈ
tammuzèləˈ
gibo
dḕvˈ
càva
prìšə
k̭àṱ
##tərˈ
##ruvaˈ
ʾadi
pàstə
tápx
pə́šlə
láxxu
pátxən
pešánət
##puxˈ
##bux
jə̀myəna
##ṱma
##pš
##tuva
##mtuˈ
##rā́n
šlə̀mlun
prùm
jeràva
##rruxˈ
i
##lət
və́dlə
zamp
bə̀rr
gavə́rva
yasr
rigavàyˈ
-
##hɑ̄̀n
ctívuna
##ə̀š
k̭ə́zzo
##dámta
taxmùnəlaˈ
bəšmáyələ
##U
šak̭l
##nášəva
xlìtaˈ
gašə́k̭ni
##ŕ
sa
ʾoráva
bə́zzə
##zəl
ʾùrzəˈ
ʾò
hàzərˈ
I
##pənˈ
##pəx
mə́ṱ
##vvo
baxčánət
yèməš
ʾárxət
##vávalux
k̭unj
dā́r
##ìk̭əˈ
##àza
ʾivangalàyəˈ
##návalə
##a
č̭àlə
bədvák̭olə
màydan
##ə̀l
zəˈcúllə
bíyyux
mə́nbéta
ʾazə̀lni
##stol
##rava
mattìvaleˈ
yonàyˈ
laxma
##ágo
##eš
gurvə̀ssəˈ
lḗtva
šadurèləˈ
##áləna
mattáxva
xála
##ùytəla
šk̭ilàvale
gašúk̭əl
šàk̭lanvaˈ
Chicágo
tə́v
##ina
##ṱra
bancyày
p̂òsṱ
xdir
]
màsta
##nzəlˈ
və́d
##vəva
šə́myun
zmàra
p̂ravaslàv
garp
pàyyini
ʾə́s
vìyyəˈ
k̭r
k̭ṱìlun
##pur
lublèlun
##yátə
zi
bəsláyələ
atíva
bədvàk̭uləˈ
maṱṱùsuˈ
xlá
bə̀ššəna
dántaˈ
baxtàtə
mə̀trə
ʾàrrəva
##c
búr
ṱə̀r
slùta
mátaˈ
##àr
##ámət
##yulaˈ
mèmunˈ
baruzùytəla
bašlə̀nnunˈ
bərrák̭əna
basè
bnùnitun
hā̀j
dóʾó
ʾaxlə́tti
pulṱḗnva
vàyəlaˈ
xùmyəna
bássa
vàyələˈ
k̭ùr
bəzdá
yə̀mmətˈ
gamì
ṱúp
gn
čó
##ə̀k̭ləˈ
də́k̭
rə́dxu
ʾazìvaˈ
murrəššə̀nnux
gə́š
pagè
maláxva
júllu
jammàxvalun
plùxun
mapšur
palla
maryəxxə̀nna
ʾà
tabák̭ə
pəlxànələ
šap̂ə́rtəla
##č̭č̭a
p̂a
##àyət
k̭ùxa
##ck
##lnaˈ
bè
bək̭ràyələˈ
turšíyyət
bàd
vàrəlaˈ
ṱúprət
bəxnàk̭itvaˈ
máyəna
báva
ʾəngləz
damx
xáyyə
júllə
hošà
vayèlə
bəšk̭alḕl
bràtəla
švik̭ál
lévən
bəzzàzə
##raxˈ
cə̀sluˈ
npìla
bəsyárələ
##íl
matvàtətˈ
màyova
xàč̭č̭
rùppulə
plə́ṱlə
marxù
susavày
lablún
k̭əržàla
zúltu
ràzivanˈ
gəllálan
bàbiˈ
sàpˈ
##̄̀r
ptàxəla
tah
zubnə̀nna
ṱlan
xəzyàlunˈ
##ə́xla
məššən
##ə̀lta
grafín
gaššák̭tət
bna
bəcráx
xayyìva
rk̭ə̀d
bítayənaˈ
xadərvánan
byáyəna
Gèr
tunìləˈ
prùk̭un
bár
màvu
k̭ágan
##valux
hazərrúyta
xìnaˈ
gànux
p̂ə̀
bərrə̀ššəla
dàxˈ
vú
yavé
məšm
sàb
##rrac
suryòyo
##h
nàrəna
susìto
nimàna
tə́vtəla
pèčəˈ
svètarˈ
gí
bolò
##ùyraˈ
can
suràyəˈ
šlàmalux
díyyuxˈ
xyavándə
ʾodàvaˈ
##vyəˈ
mélun
xák̭lux
dalupyày
tanápə
##yà
odə́nnax
jílə
Spùrǧān
rang
gùbbu
mattúvvona
xp̂
sùsə
k̭ut
ʾə̀ttənˈ
##úmtu
péčat
##k̭aˈ
mṱìləˈ
p̂rà
##čč
ʾàvən
##ə́š
dépulə
mə́nni
macr
màlcaˈ
xə̀tna
čardàk̭ˈ
muntí
y
maš
yavvə́tla
xabùšə
Harùnə
##ši
ʾùydálə
janavàrə
##úk̭əna
xamívalun
##p̂
##hat
##èr
k̭ədámta
ʾaturày
làxmaˈ
šaxə̀ntəla
byàyəvənˈ
dok̭ìlə
vúdˈ
ʾátšə́
##rayènaˈ
yàsk̭an
múcsəva
dašdəššívalə
šk̭ə̀llaˈ
##̄̀s
šap̂ə́rtaˈ
ybaˈ
šalk̭ə́nnun
ʾAsòr
##lána
xamíva
hónu
sábun
šmáyya
yàtvaxˈ
báš
##yḕ
dùyta
č̭áplə
saṱànələ
bə́
ʾámra
##təpp
mamù
##ə́zz
zabúnət
ja
dúcət
Tùrciyyaˈ
tilə
vìyyəvaxˈ
##làva
tápək̭
##áxvalun
múyyaˈ
yarpíva
ʾurxàtə
púləṱlə
muyyèli
hamzə́mmi
ʾàvər
##šona
##bət
##ùytaˈ
ìdo
vádəla
zayifè
práməna
k̭ā̀m
bəšvà
xàzz
ʾàvənˈ
##àyuna
taxmùnələˈ
zùyzəˈ
ʾarəmnáyə
k̭əss
və́
##áxən
vazyatt
besməllà
vídət
##k̭k̭aš
janàvar
Dw
mayyívalun
##manə̀s
k̭ṱúl
tìyyəvax
mak̭dìlə
p̂ə́rc̭a
vìyyəna
##rə́n
davanàyəˈ
rə̀k̭la
babèˈ
clítəva
nun
míra
casìbəvan
ʾìta
magra
xámi
##yùtaˈ
bèrašəva
moràxval
⁺
k̭atéˈ
##̄t
xàyyaxˈ
##mánət
marzanan
##oxvaˈ
məšmə́ššə
bərxà
xabùyšə
ʾántu
tà
daraté
sə̀t
matrúsəna
##íyyə
sắ
##tèla
ʾUrā̀l
švávə
ʾàxlax
ʾavilux
ptáxəva
dú
rappílə
ʾodən
##té
yámaʾé
mə́trə
surútu
jérən
nafas
garúma
##pətə́
k̭émən
bədrayéna
zeˈ
Salámas
pltə̀ṱləˈ
harambàšə
pul
##sámət
##gˈ
##lona
jày
tsé
hèy
k̭arbùnəna
##ə̀lva
xzìˈ
plí
rxə̀
gvánk̭ə
xelàpa
ṱun
zabnìvalun
basíma
yát
tpə́k̭lə
báyyəva
bəšmáya
p̂ə̀k̭k̭a
yásk̭a
bədrayél
me
xamáxxəˈ
p̂
rangé
čal
hə́lma
dàni
##yyulˈ
làˈxə̀šša
##vəna
rìša
##yə̀s
k̭dálu
šítət
bəṱráyən
##ravas
##làṱa
xalvìva
##uš
##sav
k̭abùloxˈ
##ániˈ
azíva
park̭ə̀nna
bəddáya
##unaˈ
bášəllun
pàyṱun
paxlə̀tti
##lìya
tànax
Sàn
xásət
gvìrəx
labláxvale
##ī́l
##yánna
##dut
bixálona
bə́n
iRʾ
ʾəč̭č̭ammà
##mànta
ci
##ə̀xta
mèšaˈ
pə́ltəva
##èna
šudráli
yávv
dának̭ənyána
cìsətˈ
cilo
tamməzzìlə
vàdəlaˈ
maráca
šùyša
ī́n
xatváto
ctə́vta
zvìnaˈ
hádran
##àttəˈ
mújjurra
ʾod
mànaˈ
bərrə̀xšəla
rámta
mašxùnuləˈ
məscə́nta
šadúruna
k̭rì
tuníta
gàrmun
sə̀lk̭a
xúrjun
ù
zmaryátət
pàralle
##pyày
malcùyta
k̭aṱlə́nnə
##àra
dánə
laxù
mənnó
brū́n
so
nošé
láb
áxliva
šudə́rrə
ʾàzət
##valaˈ
##maṱèlə
prák̭to
yavv
##pyalə
nùk̭zəˈ
lavášə
k̭aṱk̭əṱṱ
msilunˈ
máyuva
bátət
ràba
hayyúrələ
ṱúl
Tùmaˈ
yə̀mmoˈ
magazín
banìlun
lubə́llun
mattuvv
bá
ətˈ
##ò
mujjùrra
##vulə
ṱùyraˈ
hadràxlun
##lèvaˈ
xabu
##gə̀r
smàla
màyoləˈ
jafàri
##məl
ṱarùs
##ràk̭u
##nànnux
##lacànə
gùrələˈ
dúnyə
dùco
rə́xlə
problèm
##áləˈ
##múr
bəptàxot
málcət
##stan
partùləva
šùlu
k̭èsəvaˈ
bətpàk̭ənaˈ
iləˈ
ʾabúna
k̭ṱəl
bəšvak̭
tanína
##hələ
##určìyyə
maxlìləˈ
k̭àṱliˈ
ginávə
##ùjəva
byayət
dàrtətˈ
yùmˈ
hammúnəˈ
##k̭alˈ
əč̭č̭ammà
bəxpá
xədyúyta
##xúlə
yárxəˈ
duccàna
xámátət
yavə́nnun
pàlṱunli
tarsíva
##ɑ̄̀nˈ
k̭dàlu
zə̀rra
gùpta
Maryàna
##yyəvà
durašé
##ùvvən
##sívalun
axə̀lvalə
sádda
blə́
xulàsaˈ
ʾàzadˈ
mdì
díyyiˈ
Pš
##ùvun
##rca
##ḕx
bazbùzuləˈ
zò
k̭àša
##lánət
mayyìvalə
xlìtəlaˈ
##ùlən
##k̭úba
##làtlunˈ
tàmma
cùtan
##màna
mằ
vúdlun
##lóxun
##ṓn
##búyələ
##ṱè
xəzmàniˈ
ṱup̂p̂úrto
Tòrəzˈ
štéta
xamšà
bəšvak̭ḗt
##ub
mátrəs
mə̀jjət
ʾas
tàyməna
vìdonaˈ
##àxvaləˈ
bixàlaˈ
màmuniˈ
bašliva
lə́tlan
xarxə́rri
mùxlaˈ
##k̭i
##lán
ráhatˈ
avíloxun
cépux
##ranˈ
u
ctə́vtət
xmári
muyyálux
cárpəc
sámo
##dun
##zíli
##dat
xə̀ṱṱəˈ
hàšy
##ə̀slunˈ
##šoləˈ
ʾoyàva
##ànna
šuttə́slun
ve
lela
pìšələ
c̭ə́č̭č̭ə
zə̀d
bərrə́x
bərxáṱəl
daryánna
mə̀nnax
vàrdaˈ
atyàni
c̭ùrəva
xàrəvva
##ìbə
vádunaˈ
č̭mə̀č̭lun
bək̭ṱày
mə́nci
salúyə
##yànaˈ
yúvvən
marəsxàna
pàšcaš
k̭ṱìlət
##šá
Č
xdírələ
##ʾátxa
p̂armi
jī̀s
bù
k̭attátət
##č̭əna
dànniva
báxtaˈ
palúṱət
sàr
dak̭íkəˈ
mašṱ
xìšənaˈ
šōp
##xəva
ji
##xə̀š
plə̀ṱlunˈ
palṱáli
sàbˈ
šup̂rə́ntəla
byáyəvax
##rrang
bəšmàyəxva
bətxare
bəxšávətun
bə̀x
nṱìrona
mattùyolə
nonùvvən
ṱár
##ùyməva
tárrətʾe
bàra
##bənaˈ
múttot
tányat
maxàlta
ṱalbìvalə
nàšəl
xút
čurmə́xxu
bábi
čul
##̄̀j
##púta
manšiyy
sàrgaˈ
##mz
šaxə́nta
xaltána
də̀nyəˈ
##ə́nnəx
ṱùpra
myàyoˈ
##àlun
tan
##lùn
màniva
ʾak̭ùbraˈ
bixàlən
k̭àtux
xamáxvalə
ctà
##yèniye
munpə̀lva
baxč
yalé
màrla
pacúrəna
mazyədd
xə́tnu
##ar
zaráxvalun
bit
márəla
yak̭ubáyə
bəgvàrəna
sùy
##yyatˈ
tujjɑ̄rát
màmu
mṱíla
xáčča
##úvv
ràmšaˈ
píləl
bəddày
##ght
léləmə́ndi
cùnda
##cət
muttúvvələ
dávən
##ma
##raz
coùr
##ə̀rva
ʾə́dmu
surùyta
k̭aṱlìli
k̭rə́mlux
pùl
bəyyávəla
gav
##ltəva
##llan
suràyələ
ícət
ʾànvəna
čurmə̀xxa
bəmṱàyəlaˈ
pràk̭tola
ʾaxlìvalunˈ
##čiyyùytaˈ
p̂ràṱol
mə̀r
ráz
##O
##íxaˈ
rappuvvélə
dəžmə́nnu
làbəlˈ
##vìla
vidèlun
zádyat
##st
xə́šli
##mačx
šmì
turcàya
k̭ázə
yə́
də́pnət
##yli
ʾóya
##vak̭
bəmxáyələ
mášə
hotèl
axlíva
zárrən
tlə́k̭la
bayyə́nna
muxnək̭k̭ə̀nnux
máyyət
ṱalàtva
paláṱṱət
##yyanˈ
xat
##lk̭i
bək̭yátəl
muddiyyàlunˈ
mùblə
mláyəna
fàrsət
bùl
šulxèlə
gúˈgu
mazrák̭ət
k̭avì
ge
ṱši
mə̀ryələ
dèˈtaxmántət
yum
##yàk̭us
xə́tna
dávva
zarzáxlə
nobət
dìyyilə
də̀
gnùvunla
xó
mxàyələ
tanit
tálga
lə́bbux
xámili
##álə
ʾàk̭lo
rìši
ʾodət
sə́p
dalúpə
ʾaṱṱ
màtal
tuxmə̀nnəˈ
gavéˈ
halbátta
##áxvala
zó
##nàyələ
sabaxtèˈ
šaxlə̀plaˈ
bəxšàvət
mask̭ívalə
xə́zyəvaxˈ
ʾodan
k̭àrmiˈ
véna
k̭amàyto
purziyyèlə
biyyàlə
ràzi
bulmə̀lla
mačùxə
beddà
##vìta
ʾAmèricaˈ
bərrə̀xšələˈ
vḗn
xá
##ttə̀
márma
xàbrələ
vàda
jɑ̄ndɑ
bəsyák̭əla
ʾúr
##yánnux
pàlxət
šarúyəl
čambulèva
patx
paluṱ
##nàvo
k̭àlu
yə̀mmola
ʾàtyaˈ
sə̀lyəva
víyyələ
bùy
cùndaˈ
##íle
xzílax
lavá
lè
yàvvənnə
ʾàhd
##diyyà
gdìla
sìk̭ət
Nɑ̄
Tò
##crə
gármo
##ṱk̭əṱṱ
gnàvta
##lìva
múyyolə
##ùrotˈ
rə̀k̭k̭a
tam
šak̭líva
dúla
durbə̀nnə
xabú
##k̭ax
tayànaˈ
##yánət
ʾarabànaˈ
##laxˈ
dəžmənné
bàxčə
##bèna
dák̭k̭a
##šəva
k̭átˈ
malyú
##bluna
sticànə
##lulə
bəctà
íla
##bb
PšusèPvaˈ
k̭árta
bənp
tlú
##yárux
danət
ʾə̀rbu
k̭àtuˈ
##čiˈ
šə̀t
##̄̀rˈ
baxyàna
pùzzles
##ús
##̄̀ǧ
k̭upšə́nta
ʾàh
dánta
píləva
bəddáyən
p̂ər
zuyzè
##mčə
zəhə́č
jə́ns
bəlvàšələ
yuvvà
glùlə
ʾaṱṱàšˈ
Xlìtaˈ
##lànnaˈ
##ìləˈ
šə̀mya
ʾat
msá
šk̭ílə
rk̭ə́dlə
ʾàtena
bərrə́xšəx
ʾə
diyy
àng
##dìyyə
##rə́
bərrə̀ššəva
##mmə
muyyìlun
lə̀tva
carpí
hamzùmə
xàsanˈ
ʾodáxva
##lənˈ
spar
##tànaˈ
had
šk̭ə́llə
##úsova
##ítən
suysav
mátt
K̭uryák̭usˈ
durb
##xu
yátəv
##mmo
òditunˈ
xə́zyələ
ʾàxlan
yáva
##tya
dràyəna
ʾùp
##àyələ
mìyya
gán
ʾambàrəˈ
##k̭áxvala
xdirèlə
##ràyəˈ
xàl
há
##ìja
lublàləˈ
mùyyo
##úyələ
##ìtaˈ
šùryəva
àzətˈ
bəxlàvot
##valun
naṱupyàyˈ
lə̀tvali
dùssak̭ˈ
palṱílun
palə̀ṱla
##k̭ə́p
##nèvaˈ
k̭ùymar
vádoxvaˈ
fr
##ppə
##ə̀m
danəˈ
yumˈ
##ìyya
##xsa
bənpàlə
ʾulluylé
tpə́k̭ta
ʾàmbarˈ
mùyyə
amráxlə
xmárə
bərrə̀xšəl
čə̀r
blə́gtən
##syat
##kèy
##ənaˈ
xíyyəvax
mayyánnun
k̭áyéməš
daryàn
sàl
xmàrta
taǧ
xèla
##vàle
##yyùytaˈ
Hàyəstan
xorət
ʾə̀tt
##yut
Rúsya
sə̀k̭laˈ
##átux
čumbə́ltəva
xázən
bərrə̀xšəna
##ṱəna
k̭ùblo
k̭aryàtəˈ
xòšax
maxpúyəla
##álta
pər
vìlunˈ
ybət
bəṱṱ
cìməˈ
bəšvák̭ət
sodánta
súyla
##ùytuˈ
màjbur
mudyə́n
prə̀k̭liˈ
tré
##mbùruna
##bšem
mújjar
basə̀mtəla
šò
ptána
Maryam
Mar
vàrdə
pàlxa
ʾalbà
##ttə
k̭uraváy
hammanúytət
lām
##maša
##rèˈ
ʾurus
nàya
##šìyyə
glùlələ
##lùta
bàxča
gári
riš
jammànna
máčxun
ʾàlpa
xallulèva
mattálun
muxrə̀v
jájəc
àt
muttélə
bitàyələ
gorà
cə̀rvəš
c̭àp̂p̂əc̭ˈ
cačàla
mak̭dìləˈ
tušná
Mur
ázan
čṑl
mapšərr
masyù
xàčoˈ
basì
bənxàluva
savúni
xak̭úvvə
šulànə
k̭aṱlána
##xux
sə̀l
bák̭
##ax
bərk̭à
ʾázətˈ
##vayèˈ
##àlan
pyášəva
ʾə̀rba
č̭ə́m
dvì
##yatèˈ
labù
šák̭la
k̭aryày
bnunə
cpə̀ntəla
##ǧə
##ìru
dmíxələ
marruvvè
k̭ərṱòpə
xalù
maccùsovaˈ
##yatət
duc
taxmùnənaˈ
##úni
rappúyəla
##ràli
bul
siràlə
tə́nna
parmàxvaləˈ
bəgvárəna
cípa
tòpa
bálcətˈ
##ít
spa
matruyèvaˈ
pàrk̭ən
bsìrəl
xabùyšaˈ
labú
Yangə́jj
bək̭ray
bəšk̭álolə
šəp̂p̂
##ímən
garvəssìlə
##mc
zúlət
ʾurxa
pacùrəna
ptàxuna
##k̭ə̀llə
mxà
ʾə̀ngləz
bəgnávot
##ètəlaˈ
p̂ar
bəsyàruvaˈ
dásta
##ùyuva
ī́x
múdile
ʾáxəl
xoṱàxvaləˈ
naṱu
axlə̀nnə
mé
ʾídu
##ravátət
ʾammé
ptə̀xlə
##áša
##nta
və̀dli
##mməz
bòard
tìvələ
##vul
##nər
k̭ənyàna
alu
##yəvaxˈ
ʾátxabéta
##ʾàt
léla
dinárə
mə̀drə
barɑ̄
ʾalméni
tapètuˈ
ʾə̀ltəx
čríxəl
jìyya
mattə́ttun
purk̭à
##hmat
k̭áṱlə
pyášaˈ
b
Le
čayxána
dùglə
hù
##ǧət
máttil
nuyra
##tsa
##óvv
p̂láša
##ddu
àxlan
##yˈ
labùlolə
##etaˈ
aralləǧǧè
##xívaˈ
tapyànvalaˈ
##àl
xàltət
##g
ʾəštassár
métra
myàya
čambəl
xzílunˈ
ʾáyənʾánnə
yáṱṱa
pùuuu
mə̀nniˈ
bəctàvələˈ
##smaˈ
pagéni
##dìvalun
xòlaˈ
pšə̀rrəˈ
nuxàmaˈ
k̭yàta
##àtlunˈ
k̭atèˈ
mši
guš
byáyəla
calà
maràniˈ
##yyə
ʾàra
tác̭
máṱya
mxàyət
xə̀rbaˈ
súy
##àt
murvìla
##yəva
lə̀bbu
dúcta
k̭á
galgúlə
šak̭lìla
k̭àtˈ
sàrə
bətlàk̭əl
k̭alàxvalə
šak̭iyy
maràni
mácrəz
ʾə̀r
##ona
k̭ṱìlə
##ə̀ttun
bàbət
màčxi
garvù
ṱúlvun
##ard
##gəs
paté
mumā́t
bəšk̭álona
slìˈ
cì
##váy
ròbaˈ
lablítun
mšixayúta
bašùləlaˈ
xyàvand
##rè
gànax
àrraˈ
bəxlápəna
nesə̀tti
##mánə
talmídu
sùstuˈ
xàlləl
##àxəmˈ
##rrəˈ
zabunèləˈ
tanùvvə
##ṱləˈgu
tuvvùltəlaˈ
##lína
ìdu
búlət
bàsma
xə̀šla
##yúyta
taxmántux
gərdàyə
bədvak̭
manyə̀xxaxˈ
hav
ʾìvaˈ
##nəx
tanə̀n
məscìnəvaˈ
rxə́mlə
xabùyša
Yò
##gə́š
šə̀nta
mlì
ṱamúruna
ṱašən
prə̀xlə
šã
ʾak̭làyˈ
garə̀šlə
k̭ṱílut
ʾatə̀k̭
bətxà
xè
bək̭yáma
amsə́tva
xázzən
xaš
bàroˈ
xdə̀rrəˈ
pyáyəna
danamarganìtəlaˈ
##luníyyət
k̭àma
basé
cy
zə̀ttəla
ṱùr
##pˈ
ʾùxčaˈ
ʾúmra
hamzùmələ
švik̭àl
k̭ùl
pàsspor
dúc
##sul
mattíniˈ
buk̭ḕṱ
xnamíyyə
byàyo
ṱursévətˈ
maxə́tti
maddùrəna
šák̭
zə̀dlunˈ
vasyát
sìlux
šak̭ìtaˈ
##álaˈ
bàbuˈ
k̭àli
xamìvaˈ
bəxxàyəvaˈ
carbìtən
dak̭ík̭ə
búxčət
ʾaxə̀lvalə
saṱàna
ʾA
mànivat
ʾudàlə
mešaváy
də́k̭nu
bəddàyaxˈ
mxày
šaršùrəˈ
gétti
var
tuxmə̀nnə
##mánaˈ
k̭ṱilən
##úyšə
yonáy
Tùrciyya
gibánə
mìxə
mə́
lámpa
mask̭
cmà
mšixàyəˈ
gíra
lə̀tle
pálla
nara
Bàhar
vàdon
ʾúpra
xmì
k̭àmeta
k̭ə̀nnoˈ
xā́t
dvík̭ələ
šə̀bbətˈ
xvá
harhùmələ
màya
gaššùk̭ə
sandùyk̭a
##nyway
bəddàyən
mò
rigaváy
##ḗl
taníla
##gətˈ
ṱursé
zùr
odə́nne
bəl
bədràyunaˈ
mā̀s
maxyàlə
Ri
k̭aṱk̭úṱəna
zə́n
##cc
myásta
##ešók
yuvvə̀llux
##lálun
nək̭və
ʾori
gòza
nišánk̭a
##tta
xàtət
làyyə
hammáša
k̭átuˈ
gažžùnila
ʾə̀tli
tárra
màlcəvənˈ
ṱuyrànə
xuyra
##bulaˈ
ro
##bàma
vərra
##nak̭
ʾə́tloxun
yavvə̀nna
##̄ǧ
bərdàxə
ʾAzā̀d
xəzyḕn
uydāl
##návə
tlàyˈ
mavvúrələ
bə̀ššəlaˈ
ʾàtraˈ
bətyávəna
k̭ámxət
bòṱul
purk̭éli
k̭átdayyána
##rbaˈ
##ip
ṱar
xayyàṱə
ʾàxuni
ṱuvvùltəlaˈ
bətk̭alèl
##tìtun
mac
tə̀vlaˈ
Màhəva
gú
lubə́lloxun
##léna
mə̀nnux
vax
##ùvvələ
ràmša
bəznísu
xdìrələˈ
##ṱà
ʾodílə
dèˈ
##ṱovaˈ
ʾadat
yáṱṱənˈ
##átəl
šùlux
ʾə́tlə
k̭átbə
bədráyox
márya
xùmy
maccúsova
ganáyət
narahatùyto
čolàtəˈ
pràk̭əva
##jjət
gòne
mə́nnaxˈ
zúr
patxə̀ttun
báxə
bò
k̭ənyàno
bàbətˈ
##bolə
##vax
mṱílun
ṱšítaˈ
brùna
mìrən
carməxxívalə
mírəva
sàxən
té
tanə̀nnaˈ
ṱùyra
##ólə
lelavátət
baxtày
jàldə
azə̀lvaˈ
##ʾáha
masalan
muttálux
ʾórən
šk̭ùl
bùses
pyáyəla
rèstauran
jɑ̄ndɑ̄̀rˈ
ṱašuyévax
ʾàv
ʾàtaxˈ
##ùrəna
##ítəla
ʾaynət
ʾak̭ràxvalə
čòr
pšìma
xáʾa
brítət
k̭ùrba
##yádak̭
yāl
##xxálə
xə̀štəla
vílaˈ
maplùxuva
##ciˈ
k̭uxān
dàha
bədvàk̭aˈ
čólə
marzanánət
hak̭ùtaˈ
xzílə
záya
bəjyàrələ
##dḕ
dəžmə̀nnə
yàtu
tùy
bràza
Šɑ̄́h
##yyuˈ
sèpaˈ
sùysa
myàta
vádəx
byáyəvən
ʾádiyya
máyona
meterˈ
nā̀slə
zárra
yávvan
map̂rùmələˈ
zùy
ʾodə́nvala
màraˈ
čalbùvvəna
bədvàk̭una
jammàxle
##xànaˈ
tanívala
yapíva
##dlíva
úydāl
mìyyətˈ
sabət
xúto
ʾarxàyənˈ
dùcux
gášk̭ən
jàyran
##c̭c̭é
bəzyàdəva
šàk̭li
##səvax
##yyètaˈ
xak̭yánnux
##ə́šva
jàllə
bəzyàdəvaˈ
mráč̭ta
bək̭nàyələ
záyo
##sṱ
##cíyya
##ràd
Y
mattúyuna
bayyítun
ti
k̭alé
zabànta
bərrə̀šša
k̭aṱṱíva
bàk̭
mə̀ryəva
grúš
šārva
səppə̀rtaˈ
ducánə
vayélə
##šíyyə
xmàraˈ
##sk̭an
mə̀rrə
##ə̀lləˈ
tamməz
šə́nnəˈ
šuttə̀slunˈ
##jiˈ
ʾə̀tvalunˈ
rúppə
k̭arṱò
cačàləva
Hassán
##yàvaˈ
rìšan
##ùk̭
hamzə́mmət
##vza
raxmànəl
cút
k̭ṱìlut
palúṱu
šə̀myuvaxˈ
ru
##ṱlun
xulafàyə
gaš
bitáyəl
márra
bak̭ùrənaˈ
##zà
##ə̀nnaxˈ
č̭uxč̭ə̀xlə
šúla
k̭áhál
##úytu
maǧǧə̀bba
ṱarús
macùsovaˈ
xak̭
mačúxə
xyàpta
##yona
mubyə̀nnun
mamùno
ʾalbál
šúrilun
buk̭ə̀rrə
màvəlˈ
xamšammá
màlcəvat
ta
ṱi
pyášəna
gùrəˈ
máṱət
àtyanˈ
tànətˈ
gamə́šta
ʾítən
##líval
maplùxulə
##xo
##cma
k̭dálət
xábəl
prob
ʾìtarˈ
lə̀tvalun
ʾuy
mattùvvələ
##làyələ
bəxšàvəxˈ
ha
sulyàləˈ
ráhat
##àyənˈ
muyyəvà
bəzràyətˈ
mə̀sya
ṱízux
də́l
##laˈ
čàmča
##səvaˈ
nàyaˈ
##ǧəl
bətvàtəˈ
##ṱyəva
##jb
xáxá
lèša
ʾúltux
hadrìvalə
##áx
tó
##vámma
pè
ʾavíval
ʾàlmas
ʾamsítun
mə́xyuvət
ʾak̭ədva
vət
darrùnəvaˈ
brùniləˈ
məsk̭al
màtan
bə̀ryan
##yyo
zárdə
dinàrəˈ
pùuu
##ìna
bitàyəlaˈ
bək̭k̭àšələˈ
smuk̭nàya
bəšvák̭aˈ
##šəx
marétun
cásəb
k̭arívala
máttimunlə
xób
mənyána
yàxni
deystvìtyelnaˈ
ʾavílax
švíkəva
ʾúmtət
##vvələˈ
làxma
##láy
tílux
smúk̭taˈ
zlùmyə
##ə̀k̭k̭aˈ
##ˈˈ
jaf
làblunla
mattúyə
góne
sulìli
razúyta
šurī́l
malla
tìluxˈ
mṱáyəna
k̭atè
márən
zub
məxyán
##̄̀
gargúštət
##ist
sàvaˈ
##ləxx
càda
šuršìyyəva
ázən
ʾáslan
##yyána
Amèrica
naṱupyày
penc
bašùləxvaˈ
##éla
tíyyəna
[CLS]
majv
muttílun
yā́r
xə̀lla
ʾavílun
xayyuté
##dələ
réxu
tuxmə́nnə
lə́tli
mánši
##mìn
garùsaˈ
ʾaxunvàyˈ
##ànət
ʾaxlə̀nvaˈ
##ʾátən
##màtə
##áṱət
maštúyəx
mə́xyu
ʾaví
ína
k̭émax
cìsu
mdìtaˈ
táma
bílət
bəclàyələ
ʾumr
pučèčələ
càluˈ
príxa
bitáyəla
bəddà
muyyèlə
##ála
##šuˈ
pšá
nìxuntaˈ
k̭úbluna
ṱašə̀nna
##əna
yàṱṱənˈ
##caˈ
##vándə
bəšk̭ála
dáyən
bək̭vá
dàyk̭uˈ
gùˈgu
brùnux
ʾaxunvàtuˈ
pərd
ṱryox
k̭ala
k̭ark̭əzàtlə
odáx
tumbánə
ʾàxūn
palàxəˈ
ʾuravàyˈ
ṱára
xubbè
baǧvànə
yàṱṱə
mardú
yavvàlux
Har
Rp̂a
##za
ʾùrmilaˈ
ʾAlàmˈ
gánu
##òlona
##ə́xtəla
bədráyəxva
p̂al
Califòrnia
ʾərbìyyəˈ
dànəˈ
##mi
rḗx
##síva
bašl
ʾódənnə
ʾaynu
##uli
šammánnə
k̭áʾa
fa
garə́šva
ʾaši
càsəb
bək̭k̭à
yávola
hə́nnəla
ʾə́tvalux
Cərmā̀nšaˈ
lublà
##rəcˈ
maštìva
šulxètaˈ
mak̭rùṱuˈ
ʾavivala
tə́vlə
##ùṱulə
##ùyrəˈ
bək̭yàdə
V
bəsyárəx
##lḕl
##tána
honànta
də̀pnu
bràtux
túyna
našə̀k̭la
##f
xaltànaˈ
##č̭lun
rə́d
pučè
bəxmàyaˈ
bašlàtlun
bax
cálət
bašlə̀tlə
hàmmašaˈ
xabúyšə
múttuva
ṱurə́s
méta
bəxxáyələ
yuvvə́llə
mulavàtə
šuxlə̀ppən
##ə́rrə
áms
šarùyələˈ
šak̭láva
##pùvvə
##šámma
mak̭rìva
cə́t
p̂èp̂si
bəxràva
bəjm
xab
ye
xabù
##k̭dun
##ziva
yávvən
##háttə
lìna
k̭ā́t
xélo
ʾotáǧəna
mattə̀ttaˈ
šmílə
čə
##éməš
pràmonaˈ
táni
rə́zza
bətxàrət
xàmraˈ
##k̭alè
zlì
calbanā̀nˈ
rást
cas
xo
k̭arbúnələ
k̭aṱə̀lva
##bbas
máyolə
##íto
dárax
labuléva
cùllan
šadùronaˈ
ʾànvə
sè
bəxšàvəlaˈ
mayyítun
báyyini
##máx
##ráx
mənnè
##mənaˈ
màšəˈ
##màhatˈ
##zˈ
ayy
málcəva
ʾámto
##àp̂p̂
tujjɑ̄r
lòšənˈ
batvaté
pìšə
Chic
bát
##ṱər
bərrə̀šxəna
##yévax
##làtt
mxay
váda
c̭ə́č̭č̭
k̭át
k̭vìta
##uč̭
jə́pnət
ṱamùruna
k̭ulvèˈ
##xarèˈ
magvərrə̀nnuxˈ
ṱàši
mánilə
##vya
nùyraˈ
##trəˈ
ʾarabàna
dak̭í
Ré
bə́z
bašúlə
##yya
k̭aravàšə
tamməzz
mat
šadə̀rva
bràta
##məva
nì
##̄̀z
##mə
čarmú
ṱála
malcavátət
mašt
k̭ošùynuˈ
dè
šəmmanè
k̭úrbu
állu
ʾàtət
savùniva
##ána
ilàna
##irà
gorə̀nna
munšìliˈ
bərrə́xšəna
k̭ì
##šə
yə̀
##ṱuˈ
k̭ṱə́llə
xambà
mə̀scinaˈ
nášaˈ
##lolə
tupyèləˈ
mā̀n
baxtátu
bək̭yàdəva
sùysaˈ
basìməva
yunày
yuvvàləˈ
odə́nnə
byáyox
##uléva
##ùk̭ə
slìlunˈ
msílə
##yútət
bitàyəla
šidànələ
dabàšə
ṱùšyo
peš
mačú
k̭əssáttu
ʾā̀nta
tàlaˈ
dàrtaˈ
##slanˈ
díyyi
sèdu
ravàya
##rò
ʾajjùbən
maxə̀nnax
šàləx
ṱámta
dórət
hadr
##btaˈ
də̀k̭k̭a
davə̀k̭va
k̭azánča
séda
k̭aráxvalun
dəryàlax
yarìxaˈ
gòzəva
dùlə
suk̭ə́ltən
ʾurxáy
##nati
maǧǧù
bašìla
dárs
mrìlə
##ítaˈ
##ṱṱət
ʾarp̂á
ʾak̭lé
lešàxvalə
dak̭ík̭əˈ
##ɑ
bətvátət
Surìyyaˈ
##yàna
ávəd
lḕx
##ʾe
ʾaviloxun
repré
##rrula
haràmbašˈ
##àlunˈ
##̀n
xúš
mak̭də̀nnə
dəmmàna
##ye
##xare
##lèm
šàrxaˈ
jam
bitáyəle
cárpìčə
hadártət
ʾorày
p̂alk̭ónik̭
javvəbbìlunˈ
k̭áṱu
psə̀xla
parmívala
šap̂ìrə
##ívalə
##səb
suzg
róba
macsàvala
ví
con
bəlʾaxarèˈ
##šk̭un
tìvaˈ
bəšk̭álu
ʾAbdul
šap̂ə́rta
ʾatìva
tanílə
hùk̭yuna
xalíyyə
zùyzə
zarduštáyə
k̭àti
nák̭k̭aš
##ànə
##mší
masíva
##ùrona
byáy
##sán
ʾívaˈ
tavəryáy
ʾàrp̂unteˈ
vadət
ʾodə́nva
palúṱə
##àxvalə
##rat
šə́my
ʾak̭lè
ʾázənrigày
bəcnášəva
pə̀llə
šə̀mmu
tapə̀xva
šabta
sacc
##ǧè
k̭ulité
rvìlə
dàrdu
hə̀č
gùrtaˈ
də̀k̭
bə̀zzaˈ
zurzə̀xvaˈ
##llak̭
ab
k̭ul
##hàtiˈ
ʾə̀l
múyyən
ràstəvən
k̭yáma
mənnèˈ
šmíṱəna
ʾiranáyə
bux
##vìlə
táyyar
bəšk̭aléla
gečíta
##nnaˈ
mak̭k̭ùdona
bəgnàyələ
bədvák̭ələ
ivətˈ
xušˈ
pašùṱulə
bəyya
nòbuˈ
mak̭rə́ṱvaləˈ
##ágət
la
##mar
ʾàmra
k̭amàyaˈ
bəṱlàbəla
##mmíva
##ə̀bla
##púyəla
gušə́k̭lə
labúlo
bək̭ràyəlaˈ
xmàr
nápli
mša
ʾátrət
xə́llun
basìməna
saʾàttəˈ
cand
xamìvalə
tavána
maplúxo
##rəlà
gàvo
##šələ
xíšəna
k̭arɑ̄rdɑ̄̀d
pšàməvax
mərtúxa
##xèta
gànuˈ
savə́lto
nùzulˈ
dmà
ruppílun
cépax
ʾə̀tləˈ
##lə̀nnə
baxtáyə
##mo
mlí
ʾaxlə̀nnaˈ
k̭ìdəna
bərrə̀ššət
ʾurámga
vádux
čay
k̭allàyča
móriša
##zax
##vvula
##ábi
tanuyḗl
bərrə̀xšənaˈ
k̭àtˈmú
zì
ʾáxlət
mudyə́nnolə
gùptaˈ
bəgnàvotˈ
sìk̭ələ
sépa
ptáx
##bar
lublèna
máttən
tandùrta
##gè
bašúləx
xábra
xlu
bəddáyot
mī̀
cùn
##dàlə
##urélə
##xšávən
ídu
nar
##zələ
hur
támməz
##yəla
šaluxèlə
##čàla
bəgrášəla
k̭írə
dvik̭ḕn
##čal
bùssahatˈ
p̂ərc̭ác̭
maplùx
yā́l
ṱuránət
magvurèna
nàraˈ
gàvˈ
bú
rìšux
xaˈ
də̀l
lelə
massùk̭
bəgrášələˈ
ʾíran
ʾíca
pùlṱovaˈ
šə̀n
dàxi
zàya
palṱ
zabántaˈ
##iyya
šalux
k̭óšun
##yən
màryaˈ
súrta
dìyyələ
mabyúnə
dū̀rˈ
sama
xàču
ʾávitun
##ùpəˈ
ʾidàtu
xòra
nə́drux
##vəšt
bəšmá
ʾòyaˈ
càlba
zúrzo
##rav
xàlləlˈ
bíyyoˈ
xəmyáni
manš
mə́xyələ
dinà
šak̭lə́tla
##bànəˈ
vádələ
yarxəˈ
críba
ʾoràytaˈ
##k̭lux
núyra
màlcən
maslìvaˈ
xlì
lablə́
tùnyələ
àvə
yánət
##ə́mlə
mačxànnə
šak̭láxvalə
áxəl
parə̀mva
za
##pə̀ssa
##làlun
nig
gúptət
səs
##áyət
méla
šarúyələ
xuyravátət
##ə̀k̭
Túrciyya
barzìva
avə̀dlunˈ
yùxsaˈ
dúz
xš
##dərríva
k̭àla
xuš
cèpax
##mzəm
šaxləppə̀nna
čumb
yávulə
purə́k̭lux
šaravátət
záy
máxə
mār
susavaté
##ùrətˈ
fiz
šlàmalax
saparˈ
##viy
maccùsuna
frùk̭ṱ
núynə
və̀rta
k̭arzì
##télaˈ
ʾupré
zàrbux
ṱùp̂ri
payyìva
jámmi
##kəva
##šətva
yə̀mmaˈ
p̂làšəla
##mšaˈ
k̭rílə
zàr
k̭ərrə̀š
bəptàx
daráxvalə
ʾáxˈbúš
bəxlavèva
mə́tlə
bàxčəlaˈ
báxtu
##ètaˈ
##mas
gúrət
əč̭č̭a
ʾámman
mázrak̭
čìrə
vílax
gàrbi
ʾalumī̀n
hayyàrtu
k̭àllaˈ
bəšyàpova
tmanəssár
sústa
lèla
mà
honánələ
##lpo
gavày
##p̂siˈ
báyyax
##vàna
bək̭ṱàla
Tùrcíyya
hōn
gašúk̭əla
bràtəlaˈ
##làsta
ṱamrílə
##lə̀t
daràtu
k̭alíla
ṱumə̀rta
##rrùšta
##ə́nnax
Chicàgo
##arùta
k̭áydu
dàna
jummìyyəˈ
bə́nya
deˈ
ʾùpra
rùyšu
xə́dya
##bɑ
##yèva
Zumàllanˈ
guyba
ʾáxli
ʾojàxəmˈ
ʾàrp̂aˈ
sìtaˈ
##ánna
ʾurusnàyəˈ
##àxətˈ
xìnə
k̭ərk̭ə́p
gd
myà
mráč̭
dmàxaˈ
yə̀mmi
pallacànə
bəxxàyəva
lìtənˈ
dəš
maccúpə
##ticā́n
##lan
##yúyti
xìta
##vvó
##res
gùš
mattúy
##yyi
bu
##nvala
gúrra
məššənnérət
lišána
ṱìna
mə̀rraxˈ
casì
##ǜ
gə̀lla
zurdə̀nnələ
šúk̭
bàyyəˈ
ʾə̀štux
ʾèˈ
Zumàllan
##áhat
garú
k̭e
ámsən
bàbo
labúlə
muttḗl
bayyə́tva
maprəxxìvalun
k̭átda
sazgə́rrət
xdíra
rìga
díyyilə
cavùtra
##dušt
xàč̭č̭aˈ
dūn
dàdiˈ
gára
##ànne
p̂ravaslávya
ləbbas
ni
##úyta
ī́nva
##ətránə
šlàng
pə́s
bəzdáyəl
cpə̀n
maxnə̀k̭ni
##štaˈ
##tu
ódən
k̭è
dóstət
narahàt
##úlun
yuvvə̀llə
turcàyə
diyyi
cilóyə
vàdə
šəptíyyə
ptàxulˈ
lošávala
pərpìrənaˈ
pàrda
zígab
cḕ
##llə́ǧǧ
màk̭k̭əmlə
càrmux
háy
léšaˈ
rab
ʾoyániˈ
##s
tì
##ta
čā̀l
marč̭
##sti
švàvaˈ
macrú
dvìk̭a
tvaˈ
mǧušàyəˈ
##urˈ
hì
zvinèvaˈ
zmar
k̭ázzab
##ùslə
##duxˈ
denánəva
##tùyələ
##lìlə
##ḕt
mak̭k̭udḕt
mən
k̭arbú
baruz
maxìvalə
šéna
bà
spày
##ṱàl
muyyílun
tàpə
júllo
##lanˈ
npàla
bək̭ràmut
vī̀lˈ
xolaˈ
##yyələ
pəspə̀ssa
ʾətva
gə́pta
ṱvèta
mašxənnàxvaləˈ
dəšyàtə
dànnə
gùrtəlaˈ
parə̀šlun
bək̭yàmaˈ
##ə̀jj
##yàttila
gibaˈ
bəlyàša
ʾarabána
vḗl
azítən
dašdəššìvalə
yask̭íva
šə̀tyə
##ṱə̀ttəˈ
másala
lavà
támələ
búšk̭ət
##k̭ìtun
surṱə̀nnə
##vìle
##ravày
mattú
lavàša
mə̀nta
darə́tva
gàno
dalu
hamzúməvən
##ress
núynəna
napárət
bàbux
k̭atə̀rta
tíluxˈ
##uz
##̄́ǧ
##myè
##úsəva
##màntaˈ
rìxa
##cə
maxziyyánna
##àx
ʾóyava
##fò
##šóxun
rappùy
bək̭yàməla
k̭ura
##c̭
##ùyša
k̭urt
sáynət
xə̀šcəlˈ
ʾara
##əbbálunˈ
lə́t
##ṱləˈ
atítun
mutténa
##k̭ùy
šák̭liva
##lə̀nna
sày
bəšk̭áluva
taxmùnələ
munšiyyàlə
šəmmànəvaˈ
gəllálə
tr
parmáxvalun
ʾAbd
ʾìdo
ʾə̀mnan
k̭dàlan
jibátu
k̭ùylux
ʾiran
maṱrə́s
bəšlàk̭ə
gašk̭
xázzət
glùltəla
ʾàlah
rùk̭ˈ
ṱašə́nna
hasanày
k̭aṱlánət
[PAD]
ṱumrélə
zódət
ʾərbáči
bəsl
##bnələ
rapù
šak̭láxla
##vo
##oxˈ
motànələˈ
manzìlə
gal
nàšəlˈ
bəčyádəna
pt
##ʾ
bábət
xamə
##k̭à
gùšk̭əna
or
xìle
##lə̀xta
ṱamùrona
tùrcət
xamyáttun
nàta
gánux
šàvvaˈ
##xəlaˈ
báxča
čúxta
##oˈ
k̭ármaxva
daryànnux
hàllunlaˈ
##tíxo
gárəc
tanə́nnaxˈ
xáyála
šəmmé
máttə
##xənva
dərə
##yàlə
mə́rtəla
másət
ʾátət
mlàya
ʾàdi
##mču
c̭árra
láxməšk̭ə̀llə
ʾoyat
##nátət
masálət
pàrčə
##k̭ənaˈ
ʾəslamà
ìduˈ
yalə̀xta
##raš
ríšu
vìla
daráxvalun
##nā̀š
dòst
Hamàdan
yávəna
xùbbaˈ
ʾàrk̭ənˈ
bnìtəlaˈ
bəšyà
xàla
bəlʾáxara
šul
##šul
##rā́
##nəmˈ
##ḕxva
ban
##mmá
##àyəxva
rìšo
##šoˈ
##árra
mač̭rìvalə
gərdéta
daš
xélu
p̂líṱa
mapšərrìval
##ìlanˈ
pə́š
##ṱmaˈ
ʾàlbalˈ
rappúyət
##te
ánnə
##úvva
máni
##ə́xta
k̭emə̀tva
yànəˈ
##ot
snèta
àrk̭əl
bák̭ər
##ùyut
xzìlaˈ
tùyunˈ
##ttoman
júllət
tánət
gúmlə
##tàbləˈ
pyáyənva
ṱavvúvvələ
k̭íməna
gam
nónən
pravaslàvyaˈ
juvvábə
yavvíloxun
ʾəngləznàyəˈ
xúšˈ
bərrə́xšəla
maxnək̭k̭ə̀ttə
yúmax
pulə́ṱləˈ
cḕp
##rni
##vàyaˈ
##tunˈmačx
bətràyəva
Xànə
##cyày
primà
##ə́tvalə
k̭ə́štu
Dew
tanúyəna
xurr
daráxvala
xvárta
bal
##rràlunˈ
##vvélə
díva
ju
trèlə
##k̭a
mata
myàtaˈ
ptàxtaˈ
##ə́rrət
j
bəzvànəva
##ah
nó
navə́ggət
tár
k̭aṱlàlə
ṱè
šidà
ʾak̭r
bənnàsut
məšši
k̭àmtaˈ
gàna
jumména
lubl
[UNK]
muvvə̀rraˈ
ʾùrxəlaˈ
štìlə
k̭arà
##áyə
ʾúsa
##vášəl
jy
mī̀s
ányway
k̭ìmələ
tála
háda
mənnu
gríšəvaˈ
hayyərrə̀tvaliˈ
c̭ə̀č̭č̭əˈ
mattə́nnə
varaz
##tələ
##lba
ʾátxa
lišané
màmaˈ
fúrma
bambù
bəxzadḕtˈ
témun
gṑl
davə́ltan
rappùyolə
##ítu
ṱavvúyələ
##yàni
tàsmaˈ
ʾíc
ʾodíni
k̭èsaˈ
bíyyuxˈ
Sp
ʾə́šta
méša
matvàtət
zùrzəva
##ə̀č̭č̭
p̂ə̀rc̭a
ʾúžeˈ
bətxàrox
bətyà
##gtən
ràmtaˈ
ríxət
pax
nášətva
##ə̀tli
ʾántət
gannəvvə̀tta
##cca
xəzye
bə́ryətbə́r
xl
xák̭yan
dān
mardùxux
##sa
mak̭yù
##cta
gnà
##ṱmànə
ʾəsticā́n
ʾazə́n
bəddàyəna
bəxšávəna
hónux
##úyəla
##k̭zət
xamə̀nnə
tammùzuvaˈ
k̭usar
dòlmət
gàrbiyya
pə̀šleˈ
sə́prə
car
Hàyə
tanáxvalun
maplùxilə
gabú
##ùnu
##mtu
naravátət
naṱə̀rvala
parpù
bək̭yàmələˈ
yávəl
pacúrəl
##ànaˈ
bášəl
pu
ʾAbadā̀nˈ
##č̭č̭
##ccàya
xàmra
bətx
īt
basúra
ṱaryána
fayṱṓn
bilé
bə́š
##vášu
zabùnələ
bàk̭rax
cúllunte
yámta
palə̀ṱvaˈ
šə̀myət
ʾā
ʾam
bərrà
bùk̭raˈ
mṱílə
mxìlun
màyula
šak̭làxvaˈ
##ívalun
nipú
və́rrəʾá
ptáxəl
k̭uṱk̭əṱṱ
šlàmaloxun
várdə
dəžmə̀nnax
p̂aṱp̂
Màraǧa
p̂erevaròṱ
##ddálun
càrra
ʾI
saṱána
hóni
##làle
mì
##čət
##šk̭a
màlcənaˈ
ṱùpruˈ
##rəzˈ
tíyyəvət
k̭amàytu
##məs
dìyyax
ʾarəmnày
##ṱəxva
dáyyən
bòškaˈ
hànaˈ
sádrət
##rtaˈ
bəctàvənaˈ
muyyíla
spáy
at
màr
tùmun
ʾajjùzolə
xàyyə
##ə̀lvalun
k̭àr
nā̀s
k̭aṱṱílə
xə̀ltuvat
górət
šabàyˈ
bavàyˈ
sayàdəˈ
##àrˈ
gurvə̀sla
zabúnən
##átax
##ùrə
ʾiva
dénux
motànaˈ
ʾák̭lət
pàxta
yùvvo
cnà
darə́tlə
bəxdàrəva
##xələˈ
ʾànnəˈ
šópa
làvəš
##ə̀štaˈ
gvári
##òsṱ
šap̂ìraˈ
ṱalabùytaˈ
òyanˈ
məndìtuxˈ
##čoˈ
##yə́n
xùmyun
##rro
##àluna
tanìnaˈ
rə̀k̭k̭aˈ
mə̀ndiˈ
axlə̀ttə
##íǧət
##àša
K̭
xú
xùr
##àyəl
srivèləˈ
šatìtun
rə́x
pyàyəna
bahrè
k̭ṱílənˈ
pušṱàlun
ʾā́ntət
níra
##ḕn
p̂alšìvaˈ
pàlxat
xatvátət
áxči
Spúrǧān
##fè
k̭anùnə
nak̭k̭ašcàrəna
bnàtə
xuravay
mə́nʾátxa
apɑ̄rtmɑ̄̀n
malcavày
##el
xatvàtoˈ
odə́ttə
mulcànə
##̄
hr
brátəva
cvə́č̭lun
jarbə̀nna
də̀k̭na
xp̂ák̭a
maprəxx
bək̭ṱàyələ
ʾə́tvali
ruppìla
##vvab
##ártət
ṱenávalə
##úyolə
##̄́s
##éˈ
k̭ənyána
##!
tèmun
humzə́mləˈ
və́rran
##íšəna
##ǧan
##ctət
bòšk̭aˈ
və̀rtəlaˈ
k̭ésa
maplùxəva
bálsax
švòtaˈ
gáni
bŏ̀ro
bəxzádux
##álan
##tan
nàšələ
súpyalə
hammámət
mattúvvola
mə̀ndi
pənyèlun
Mà
màmuvətˈ
br
nàzu
maxnə̀k̭
##xə̀nnaˈ
trè
sə̀tva
šaršùrə
lə̀tvalan
úžəˈ
Tè
bətpáx
mud
darǧa
mayyə̀nnax
cə̀lyələˈ
zúl
##tiˈ
rušan
mə́llat
pò
gìraˈ
morívalə
yárxa
biyyè
mašxənnáxvalə
bat
xíyyəna
diyyóxun
##šo
Báhar
cə̀lyəna
##ṱ
##ṱi
racə̀xva
marɑ̄sə́m
marruvv
##ulèna
bəṱràyəlˈ
məššəlmànə
ʾalb
mè
Túr
p̂aláṱət
lḗn
k̭ə̀šya
##hál
##ast
bərrə̀ššənaˈ
bərdà
bə́tət
yü
xlàpuˈ
##k̭əla
##cà
##lún
##úyut
šə́xtət
bràzələ
xallulḗl
bə̀rrənč
xìla
##xvaˈ
hayvā̀n
ʾadàttə
bəxdà
axə̀lvale
brun
bàsˈ
bətxàr
##bat
##ə̀ttən
avìva
bak̭ùrəl
##àyunaˈ
vídutˈ
dátxa
clé
##to
##ùya
dmíxə
mutyəvv
farsáyaʾáviva
ràbaˈ
##íloxun
bədmáxa
xílə
muttíta
##mà
lablílux
dástət
prə́z
k̭òlilə
lùšˈ
##íra
xvàra
sosùyələˈ
múdit
vàrəl
cùpaˈ
Pèrkin
nàplən
santimə́tra
Cərmā̀n
##səˈ
bə̀xyələ
və̀dlux
bəddáyəva
ʾə́tvala
juvvəbbélə
xə̀rbələ
harè
ducc
ṱaš
švàvətun
##ə̀llun
##duˈ
bəzyè
bəšxànəva
##ánaˈ
ʾícə
maxə̀nnə
##ə̀jji
##lle
šurílun
váyol
Bá
súysu
gečìta
pyášəxva
##àxva
odàxləˈ
ʾodə́nnə
##tı
ʾavčìyyə
xarvíva
sā́ǧ
yavívalə
xavəryátax
bəxxàyən
parə̀m
##yyanələ
cəšmìšəˈ
##ə́xləˈ
bərrə̀ššəna
ʾatìtunˈ
mujj
cr
##mul
càtun
##pívala
pəlxána
k̭aṱk̭úṱulə
lábli
yávvat
zvánta
ʾarabáni
manšiyyàxxa
##ánya
ziyɑ̄ràtˈ
bar
xé
##mrélə
##ìyyəva
ʾàyyəva
mxàyəlaˈ
xínə
##ulə
Šɑ
mə̀sk̭al
commúnity
mattùvv
maxmìvaˈ
##ləva
malcútaˈ
##átət
gáš
scə́nta
ʾàrxaˈ
bərrə́
ˈˈ
aláha
sx
gaššùk̭əˈ
láblən
##pux
mítə
pàl
mənneˈ
##àtə
msílun
##unti
tammò
maxzə̀ttaˈ
xašbun
sùrəva
bəxdárəla
bəxvà
mə́nnux
dmaxyàtə
mə́nléla
tàmaˈ
hayyə̀rrənˈ
ʾəč̭č̭ámma
tanə̀nnax
as
##ráxa
k̭usártu
pulə́
xábrət
xalí
##íta
##vəššàle
ʾə́tvalanˈ
mā̀š
yávələláxma
maxə́nnax
šavùvvəla
bə́zza
ʾatìk̭ə
oràxla
šak̭lə́nnə
xə̀m
òdax
širə̀nnəxˈ
zabnə́ttun
snì
##tə
##pùr
mlíta
hònəlaˈ
k̭utí
##ǧda
##məvaˈ
yaṱṱə
denànələ
bušə̀lləˈ
pəs
##ziyyat
ʾúprət
##úrot
k̭ú
bàruˈ
snik̭
ṱúmrux
pāt
ívaʾé
xelàna
ʾárya
mərtúxət
bolòlo
##vày
Dwìght
bətpáxəna
k̭átbəxšávən
mùdi
##úyni
dìyyi
vàdətun
ṱálaxva
làzəmva
ṱursəl
##ə̀k̭va
ʾay
parpùsəna
tàniliˈ
pálə
xd
šrì
lx
parmìvalunˈ
##ə́mta
xáč̭č̭aˈ
tarròxunˈ
ùrxət
bnu
##ə́šlə
zúyzə
##k̭əṱṱ
##íməl
xvárət
cótac
##k̭tùy
##ə̀nvalux
mattùyunaˈ
xúmyul
ʾaturàyələˈ
mərtùxaˈ
hàvar
bašlàxva
gvárux
rázitən
šùlova
##ʾət
dúcu
tányan
##e
k̭ax
##rreˈ
jàyranˈ
brúniˈ
márələ
##rux
bitáˈ
másalan
mùčxoxˈ
muntíləˈ
odàxvaˈ
##p̂rə́n
bálc
ʾàmma
bək̭ṱàlələ
rìk̭əl
òdat
málcaˈ
bəddárəna
bəddarə́xva
bəsláyəna
dā́n
šúlulə
šeràxvaləˈ
saṱ
##tanà
dàˈ
malcùyti
##tḗt
ʾoyáni
mul
nèrvR
ʾamsən
maye
hammanùyta
##ə́lli
##ric
##téla
garvùsələ
mattuyéva
##óxun
mabrùzox
yumánə
bušàla
##yyol
ʾən
ʾafšɑ̄rī̀
ṱúšyolˈ
denànəva
garšàvaˈ
subàyˈ
pulə́ṱla
k̭edà
bəsyák̭ələ
##dk̭a
dyànti
##mbəl
mṱilə
##làtəˈ
##b
##tunˈ
brìzə
tanúyrət
avívale
bnáti
##yàtəˈ
##lə́nnə
mràč̭
yə́mmu
##ɑ̄̀r
nā̀sli
##mànšar
ṱlìba
bašúlova
mṱàyolə
##rəva
gòzəˈ
##k̭ə̀rtaˈ
##p̂árəl
ʾazíva
gòranˈ
##yámmo
xàbra
k̭àmu
##əš
màyulaˈ
tunìlax
zàbənnun
tanùyrələ
párrət
pisùta
##suna
morívala
##vvan
palùṱolə
Rʾ
cambəllìvalunˈ
##gèna
ʾavə́nva
majvə̀jji
k̭erívala
ʾajjùzəla
šmá
bək̭
ʾódən
ʾáxuni
ʾumrànə
cutánə
šak̭ìyya
ʾàlahaˈ
##ə̀jva
carxàna
mattùvvolə
bərxáṱə
parmə́nnun
ʾodìlaˈ
##r
ps
nùynə
ṱìnəvaˈ
palùṱu
##sə
dèxaˈ
##pḕ
bəzmàra
##rála
##gli
bədràyətˈ
##ùyənˈ
ázət
yúvvəl
##áyṱun
šə̀c
cə́s
agresìv
làblun
##ila
xeyli
də̀vxa
bi
ʾazəlniˈ
ʾarəmná
ši
ʾIrā̀
vid
yávvəl
##ə̀bba
hána
bràti
ʾurusnáy
dávvə
duccanànəˈ
plìxəna
sə̀vləˈ
ziyɑ̄
hámmam
##ṱlə
sar
tùnila
nàmaz
maxd
paláxa
##ləx
Nùš
hàvuz
mašxənnáxva
axxa
sàvza
jájə
##hə̀nnə
haccìmə
##k̭ra
##óta
pā̀šni
yúmaˈ
marrə̀ttun
Yangə̀jj
bràto
tséntr
k̭ṱílu
mardúxət
xàsu
tayə̀nvalun
čàmčo
òdənˈ
gə́xcəna
ʾódət
mə̀šxa
ʾaslánˈ
baxtáy
gibu
ʾúxčət
##làt
##plan
byaˈ
xodk̭árə
humzə́mlun
bə̀ššəla
màrd
gərdàyəˈ
yulpàna
lablə̀tta
gúšə̀k̭lə
bəxzáyəva
muyyìtivat
šar
sə̀v
##élaˈ
##ó
##úpə
ʾəstàbləˈ
járgət
##arˈ
kazánčət
k̭rimélə
hamzúmən
yáṱtət
və́dlan
garvəssə̀nnux
súrə
bək̭ṱàyotˈ
seríva
##ìtəlaˈ
##zzət
##ṱàlə
##ùyra
##lə̀x
lavášət
bəšk̭álələ
bəgrašèləˈ
náyba
màtələ
npà
ʾAvrā̀m
dérən
jìbuˈ
bálk̭un
Danìyyəl
xabùša
yáṱṱən
lə̀bbuˈ
##ʾa
macrùyənˈ
lablíva
tabák̭əˈ
bús
##ùvvəla
lì
##naʾ
xóši
mànilə
bəxzáyələ
k̭ā́l
cullanaʾìt
clìˈ
##tələˈ
k̭uravày
##árto
ívən
gərdè
šàr
só
sapk̭áxvala
xámša
purp
xə́šla
##yā̀l
lelaváy
bəsràk̭ulaˈ
Nas
mardəxxàxva
šak̭lə́nnun
k̭ə́m
Tə́k̭lat
garg
##únət
zàrgar
##nùnə
taríǧət
yak̭úyra
parmə̀nnun
xzité
ṱlə̀blaˈ
mačxán
##ən
šuk̭
iva
ídət
##àyəlaˈ
ʾodiˈ
##ísa
bušəltéla
cmàˈ
##yələˈ
lḗx
duccànuˈ
ʾak̭ùšk̭ətˈ
surùytiˈ
##məsˈ
bəsràk̭u
xmù
##bəlla
meš
##də̀nnə
vídə
sàlənˈ
píšən
muyyíton
bəgrášax
lə́tle
k̭arə́ttun
ʾáxlat
k̭aràvul
duk̭tùyrə
##ṱtət
##jəs
##diyy
ṱum
p̂armiyyanələ
tùynaˈ
##vèləˈ
gašk̭ə̀tvaˈ
váyolə
##ṱənaˈ
gavə̀rra
k̭edàmta
mattúvvəla
mavàtə
##ə̀rri
xámra
##taˈ
garvəss
##áyo
sépu
ʾə̀ttən
ṱìma
xútˈxut
xurbə̀slə
márəvaˈ
bùsˈ
guššə̀k̭lunˈ
lìnə
sri
mìtələˈ
palə́ṱ
bək̭ṱàyəna
xšə̀v
##mí
jayran
##lèta
aralləǧ
xlìṱəxva
mattúyot
dívə
xanímə
ṱàmta
bìnt
##rìstmas
mə́stət
máyəla
diyyéˈ
##́ǧǧ
mṱàˈ
ʾáxmak̭
bnayèva
##ru
##luˈ
dɑ̄dgɑ
yumət
mulvəššàle
##vxa
mak̭ṱúlul
ìvaˈ
šùlə
ṱavvùyələˈ
bəz
##k̭k̭ùrta
maštúya
màtanˈ
ʾak̭ùš
šalùxələˈ
rángax
črí
mìyyə
màlcəvət
rìš
ʾəč̭č̭á
lə̀tvalə
##ànəˈ
pármi
##áyolə
xazzálə
xàmən
plə́ṱta
bəsyàrəlˈ
mdìta
##ž
dé
ndà
búl
##əṱṱ
yarxa
talgàˈ
gorìlaˈ
M
##̄́r
##vot
kusarté
k̭aṱkəṱṱìvalun
k̭ùymarˈ
hošàrəˈ
ʾòda
gùydaˈ
patxàləˈ
bàssa
k̭áʾaxúna
vazìru
šak̭lə̀tvala
##ə̀t
naxrày
čàrazˈ
šap̂íra
map̂rùmə
##zəˈ
ʾítar
##mmúni
##ū́r
xùto
tùyta
várəva
##téta
jànəmˈ
calbanā̀n
čar
##ə̀rrə
##mxən
bəsyárul
māt
labúlələ
yátə
leš
tánən
diyyan
gàjˈ
##əxx
zarduštàyəˈ
##rəlˈ
bətvátə
##mmé
rə̀zza
ṱrùsəvən
be
##xún
šuràyaˈ
xùbˈ
dḗv
xàlta
par
##mpi
##k̭ili
abyavlyéniye
šurš
vazzírət
mayyálun
marč̭ìvalunˈ
lablávale
nìxaˈ
zlù
k̭uli
##ə̀xle
təf
##ùtəla
ʾìnaˈ
yátvax
narahatúytət
šə́cla
məllàttət
zarríva
##bàr
k̭adàlə
##šva
##mmèˈ
ʾávilun
yatvìvaˈ
##ə́lto
mattíval
##yməna
́
xlápux
bərrák̭əl
##p̂ra
dúcto
barə̀zva
tìra
ʾídax
k̭aṱkəṱṱ
pàləx
##maˈ
báx
bəxx
##luna
məxyèlə
heməzmánə
dɑ̄
mírənva
lablàxvala
hamm
bəxšà
k̭uyáma
vàzzər
bərxàṱə
##mmun
mátan
gàrəcˈ
havā̀rˈ
marəlàniˈ
parmílə
jammátte
ybà
dešáxva
ʾáhələ
bak̭ùrolə
prà
babavàtət
gnéta
galán
švári
ʾatyàvaˈ
basə̀mta
plìṱə
##áran
nèynen
k̭ó
nìnə
##yèlaˈ
yàxčal
p̂ə̀r
parmílaˈ
taxmù
pyàša
ʾádi
##xəx
fi
gánax
bàsman
##lápulə
tò
sáyna
k̭àl
##di
##tənva
ʾòdax
##lì
hə̀
nášan
##vu
pulṱèna
plàṱələ
##vèˈ
madrá
ṱlúb
labùlola
##tòxunˈ
##trəs
##málta
xilèlə
sálya
odíval
##vvən
Maryamˈ
##àxta
mammùdənaˈ
mayyìvalun
p̂érviy
xarujèləˈ
tunìtəlaˈ
tə̀v
bitàya
salyàva
ʾarp̂ì
mattúvvolə
tànənˈ
ṱùrsəvaˈ
sedá
mə̀x
rappátte
ʾídux
##ùs
čár
cəš
šup̂rə́n
bəjvà
##vvə
##xàčiˈ
k̭ə̀ṱṱaˈ
k̭ùyriˈ
##àxənˈ
múyyələ
bašlívalə
də̀pnax
##vv
##paˈ
gùraˈ
taxmùnəvaˈ
tandə́lvalun
##ol
##àtax
dēn
dəbbàbə
gə̀
bək̭ṱàluləˈ
bità
ʾə́tvalaˈ
tanuy
##xuˈ
bəddáyənaˈ
##uvvùltəlaˈ
k̭arkə́p
pāš
##ùrtəla
bíʾə́ttən
càs
k̭ášə
ʾIrā́k̭ˈ
xàbraˈ
ʾázəl
cùllə
bàš
##̄l
bəšk̭àlo
tanə́nnux
jarúbəva
ʾàtxəva
##ə́rta
mrá
##rələ̀
pšìmaˈ
maráni
beténi
José
vanˈ
##rac
ʾícələ
maštə̀tva
ʾazənˈ
##číyyə
k̭aṱk̭əṱṱìvalun
##diˈ
Ha
##zət
xə̀šli
pràxa
##laha
taxrə́nnə
ʾə́tvalun
bítət
suy
šəptìyyə
xùrməˈ
##yálə
sapar
pə́
péšax
hájat
myása
garùsa
##unyày
##šàvaˈ
xamšàmma
šk̭ilàlə
##ls
Mahámad
mattìtun
šk̭ilálun
bnátax
dok̭ìvaˈ
našé
cə̀lyəlˈ
##úyti
prə̀k̭la
##ṱṱān
yba
brúni
gắrə
dárzə
ptìxa
nùra
bəštàyəl
bənpáləna
bák̭rən
mǧa
gvíla
mállə
ʾodíva
gušə̀k̭la
ṱávulələ
búšləna
##ə̀ns
ʾəštà
bəxzàyətˈ
k̭atə́rta
xallə̀llun
nóši
ag
huyd
bəxnàk̭ivət
šagə̀rdi
čallúšə
k̭ə́ssət
mxàyu
marúməxva
ázətˈ
bètəvət
súp̂p̂
##pča
xmírax
xvə́šta
pàlṱənˈ
pàga
##ùrələˈ
drú
##canˈ
muzyə
ʾurxaˈ
##ə̀v
jə̀myə
náx
ʾarəmnàyə
zəˈ
bayyi
##ə́xva
p̂k̭áyələ
cpə̀nta
šok̭ə́ttə
##luxˈ
##rətˈ
xalùvvo
bəddáyənˈ
ʾáˈ
bəxváṱox
gniv
víduna
ṱàrpə
Pa
##bù
dóbá
##ks
##ˈ
##ə̀mləˈ
xòləva
ìla
cármət
##ṱù
commúni
##ux
cn
ʾàx
cún
##šxaˈ
md
##ǧān
mə̀rreˈ
tammu
k̭aràvat
bašlívale
jùllə
##rrə̀š
šak̭iyyàtə
##manə
Bàǧda
mòriša
zaprā̀n
šə́clət
k̭aṱlə̀nnə
ṱurànətˈ
vsyòˈ
##ròxunˈ
bətxàrəla
##dù
sám
jammàlə
Və́kt
ʾávun
hu
##ə̀tlə
##ráva
prák̭ta
clíˈ
sèpa
xp̂àk̭uˈ
##yù
tànyat
##də̀n
##rulə
ʾìcaˈ
hacùmola
yəmmèˈ
maxnək̭k̭àxxəˈ
lípə
pə́rdət
sằ
ʾət
k̭ímələ
##jjur
ṱup̂p̂úr
maxùluna
##stˈ
vádəl
magdálta
bəsp̂àrələ
mattúvva
šadrə́nnə
rúppu
də́rrə
xamùvv
ṱavvúyən
palúṱulə
bəzvà
oyàni
##rona
bàyyat
yásək̭
##vəla
rásmət
bušə́ltut
canušyáy
bašlàtlə
Ó
##̄d
Núš
ʾAlàm
##ə̀xva
várda
šə́nnət
bíˈ
bəxdàrəna
smùk̭taˈ
šadúrəna
ʾàxunˈ
##že
ʾalàhəvən
dárza
susyátax
gdì
márəna
pláṱəlaˈ
xapər
xàyyux
baràyˈ
bəxváṱa
k̭ùč̭č̭a
sə́rrun
xò
mùttun
bərràk̭aˈ
ivən
palṱìvalə
##ttila
lablívalun
bìyyoˈ
sávə
ʾátiva
xallìva
zdánya
ʾazən
k̭irà
bək̭ṱ
náxob
##tun
sáʾat
básma
mayyàxva
##úta
##àsəna
búsrət
##tva
mə́slan
##lunte
maxsus
Bə́rya
dìlə
nṱùrrəˈ
parp
##làk̭ə
raxṱən
Dahlún
vàra
dìyyivat
##ùlənˈ
mṱìlunˈ
márəlaˈ
màni
várəlaˈ
ricò
bəxzáyətun
##tìv
avəd
##šàk̭a
loš
purziyy
mùjjurra
caˈ
ʾatík̭ə
k̭réta
bixalèna
máxziˈ
k̭aríla
##ziyy
##ávəla
##č̭č̭u
##ḗx
tfə́k̭la
tambúrta
šìtaˈ
fàyṱun
sàraˈ
##làlux
tak̭t
##un
gə̀l
spay
k̭ə̀ṱma
xuyàdaˈ
xàluˈ
mxáyulə
zabnìva
ʾorən
hállə
##ímə
##ng
##írət
muttènˈ
##lga
buk̭àrə
##lə̀nk̭aˈ
šak̭lə̀tlə
páǧrux
##nar
##ə̀šlunˈ
šártə
Hacc
bašláxvalə
mattùyəvaˈ
odívalun
manàyu
hàsəl
##né
##bənnə̀nnunˈ
bəčyá
cəšmìšə
bəxvaṱ
##sən
šap̂ìrəva
xumyèli
bixàla
šk̭ilálə
mavə̀rvala
ʾáza
rèk̭ət
šúlə
xixə̀
##rigày
##̄h
buk̭ə̀ltət
##tvaˈ
bəxmàsa
lə̀tlaˈ
məššənnérə
##ə̀z
##àhat
prìšəˈ
dv
ʾaxūn
bək̭ṱálo
mdíta
k̭ark̭ə́p
lvəštè
dəccanànə
##nìvalə
dvik̭
basìmaˈ
parùk̭o
mattíla
polī́s
bayyənnun
pràk̭əla
xáltət
bazbù
smùk̭əˈ
##por
##ə̀dlaˈ
bašlàttunˈ
mxàyoˈ
àxxaˈ
ʾavə̀dva
gibànəˈ
##vi
mlà
dúglənva
daˈ
##xùrənaˈ
##ánnə
mayyán
vu
xùl
bək̭yàmənaˈ
ṱrùba
tanàxənˈ
##ùk̭ətˈ
##damtaˈ
xə́zyət
##xənn
gvà
dam
ʾudálə
àz
bàs
xšívəl
bə̀ššəxˈ
šap̂írə
bəddárəl
sə̀lk̭aˈ
##lə̀
nə́k̭va
##lìvaleˈ
##my
##ə̀tti
mètrə
mayyənnùn
danətˈ
bəxzayévaˈ
ṱavúləna
màtt
##rru
mə́šxa
mùjjur
avə
šak̭i
bəš
gávətˈ
sul
##anj
xayyàxva
p̂alàṱa
baxta
bədvá
##yuté
guydan
bəštá
švàra
mardùtaˈ
bèta
pallìyya
cəšmíšə
dári
hə̀čˈ
brə̀zvalə
ʾU
xáyyət
##úrən
púrk̭un
màrəla
racíxəna
k̭aṱə̀lla
šak̭láxva
xə
maxàxləˈ
cìci
šə̀claˈ
hàjatˈ
šavùyut
k̭áhàjiˈ
##yànəˈ
##ə́tli
štètaˈ
taxn
naṱ
šavvàˈ
##ìmuˈ
xak̭yánnuxxìna
hayyúrə
##ṱaˈ
ròba
vúdunlə
npálələ
gri
cačálaˈ
ʾùltux
šənnəˈ
šak̭ə́lva
bak̭úrələ
##hanj
ʾáxuna
##lə́ṱ
ʾávər
##ṱṓn
mərtú
dàrza
dìyyila
mešó
bəstána
taxmùnə
šer
k̭álu
bərrə̀ššələ
ʾə́tvalə
šk̭ə́lta
bəsp̂árəl
ríšaˈ
dàr
bədvàk̭otˈ
##ttaˈ
##érviy
##nəst
ʾatax
Mùyša
##ut
ʾànnəna
mačxàlə
yánə
bəcnàša
ʾatə̀k̭ta
zruté
##jèləˈ
párta
vidélə
##ràč̭
góri
##nàya
dáxila
ṱìzuˈ
lə̀tlux
pucə̀rrə
##zər
##ə̀zza
bašlìlaˈ
xázzax
nòšəvən
dorànələ
dárǧa
##xəˈ
muyyálə
hi
##yané
ī́d
p̂ərc̭ác̭ə
,
táx
##jəvaˈ
dvàk̭olə
xazzàxvaˈ
paytáxtət
gàšək̭ˈ
balòlona
sùrəxva
mə̀nˈnùraˈ
##ilə
bəsk̭àdələ
csèta
##fre
##ə̀ss
##ràk̭
k̭ablílun
ʾàrp̂iˈ
háji
də̀lla
yarə̀xtəva
máyol
##az
lə́tlə
àx
prə̀štəla
##ə́p
muxrə́ppa
suysavày
##nùraˈ
##šì
sazg
bəṱlà
##ə́nnux
##dənˈ
mù
mə́lxa
##àlo
ʾaxlə́
ʾúga
##ɑ̄rī̀
mar
maxíva
maryùxot
lélə
k̭ə́zza
##nələ
bərxàṱələˈ
##úṱox
ʾàm
pars
rk̭ùdˈ
ʾəšrì
tàrra
bázu
##ṱta
##ùyələ
p̂armùvvələˈ
tanúyəva
##č̭č̭i
pàx
rxə́ṱla
pā́t
mučxé
ʾodə́nna
##mə́šta
tànimun
davə̀k̭lə
k̭àtˈgu
mùˈ
gettí
malə́cta
##xta
##cəlaˈ
##ə́tla
##ína
gavé
xmìra
Géoffrey
carxan
##mmánət
bra
##zərrúyta
##ə́ṱlə
bàk̭riˈ
tlə̀xle
bašùlələ
jə́m
communìstˈ
ṱalìva
zak̭úsk̭a
ʾaxlə̀nnun
k̭àrta
mattùy
xmá
və́t
labə̀llə
##úlət
márj
mxáyula
bərràk̭əna
##yèlun
pàstəl
tabá
bùdraˈ
bəryàpa
gàšk̭un
jvì
ʾàlmaˈ
bək̭ṱál
k̭uxā̀n
pàr
mìz
##̄̀d
yaríxa
k̭átiˈ
prá
šìva
núynəˈ
ʾə́č̭č̭a
yè
xdì
bəšvàrəna
šòr
yavvíva
##šy
líšan
Šacar
k̭ùlyələ
##niye
bašlàtt
##àriˈ
xvìsa
k̭áganè
cárma
maclíval
zàbənˈ
yapìva
##ɑ̄
bab
muttètun
màccə
goràxən
k̭upšə̀ntaˈ
tanìtunlun
súsa
mā̀sniˈ
sə́tva
lišàna
bnúnu
huydàyaˈ
topxàna
naf
píləna
ʾə́ttənˈ
##mā́t
pəlxánətˈbúš
pə́llən
basúr
bàzarˈ
yávon
xə̀zya
mə̀xyuvən
##àrət
##xr
##k̭tìv
prə́k̭lan
málcən
bədmáxəl
bəxmà
##urč̭ə́rrə
##ptíyyə
##úrələ
xpà
durašèˈ
vidé
hayy
čòl
##onˈ
maccúsot
k̭í
bàlma
mètən
tanùyəna
##k̭olə
bitàyəna
tanyán
marùm
matvàtə
hamzùməxva
madən
pəl
ʾaxú
pyàšələˈ
ʾidáto
Maryànaˈ
dmú
mìtən
yàrxaˈ
k̭uravàyəna
šìyyə
##ìtunlun
ʾaxùniˈ
##k̭àttə
pucə̀rrun
##ci
janj
zubnə̀nnaˈ
##ə́ddə
ʾátra
vìyyənaˈ
pyášələ
ʾàk̭la
hamzə̀mmənˈ
šə̀nnətˈ
pràtta
dùctuxˈ
ʾilánət
maxzúyəla
##gùləˈ
##dd
š
xə́t
úže
bəzvánəva
gor
##ə́vta
váduvaˈ
muyyàleˈ
ə
bìyyuˈ
šaluxèˈ
##siˈ
##yàlunˈ
##ə́lvalun
núyṱa
xàltaˈ
tòrəˈ
bətxànuvaˈ
mùjjaˈ
##ànnan
zarràxva
ʾodívaˈ
madrà
xə́šlun
č̭apúla
bək̭rayèna
##álo
##rrànəˈ
ì
bàx
##taxˈ
axlàlux
hə́nnamalə̀cta
táza
purtə̀llələ
##k̭unaˈ
##ə̀rta
k̭un
##oš
k̭ə́nnət
yarxə
manšívalə
##váto
gù
múttolə
cálə
##šina
##ə́ndi
mattuvvèləˈ
tlày
tarcátta
##bu
k̭urtópə
xamùvvula
##lyày
guré
bə̀xyətun
mā́n
magrayátə
ptàna
bás
hávət
čullùxtaˈ
t
##ə́nnu
##yyaˈ
##vəš
gəllàlə
k̭arìva
cə̀sliˈ
čə́rtət
ʾə̀štaˈ
xázzə
bàzar
cállə
##upnáyə
Frànsa
xášvət
plàṱəna
lablí
##á
sàlləˈ
k̭azánčət
yulp
##yava
##ə̀šva
ʾòtaxˈ
òdi
túyun
munyə́xxət
k̭ošunèˈ
bəryáma
ʾadì
yádla
hálam
##xəšš
##ḕl
##púrə
xáb
map
brūn
rába
mərtù
pašúṱo
masyùdə
švə́k̭le
bək̭ṱálona
jə̀ns
xzìla
ìda
tòrə
plàṱəla
tarrè
##la
ʾallé
##pələ
##xun
sàva
xəzma
xvàrəva
ʾavva
súr
Supùrǧan
yàvəla
yávilə
##ə́tra
plìṱəˈ
támba
ʾánvət
yavvítun
oráva
mak̭k̭ùmulaˈ
xóšu
bixàlət
salúyələ
ʾaṱṱážəˈ
##yò
bíyy
pròblem
xyù
##ṱəcc
ʾak̭əd
lə́pta
##ccər
nášəva
##lèˈ
báram
mak̭k̭u
betanànə
jə́myəxva
odáxlə
odáxvala
mayyáva
##manànə
parmə̀ttə
bəxlápələ
k̭arzín
səppə̀rta
dəžmənnáyta
##lat
bəzzət
rigavàyəna
záyət
sàvəˈ
##ráya
mutt
xlùy
šk̭ilèlə
gànuxˈ
k̭ùxaˈ
də́lta
##ššax
azáva
màlca
bəxšávən
ʾavíla
ptùxunˈ
č̭arč̭úrə
ʾArmanə̀s
suráyət
ri
##nnə
pulə́ṱlun
##xara
##ht
##làlə
##tè
bíxá
buk̭à
rīš
ṱàllə
bənpàsu
ʾàmk̭uˈ
sak̭úlə
bə̀rcu
mak̭k̭ù
lí
ʾaxlìlə
##šu
ʾarəmnàyəˈ
yavéna
##àxlunˈ
##ə̀k̭k̭axˈ
bíyyan
jarga
bəryáx
mšìxaˈ
brátaˈ
múyyənva
xur
##sò
Bò
##k̭áyələ
##vvaxˈ
baxtátə
odáxvlə
##no
iza
ávi
ʾòfˈ
ṱúyra
ʾodə̀nnə
ca
amr
pagé
gráštət
nanùntiˈ
purk̭élux
zú
bəlʾa
bràtaˈ
məndyán
xšə̀vlunˈ
šuršə̀rrələ
##ìlaxˈ
dò
##nət
##ə̀šk̭a
šok̭ə̀nna
vadéla
rùmta
vidévət
odíla
yávələláx
č̭arč̭ùrəla
bək̭yàmələ
Hi
mùttəvaˈ
mxíləˈ
ʾaxlàlə
xzàt
ʾatík̭ət
##rta
taxmán
Màt
hàmzəm
šə́mmi
madràsəla
xùrjunˈ
ʾəštá
ʾalk̭ó
bədr
##ı
brùniˈ
k̭vàltaˈ
gíboˈ
ʾokèyˈ
yàṱṱ
gòroˈ
mə̀
xàs
muyyàlə
c̭uríyyə
ʾùdyuˈ
pš
pā́šni
k̭ə̀mla
##šš
pašùṱu
##àlələ
##tən
parə́m
cán
ʾaxúna
msíta
##áyula
məxyèlaˈ
màyra
##ngland
##ìla
##jj
azàtən
ʾàǧayˈ
##les
xasyàttila
xák̭a
jígar
šíta
xamúvva
xə́zya
pálga
bəstànə
cav
avíle
duáy
hamzə̀mmax
zrùtətˈ
mdìtət
ʾàhaˈ
múr
bìta
##ṱṱa
paluṱḕt
cənd
bərrə́šxəna
məššəlmànəlˈ
šarè
švik̭álə
òdaxˈ
##ìto
dìyyina
bəsyár
##dər
šidána
##bánə
##ràči
sárhanj
càlə
##smət
zárgar
n
lablúnli
##zu
sə̀vtaˈ
lə̀ttən
##táx
bərrə́šxələ
bəgrá
jál
pálgət
pìra
pašṱə̀ttəˈ
lə̀tlaxˈ
li
dárzət
cə́l
cə̀pna
yárxaˈ
##áttət
##cànə
xə̀msa
k̭úrban
marɑ̄
cilóyəˈ
bətpàxa
##ə́ṱla
ʾannə
##zánət
ʾàrpiˈ
xdə́rrə
maší
pašə́ṱla
cə̀trə
##à
##àrta
##baˈ
##əzz
súrun
drímula
ʾalàhələˈ
##mrət
šita
avə̀dva
bək̭ràmələ
yumànəˈ
ʾárp̂
mazràˈ
və́dli
##ù
##ə́xlə
ʾavíle
pə̀štəla
##úrǧān
rùk̭
calàtuˈ
##vála
##́
pú
mammùdə
##ə́nnun
yasríva
tívələ
##pəs
bəṱr
bənpà
T
bəlc
##fá
šud
k̭ítət
bùybar
##glə
##àvə
bətpàk̭ələˈ
šap̂ìrəˈ
##sˈ
msàyəla
xáda
ʾodətˈ
masívale
mằdənxət
xánə
bəsy
rədyálunˈ
##vúrə
húšu
yasrìval
bušayútət
muràxxas
càmra
maxə̀nnaxˈ
##ble
##áyəle
##vátə
##úlova
##k̭taˈ
p̂urṱəcc
dok̭ə́tlə
ṱšitəla
bəxxáyəva
xúbba
k̭aṱlə̀nnoxun
lḕnva
bəddàyənˈ
k̭èmi
snìk̭əva
sə́lyəl
jùlləˈ
yácca
mániləˈ
mayyàxvala
xìšaˈ
matruy
p̂armiyy
díyyax
##hàt
jammuyèva
bəlʾá
ʾarràtə
k̭al
##A
k̭álla
sùr
xámə́n
cə̀p
avívalan
čo
k̭ə́ṱṱət
úydalə
sàbunˈ
k̭arbúnə
ʾámíyyət
dánašàr
ṱúsa
mə́ndiʾət
yumu
bàba
damurčìyyəna
##zrak̭
##ṱó
duca
bərrə́ššəla
p̂làša
##šaváy
##náyə
bəxdárəna
bak̭bak̭bàk̭ˈ
jùllu
bək̭ṱàloləˈ
basimùyta
pə̀š
lišā́n
taybə́r
bašlə́
bənpálələ
màttiˈ
ʾùllul
k̭àyda
##ə́stola
ʾumránət
mattìva
gān
gdíla
brə́z
##yàtə
víyyəva
nùynəˈ
##yéniye
##miˈ
ṱlìbo
švàvələ
tunìle
##ə̀p
xta
xzùyrəˈ
pùmmu
hálʾázən
muyyévət
lə̀tvalunˈ
ʾərbìta
páǧri
ask̭
bəṱlàyələ
taxmúnəna
ʾávunˈ
Hayə̀stanˈ
vadux
##brələ
ʾAbada
tàlgaˈ
xánət
jvànk̭ə
##p
darrùnuna
šàrtəˈ
##olˈ
šə̀nnu
pə́šla
rápp
màlp
bašúləna
myuk̭ə̀rtaˈ
bruné
mə̀lxa
##ē
##éva
k̭àyra
dánəˈ
##nuvən
k̭ark̭ùzələ
##leˈ
mayyíva
##àttətˈ
bùšk̭a
pənd
sayàdə
dának̭ən
gorə̀tti
ʾaxə̀l
##àlux
##gərd
dayy
##bal
##mulə
##blə
víli
yávil
ʾafšarìyyəˈ
##pruˈ
daràxvala
fransáyə
snìk̭ə
gr
jùl
##rášə
nanùnti
p̂ək̭k̭à
tə́vta
ʾulay
maryəxx
##lmaˈ
duràša
gorə́nnax
ʾàrp̂
##i
yuvvéla
##ydalə
##mmà
dìvələ
##mlə
zdànyəlaˈ
k̭ṱ
p̂lí
šə́mmu
màstaˈ
ʾatìni
tavəryátə
byayəna
ʾərbàla
pušàk̭a
##ṱor
baràyə
##̄́n
##ravaslàv
pacùrolˈ
tòp
ʾak̭láy
##vvà
və́ttun
mabyú
##əz
k̭àbəl
dəžmən
bə̀rco
##dxìvaˈ
čambəllìləˈ
và
máccə
k̭aṱlánna
ʾaṱṱā́ž
hája
tanə̀nna
k̭aṱlə̀tlə
ṱúrsələ
mattúyuva
vàcc
juvvábət
ʾóyat
vəttéla
bəcnašə
mòrišaˈ
ʾərbìtaˈ
yalè
šk̭iléna
zabúnə
##tənˈ
surúyti
xabúšə
víyəl
mrì
##ván
##rriˈ
xṱìtax
##àmbaš
yàmta
xamìvalunˈ
taníva
xmà
tunílux
bəxdáyələ
məndyánə
##ə́d
xáyyu
ilə
hàšyar
tívəva
pálṱax
xə̀lṱəvənˈ
hak̭ìvaˈ
##ítəva
##áluxˈ
ʾarp̂
xə́šle
bək̭ram
pḗč
ʾarəmn
mxàyulə
mešógə
tanyànnux
púšun
paluṱḕxva
##áxlə
##ùšolə
bàxtələ
ricòta
xàtəna
grafínk̭
##ùsuna
##rə
bəšk̭àlu
##xàyənˈ
bnà
to
bitáyəva
cə̀lyənaˈ
hàllun
sìyyəna
àzəl
bəsyàvaˈ
hə́rra
xàč̭č̭əna
##xá
Ca
rèstaurant
dəžm
bəsyàrət
malcúta
hónət
tun
mun
mṱàya
vayə́la
##làmas
##ri
tavànaˈ
##búy
xə̀t
bášlən
##gaˈ
##xələ
ʾayyé
ʾak̭ù
ʾáyno
k̭ṱìlən
šã̀n
ʾalpə
xzìta
cə́r
##dú
ràxəm
betùyta
siràləˈ
ʾóyarac
šìta
yask̭áxva
gā̀n
laxmóxun
bixalèlə
xšíva
bəmṱáyəna
##átaˈ
k̭amà
xlùyla
dalàp
xzúyra
pā́šva
pə́rsat
bənnà
##tèˈ
ṱā̀vlələ
mačxìvalə
purk̭
dmùxun
pəlxànəla
šudd
##manánə
tíyyətva
xíšələ
xayyútət
òttoman
purə̀k̭lə
níxa
dərmanánə
##ìtunˈ
##ʾánnə
maxlè
cmayútət
šak̭iyyáy
bətpáxəva
màptulˈ
vazì
mardùxuva
##áyətun
k̭ùyra
##lámas
lúbəlla
lə́bbu
yáṱṱax
##k̭ətˈ
Yux
xasé
šə́mša
hasìrəˈ
brāt
ʾə́tluxˈ
ʾamsat
paláṱṱa
xsiruyàtəˈ
##úla
##rolə
màsa
sùsəˈ
xank̭
grì
xərbaˈ
vàyolə
sap
mǧ
k̭adálət
##esčùrˈ
ʾàntoˈ
jàmmi
sé
pràməva
mə́ndilə
##rrunˈ
bətpá
šə̀nnə
##k̭ər
mot
ʾàvvələ
##lavàtə
xətnavàyˈ
gát
Joséˈ
##mṱi
pə́rda
dū̀z
maṱyálə
šo
marà
ʾe
k̭èṱaˈ
hák̭
ʾarr
zùrzətˈ
záhmat
mélə
byàyən
k̭ərk̭ə́ptux
tanívaləˈ
cə́trət
marč̭àxvalun
pràšta
bəxzàyula
darvázət
##táyyəd
švàvanˈ
nišán
##úra
##àxlə
məndìtaˈ
k̭aṱlə̀nnunˈ
##bə́z
avìna
bru
šùləˈ
síra
màzrak̭ˈ
zuy
dəžmə̀n
gàniˈ
bək̭ṱálələ
yù
máro
bak̭úlə
làˈxə̀š
rò
tunìtux
##nèrə
slibèna
ṱlìboləˈ
məx
gā̀z
baxča
k̭aráxvalə
rappúyələˈ
##dá
palṱívala
k̭èsəˈ
ʾàtrux
sus
xə̀šlax
garšívaˈ
ndàya
ríši
ʾannì
##àmmoˈ
vidà
ʾàxlana
##yi
##xamší
mattáxvala
##ùyta
calba
ʾijàza
##ə̀k̭lunˈ
Smìth
basúrtəla
##àya
maštə̀tvalunˈ
ràbənaˈ
plíṱəna
avìvalan
##èla
pəlxànəna
ʾə̀tvalan
bəddárələ
máyaˈ
k̭éṱa
vèla
##ba
candúrələ
k̭átanˈ
yàcca
šagə̀r
màllə
nùz
no
Rašī̀dˈ
ʾúžeRpḕč
bíyyət
##ə̀nniˈ
xzùyraˈ
##̄̀hˈ
tlə́
##dà
mə̀rraˈ
cač
dúnyət
cotácət
xalluléva
hamzámta
lìtən
ṱunyátə
jamúyəl
nápəl
bəddáyo
ṱlíbi
##ùvv
ṱər
bəyyàvona
áxlat
k̭apk̭ùpəla
rí
mačxà
##ə́nvalun
bəšk̭alèvaˈ
mádənxa
ʾàjj
##llen
pardùvvə
sùraˈ
bəddára
mattíva
vìda
štìləˈ
càrmuˈ
##os
pə́ccər
ʾád
mávəna
xàrta
##zi
rábadavə̀lta
##stət
xdítəla
##ílan
mávəla
ʾiranáyəna
šák̭li
dō
céla
xalvìle
##úk̭ələ
k̭aláttə
##pə
##cle
bə̀zza
cə́slan
##riˈ
ʾànənva
maclúy
šmìlux
##ùtra
##úytət
patxàxvala
túyta
bəddàyina
sṱòlba
ṱrílə
avìlan
matrú
hàyyərriˈ
maptùyuna
##ánta
mèmunlə
basùrtəla
##lung
mavā́t
šəmyəttə̀
bàbi
rupp
xurrágət
k̭a
ʾan
vídənˈ
pàriˈ
hasanáy
##níyyət
##yəvv
gríšə
xàˈjv
ṱalaš
xṱìtux
mayyìvaˈ
dǜ
híʾàxnan
ṱànaˈ
madràsaˈ
k̭alóxun
k̭əṱṱ
məndìta
##ə́nnoxun
cìsoˈ
marruvvèləˈ
yavvílə
ʾak̭òšk̭a
##cùm
ila
Nū̀š
xúllə
##ìvalˈ
##ran
̭
xàč̭č̭ələ
xi
##solə
pìšəl
ʾárra
morə́nna
mattáxlun
bak̭ràxxəˈ
cìpa
vàˈ
maštúyo
və́ttula
##vən
myá
xə̀ššoˈ
vàdəna
gi
úrxət
dɑ̄dgɑ̄̀hˈ
ms
##árə
č̭mìč̭əna
##ùytiˈ
##lḕxvaˈ
##lb
##sət
ʾùrxux
##təla
##búrta
##rak̭
šàbtaˈ
k̭àlta
yavvànnux
p̂ə̀k̭k̭aˈ
id
nùynaˈ
ʾadìyya
mənnóxun
bərrə́xšaˈ
hā̀jˈ
bəzvànələ
pox
##bləˈ
##ptət
gúlpo
páǧ
báyyan
##šənˈ
mə́sk̭al
labə̀llux
##í
##tina
já
pasulyày
huyyə̀rrətun
bəxzadèna
k̭úrba
xàzzənˈ
xu
k̭ə̀č̭ya
##úba
nipúxta
##nàša
##yəx
xašbunèlə
švàvəna
yaṱṱìva
vádənaˈ
mattùvvoləˈ
šal
gné
##yəleʾo
bə́ššəva
gríšulə
ʾáyyəva
ʾaxnán
e
yuvvəl
##yáli
mattúyəva
k̭əṱla
šaxìna
maxə̀ttə
xə́ṱṱət
zabùna
maddərr
macrə́zva
purpə̀ssələ
cìs
##ɑ̄r
labùləla
##in
xázzan
gùˈ
##ə̀ttə
mattùyələ
bətpak̭əna
mš
xìnəˈ
##vus
ʾaftamàt
##sla
tíyyət
šadrílux
bak̭úrəna
rózə
burbəzz
prə̀k̭le
dìnārˈ
bàxta
ʾuxča
mə́lxət
mač̭rívalə
gaššuk̭èləˈ
dílux
náša
nigàran
bək̭rá
##xəna
bərrə́xšelə
##jun
##k̭álə
baváy
##llət
Yanj
##bəvaˈ
màyyax
lə̀bnəˈ
xəm
muràleˈ
##bànə
daha
pacùrələ
palṱə̀nnə
dúctələ
ʾəhtəyɑ̄̀j
zóda
##náva
nísa
rdìlə
bétu
candúrə
bəštáyuˈ
muyyíli
##šk̭aˈ
dák̭ta
maddərrítun
k̭učìyyə
macùsuna
maxlìle
xvàraˈ
##ràyəva
avívala
gašúk̭ələ
busta
parpúrəna
ʾə́rxə
pràk̭
cùma
mapləxxíva
##mələ
ctávu
xallə̀
pušṱàləˈ
mávulə
smùk̭ə
lù
ʾùpraˈ
dàxilə
pliṱəx
tx
ʾazàxva
lablə́nnux
##xˈ
ʾáynax
palṱíva
gášk̭a
##glən
ʾuydáləˈ
Bah
pyàšəla
bədráyənaˈ
gnivála
mujtà
k̭usarté
gə̀p
gərdèyə
Màryamˈ
mīr
##ɑ̄sèˈ
Dewànda
zùyzux
##àyətˈ
cimànə
ṱúlvunte
##rəšš
ʾállo
xzímun
ʾàynə
##ə̀k̭k̭ax
##áyən
fàyṱunˈ
tiránə
Tú
##úza
bək̭yátəla
bəxlá
ʾodàxva
bìyyuxˈ
##zbək̭k̭
##oxva
nək̭
užé
məndyánət
ʾàlloˈ
mavúrə
##ùyulə
Gé
##run
bəgrášələ
tanə̀nnuxˈ
bába
purpəssáli
##šəˈ
šaráxva
yulpána
xurj
mavv
tìyyələˈ
byáyələ
pàrək̭li
bŏ́ro
dúci
xélət
məndiˈ
švík̭ut
##nək̭k̭
##lad
ʾə́mza
##təvaˈ
víyyan
plə̀ṱla
##rəm
yaṱṱət
##áyəxva
tuxmə̀nnun
bərràšələˈ
nínət
cə̀sta
##yáni
##rálləǧ
mètət
mìtələ
xàtax
##ránan
xə̀šloxun
malyúzə
pàrmən
bəddáˈ
sámət
##p̂a
tax
səppə́rta
hə́č
sə̀p
mǧal
##kt
xča
Rùsyaˈ
bàyyətˈ
xàllə
bayyətˈ
scə̀nta
jamàhatˈ
##mállan
mṱàyələˈ
čumčə
mattùyəˈ
goránnux
##mpire
lvə̀šlaˈ
k̭ə̀ryə
##uu
lìpəvaˈ
pàlə
##ùdə
jar
xarbúsuna
sàvəvət
ʾáxla
nùyṱaˈ
c̭ùrəˈ
##k̭ən
ʾòdi
šok̭ávaˈ
bətk̭alè
xelánta
masùk̭una
yáyla
bášlət
mak̭
díyyu
támaˈ
vá
##zuˈ
##rəb
##k̭k̭a
xùvvəˈ
##mrutunˈ
tlík̭a
šk̭ilàlun
lípət
xašcùnəla
práxələ
mšixáyə
bálcət
ṱáma
xzìlux
k̭aṱk̭úṱ
jammílə
cyùlətˈ
tàxtaˈ
xošíba
bəcláyəl
lèləˈ
ṱlí
brū̀n
map̂
odáluxˈ
dmàxtu
bəddàyə
bək̭rayèləˈ
rappuvvèləˈ
##bbè
macsìvalə
##ám
tunílə
ṱlìli
k̭ùṱmaˈ
sárə
ruppàli
ùy
dàvən
rxá
Gúr
ʾask̭áva
mə́rrəˈ
##traˈ
dàvvəˈ
īd
##dìləˈ
rángət
atìvaˈ
ʾilànəˈ
ʾaxər
talə́xva
maxlì
gúra
nà
cílu
mačxə́nnə
pùlluš
##ùyti
palàcanˈ
ʾə̀tvaˈ
Dar
zlú
mùyyovət
ʾatyànə
bək̭ràyonaˈ
márəva
txaˈ
yúk̭rux
dérax
hàyvanˈ
ctávta
héyvan
làxxəna
bə̀zzəˈ
bədráyəna
mšíxa
k̭dà
##láva
uydàlə
xəzmà
xéta
xasè
mattávala
šárəˈ
ʾùydaləna
šàrtə
tamməzzàxvalə
xak̭ə̀nnux
xəd
k̭nèta
tə́rve
bəšk̭alḕxvaˈ
ʾə̀mma
##ṱəx
ṱúyrət
k̭ṱílən
tíla
ʾàtiˈ
parpùsuna
##jˈ
##mélə
parə̀mvalun
mṱáyələˈ
bə̀xyəle
##mut
xak̭ùvvəla
mač̭rùyuva
bšə̀lli
jàmma
xašlìvaleˈ
##K
gúš
prúk̭
bəšvak̭éva
##bələ
macc
ptàlənaˈ
láxxa
matvátət
smúk̭ta
bixa
ʾàmraˈ
##əs
zaryàdk̭a
ʾàxnan
Yùr
##ə̀rr
xpàk̭oˈ
màrə
##mé
ybu
xə̀llun
##íləˈ
còsa
##ə́z
zòdaˈgu
lḕl
dúcaˈ
ʾə́tləˈ
k̭ìmənaˈ
ʾə̀rxəˈ
bəxxàyəna
ʾura
tìyan
diyyiˈ
párk̭ən
##nes
nàk̭
mayyánva
pac
nesə́nnə
ṱlàmməna
xdìrəvaxˈ
idé
šu
k̭ošun
pulṱìlə
maǧǧùbun
##ˈxá
šuxlə̀p
daryá
ʾēn
múˈ
márrət
gabùyulə
ʾavítun
##íma
šávvi
sə̀tvəva
##áyəxˈ
##ə̀k̭leˈ
ʾùmraˈ
Jìlu
ʾaxúnu
simáx
coùrt
ʾátənhó
hàdaxˈ
bətpa
ṱálax
ʾaláhu
mə́txa
dòk̭a
##k̭ya
bəsrav
##bak̭bà
xáltu
subày
tàra
Géof
ʾərxíyyət
səppátax
ʾaxə̀llux
rušanànu
ʾávi
##ìləva
vóbšem
tanə̀nnə
simáxur
ʾapəsk̭úpə
pát
k̭àm
átya
##làvaˈ
ṱurə́stəva
sə́rtəla
yuvvḗn
k̭əṱṱáṱət
S
##xət
ʾàtəˈ
##ttí
##gət
bàyət
málc
mattáxval
nòšuva
park̭ə̀nnax
harìsa
bətxárəvən
cyú
##ìvale
##lìṱa
##íxa
cályan
##lpa
pàssportˈ
nāš
##àzəˈ
súra
ʾùdyu
##rjun
rī́š
##ybə́r
bək̭ráyəva
xárvi
brùni
hèyvan
šarìlun
##blo
béto
znàče
č̭arč̭ùrə
##ùruna
tanùrəˈ
dok̭áxvalun
##ə̀x
##va
jan
màyyanˈ
bərrə̀xšə
gùrə
ʾítənˈ
pərk̭ùy
##ə̀ssa
mə̀rriˈ
##óm
pùmmo
málpa
ʾòyˈ
bēt
ṱašìva
clí
##ī̀s
bə̀zzəla
máxi
##timə́tra
xə̀d
##rəxx
yu
Lening
gadúggət
xzi
bíyyo
marzánət
guššə́k̭lə
ʾavər
mayyìvaləˈ
ṱší
tápxi
tanùyəˈ
##vva
##yènaˈ
ʾoyàniˈ
##nànu
bráta
xan
k̭ìmə
dàniˈ
sandùyk̭u
##ètuˈ
pašì
ganvìla
rigav
šə̀nnəˈ
tanyánvaluxˈ
##áxlun
brátət
támma
méye
díyyanˈ
##ríba
lablə̀tva
šə́nta
##davə̀lta
gṑr
šadrə́nvaˈ
zabunèlə
gavè
axə̀llun
mə́tli
zabúnəl
##tímət
##təvən
sə̀pyəˈ
dət
##žmən
##áza
gárək̭é
parmìvaləˈ
k̭aṱkəṱṱívalə
ʾavə́rva
dáyya
rabíyyət
##zg
##jəva
bəšk̭
##sərˈ
tíləˈ
maštíla
##ùraˈ
mùt
zǧáttət
##št
k̭rə́mli
##lìǧə
##álət
šk̭ə́ltəla
k̭abù
vádəna
##ràˈ
bəxxáyəxva
Bahàr
núynux
##rrətˈ
bəzràč̭
##yyax
noš
cavə̀tra
mèˈ
bədmàx
maṱìva
bəštáyəna
k̭átʾo
əm
##át
tíyan
k̭àṱṱət
bayyə̀nna
líšanət
lvì
xlìtəvaˈ
ṱušyèlə
címə
laxùyməva
##mˈ
maʾərvàyaˈ
##də̀nna
Rezà
zùyzəna
maxvúrələˈ
vazzìru
xarṱmànə
dū̀zˈ
muttíloxun
bə́xyəna
hamzú
riša
##k̭èləˈ
nášə
tànilaˈ
##vətun
##dálə
##ṱva
ṱàvvaxˈ
mayéna
ṱlə̀
##ṱəvənˈ
bərrə̀ššəl
məššinérə
cə́lpat
bəšmáyəva
ʾelčíyyə
tman
txə̀rrəˈ
bəsrák̭ula
sammánəva
vò
də̀žmən
bəgvà
##áya
mabrəzzìvalun
bərràk̭a
ídanˈ
pyáša
bəndà
xob
hamzùməna
čamčumèlə
O
xòbˈ
pəndə̀k̭k̭a
k̭yá
k̭alíva
ʾìso
k̭aṱk̭
və́sta
odívaləˈ
šmiliˈ
k̭ubbú
##ə̀mma
##zəmmíva
##pat
bàxtət
bríto
rìšoˈ
##žži
garšìvaˈ
dàn
partùlulə
bəšvák̭olə
##mak̭
còsu
davvó
šaxinùyta
zā̀dni
bšìləva
k̭úxə
ʾabùna
hàjilə
tàla
bnáto
bə̀rza
mašaxáṱta
labúlux
jánta
spùrˈ
gašúk̭əna
malca
bəddàyələˈ
šaddə̀n
bərràk̭əl
səstímət
##̄́nva
##šà
rabiyyátət
càl
##ùltəlaˈ
##lìnəva
və́rtəva
gemə́šta
Rùs
Su
##cəna
lav
bùs
##ga
javvəbb
##iˈ
##ùtaˈ
xašcùnə
##drəˈ
nipúxtaˈ
jyárto
##rák̭ula
muyyén
mattìvaləˈ
tláy
##ní
denà
##sta
nùynəla
bšə́lta
k̭dalé
##dəxx
muyyàlan
pərdèsa
liš
##àləva
zàyaˈ
##úl
mṱàyəla
tílun
cta
##ùnta
k̭ə́ssatˈ
mašxənn
šó
nàp
áxlax
ʾàk̭
lèšaˈ
gara
ʾə́tva
ʾə́štux
čamčum
mabyənnáva
šəccàyat
hə
brùnuvən
sabúnətʾàtxaˈ
##ácca
##ə́k̭la
ctí
naráhat
ʾávət
clítət
##nuvaˈ
muggúrra
sə́tra
Márezə
haram
xmáraˈ
ʾídət
rišè
lēn
##àyṱun
bə́x
bušə́ltu
čurmə̀xxət
##yəna
nášəl
č̭ulbìla
cā̀r
lə́plan
vàdəva
šénət
xóla
ga
Sur
##əc̭ˈ
ʾúrxət
yüzinnènˈ
dalá
meter
##ùrəlˈ
jí
lìpən
xlúylət
k̭urav
ʾátax
còmmun
mùx
##ə́la
ʾák̭
bəšk̭álulə
bək̭ṱàlo
də̀šta
zab
šlə̀
bašlə̀nvalun
bə́ššəna
##llanaʾ
##ʾàni
zulálə
bətyávələ
clìlə
bétaˈ
màčx
al
darmanànə
payyíval
##ṱəl
ʾòdat
humz
Mə̀s
mə̀xyi
k̭ə̀č̭yuləˈ
##llu
parpəssìla
ʾaməs
cə́sli
palàxta
xətnavátu
xóloxun
marétunva
mə̀nno
##vā́t
gṑrˈ
mattáxvalun
bratóxun
mə́r
ʾìliyyaˈ
ʾoyátva
zà
##àxxəˈ
tum
laxmèˈ
bərxàṱələ
xàta
yavvítunlanˈ
gambùlə
čé
##áttə
##žàla
zarrìva
bəcràbənaˈ
uy
pešìvaˈ
mayèlə
məššəlmànəˈ
xarziva
muyyèva
##fˈ
##vánə
šab
##nùn
##ə̀ššə
ʾarə
péša
saʾáttə
##tuˈ
##tḕt
duccánə
k̭àtoˈ
fáyṱun
malə̀ggəˈ
ʾáhmak̭
yar
##úbə
##margan
cə́p
názu
##úrəla
ya
ṱu
xulása
gàvuˈ
ʾaxtòxunˈ
bəjvàjəvaˈ
gurgə́štola
##bú
k̭azànčaˈ
xùvvə
##lí
bəṱṱàsəna
šavə̀rvaˈ
k̭aràva
sábab
xazzə̀tvaləˈ
yávvət
sàbza
xíšəl
pàrmiˈ
ṱinànəˈ
ʾati
maxdúrot
bəxlásovax
gúrəva
bəsyá
##álun
damùrči
duráša
bátman
tanìla
yan
##ə́rva
##k̭laˈ
##áxlux
##as
inaˈ
##àla
##vàtəˈ
##gu
##ay
pàləṱ
maxzúyol
##ɑsə́m
azìva
rə́xk̭a
mabsàmta
tàrrəna
ʾatət
xlulánə
sústət
ʾadíyya
pšì
##úšta
##yə́
lə́
yuvvàlux
ʾə̀rbuxˈ
xamm
##xáva
zd
avə̀lvaˈ
bnē
##vəss
bòciˈ
làblə
marániʾátən
nàšəla
sábza
yàla
savánta
##nìtsa
sùlta
##šìvalə
càrvanˈ
##ári
ʾAvā̀n
##̄̀š
yuvvə́llux
šaxin
k̭ùnyaˈ
bálci
šá
mòtuˈ
cìso
##ə̀k̭lun
##rùmə
##áltət
ʾázət
##àva
##ə́s
bərrə́ššəva
gəddàləˈ
yávo
vəttḗt
ʾúydalə
dúle
zúbnələ
šap̂írəna
cpə̀ntən
tániˈ
##dɑ
jɑ
k̭ā́m
##čo
šùlətˈ
zùrna
nìyyatˈ
šak̭ítaˈ
ʾàxˈ
gašùk̭əla
yavvìvalə
ctá
az
##ṱət
bak̭ùrəna
bək̭ṱàlulə
##̄́j
bašlìvalə
##aˈ
davòxun
abyavl
nə̀s
##nəvv
fò
sùrṱaˈ
Sultanà
tùp
sằbabˈ
maxìva
##ìvəna
tìlunˈ
k̭ár
Califò
ʾàhəva
##es
malcúyta
tárrət
dán
sə̀tvaˈ
dárə
##pra
vìyyəxva
bàxtaˈ
##du
jàl
tmánya
pacúrən
brìtoˈ
##ə́v
mattívalun
sabaxt
margəl
xàso
tavák̭k̭a
pəlxànaˈ
bə́s
mánk̭al
ràppətˈ
vádul
bədvák̭a
##munlə
bədmàxələ
ʾàyniˈ
ruppéla
hayyárta
lelavátə
##vvəl
ʾana
ʾùrxət
hacùm
##mmət
cnə̀šlə
maʾər
yə̀mm
bnayè
ʾəspənɑ̄̀j
##ə́ttun
bretà
ptàx
ʾùrmila
cə̀sli
xammàxvalaˈ
##baš
švik̭álun
?
bərrə̀šxələ
mabrəzzìvalə
bəšvák̭ol
##mṱ
##ə́č̭č̭
k̭àzəˈ
mèmunla
##mx
bút
k̭úč̭č̭u
rəd
bədvák̭əl
xm
##nd
máləc
ʾa
nanunti
máṱən
maxáxvalə
bak̭ùrələˈ
sur
bəg
##yalə
vád
##čə
lap̂àṱk̭a
##zətˈ
##gax
šátax
màlcət
nə̀drux
xárta
tùrsəvaˈ
cavə̀t
ʾaxunvàtə
marrùšəlˈ
##k̭ənˈ
##dùšolə
xazzíva
goríva
mənyà
šur
k̭àmayə
ʾána
ʾámri
##vé
màxəna
ṱù
gūr
mútt
xəltèla
##ná
haràmbaš
núyrət
zadìva
##ṱṱ
bašlə́tva
##rrúyta
ʾə́tvalunˈ
ʾodáləˈ
##ə́llun
##styànə
k̭ṱùllə
harìsaˈ
píšələ
davə́k̭va
ʾelčìyyə
##lè
##ṱṱə
palúṱuna
##k̭ù
bəṱlábəla
šk̭ə́ltu
xayúyti
k̭alyánnun
šúp̂ra
šap̂ə̀rta
##mmənˈ
bixalḕl
xə̀šliˈ
tàma
k̭utìyyuˈ
sádro
ʾílaṱèra
k̭ə̀r
pàləṱləˈ
ʾàyya
ʾō
múyyu
turcáyət
ʾIṱàl
bayyə̀nva
ʾáynu
šəpt
maxlùpolaˈ
##šək̭ˈ
ʾalu
góna
xalvanáya
dux
##zíva
##it
tàxtə
pə́šlan
gnayèla
ʾìca
yak̭
##ob
màrət
##ànu
hə̀nnə
mə́rraˈ
xáyyiˈ
mírən
dàməx
tánaxˈ
maxz
k̭uxa
##šarìyyəˈ
ʾIrā̀k̭ˈ
víyyən
gòrolə
humzə́m
tìla
sabúnətʾàt
spadiyyàtət
ʾamsan
pəlxànəˈ
ʾṓ
túnyələ
vàdətunˈ
bərrə̀xšəva
càrmaˈ
k̭ə̀rša
gíru
mìra
xp̂à
Mùšáva
lule
k̭áblunli
ʾóyan
gvə́rre
mìyyaˈ
marzanáno
k̭àplanˈ
k̭apk̭ùpəˈ
jàlləˈ
##ram
ʾíta
bərrə́ššəna
dríla
maxzə̀nna
xúbban
ma
k̭ə̀č̭
carmú
ùrxa
k̭ulitḗn
park̭ə̀ttun
##dən
xə̀tnilə
mazdùy
bəclá
tìvətˈ
múttəva
ʾàhələˈ
azə́lva
màlc
yávi
##bən
darày
##k̭ut
sùs
##rì
k̭átbr
cárpì
vàrənaˈ
##tul
masip
buk̭ḗṱ
ʾazánə
sirà
plə̀ṱlun
glùla
xùmyut
maxule
ró
bərdá
prùmla
tux
dáta
barày
ʾə́ttən
háyvan
fə́lla
zarrət
duccànaˈ
txà
##lola
naša
sə́rtəva
vára
cúl
##vvut
##ṱolə
ʾavvó
xə́tnət
##šná
bəšk̭àlona
##vè
máy
k̭àbli
lə̀t
##uvv
##uy
ʾə́tvale
##ənd
bəšk̭a
nànaˈ
ʾèdi
##nyw
##ùrənaˈ
##rətsì
ča
ʾaldùy
masyupḕx
ṱurə̀sta
##ùlu
pí
báyyat
matrúsə
dìlun
gằ
xə́zyu
k̭ímətva
spàyˈ
tanùyə
damùr
drožži
prì
muryə̀s
ʾodána
hár
súysi
mùxluna
p̂armúyəna
##ə́k̭lux
##diyyə̀nna
##yə̀x
mačxə̀
bəšk̭alèləˈ
tupxàləˈ
òyaˈ
mànələ
##ṱə
pàyṱunˈ
lv
aturàyəva
yarìxə
xə́zyəx
##sɑ̄
mǧálta
bəxzad
gašúk̭uva
vazzìrux
k̭ṱúlunlə
k̭edámta
xə́lyə
##lúy
k̭émi
páyṱun
pešìva
šudrèləˈ
tàniˈ
gúbéta
mayyìna
jùra
ṱársivaˈ
jumméla
mušt
ʾínanáše
##ppu
##ʾá
ʾaxùnu
##nva
taybə́rvalun
xutè
xdər
ruppélə
k̭ṑl
yàvona
jammíva
xupyày
bəṱràyələˈ
##loxun
tmanyámmo
làbəllunˈ
##sə̀rra
mèta
xònə
gurvə̀ssəvaˈ
k̭árra
##áto
píla
ʾàzətˈ
##ccələ
ṱalabùyta
bəšyàrut
##yák̭us
zdaròviy
súysə
k̭ùṱma
xàsa
č̭ə̀mləˈ
##vənvaˈ
##àˈ
##ún
sə̀prə
mešògəˈ
mardəxxìvalunˈ
xámši
##máhat
yaṱṱ
xélə
k̭álax
sli
ʾarrátə
##ʾát
vàddar
pyá
##manúta
məs
dok̭ə́nna
##ə̀b
malcaváy
ʾàllux
yávət
k̭ā̀mˈ
bašə́llun
tanùyələˈ
##šáva
##məzmánə
##əvaˈ
tìvə
dílax
ʾamricáyə
marzanané
mattùyəva
##k̭al
ʾel
šàmṱax
##mta
##rívalə
##nt
títəla
##ybaˈ
bək̭rà
k̭ázi
tìyyənaˈ
mšìxa
bə̀r
mattáxvalə
gurvə̀ssəvax
ʾak̭lày
k̭ər
##dlə
ṱvé
bə́srax
ivaˈ
##míšə
bətyávən
hā́j
surùytanˈ
avìvaˈ
rcə́vta
ávə
ctə̀vləˈ
bəgraš
vìyyələˈ
yár
gnàya
mə́ṱyəˈ
##mur
šláma
k̭rìlun
ʾàhˈ
diná
ʾḗn
jáji
bərrə́xšəl
šk̭ə̀lləˈ
šīl
##ə̀llunˈ
jammùyunaˈ
madraš
zamríva
də̀ryut
##žəˈ
bək̭ràṱolə
šī́t
byáyən
##ə́štət
##mmólə
##yàpə
zə̀ngˈ
ʾúrxay
##zo
dmúxun
gašùk̭ə
malə̀cta
tùyna
mačxàxxəˈ
vélaˈ
kèsaˈ
lax
Babàjan
gùra
##nəz
bərxáṱa
cnə́šlə
pən
xə̀šle
ʾámí
##suxˈ
mal
sál
tamməzàtlunˈ
k̭ə́dli
##ʾər
npə́llə
bašə̀lva
ʾarp̂í
##yàrələ
məšmə́šša
##urèləˈ
muṱmərrálə
fár
mummə́ddə
##ul
càdə
##áxvalə
nàra
buk̭ə́rrux
ləˈ
garbi
jī̀
ʾə̀tvalə
k̭áṱəl
naxràyə
ʾàni
mə̀nˈ
hošárə
hàyyər
##nəla
zúyza
##ə́ttə
víleˈ
##rsi
ṱìnaˈ
##ùy
##yla
cí
dā́rva
vídətˈ
dúna
tappé
pàxəlli
##k̭əle
##túta
drananè
ʾínasà
bədmàxəla
ʾajj
##mlə́
lḗnva
ʾàtə
cə̀lya
ptáxula
k̭ùč̭č̭əl
Supùrǧanˈ
mask̭ù
širə́nnəx
púləṱlun
##šəla
tù
xàmr
k̭úč̭č̭a
##xva
mxàyəna
čàm
šəmyḕt
havā̀r
parpəss
ʾaxlíva
bəšk̭àlələ
muyyéli
Xanì
Nə́n
##povaˈ
myày
xayyúta
rástə
mə́n
rappìlun
##ə̀dva
mə́ṱyəva
parsúpə
àrtist
##úvvə
zabnə̀ttun
dəžmə̀nni
Pèr
muk̭rəmm
táyan
ʾàvunˈ
ʾə́rbə
jùllaˈ
muk̭rəmmèvaˈ
mattánnux
buxarìyyə
k̭álta
biyyéˈ
dát
ṱ
k̭átmə́ndi
bədvák̭ola
nə̀zla
k̭ə̀ṱləla
manáy
xdirḕl
ʾàləz
ʾavahàtanˈ
mattúyona
gúčux
##təvət
plàṱə
##dmə
xabùšaˈ
pùllu
##zmánə
##ùllə
mṱá
šak̭
caláma
ʾák̭lo
ʾumránə
lelavày
ʾarp̂à
hə̀l
ptàxtuˈ
tánə
ʾarab
##párət
odàxle
tuxm
##̀
##vat
ʾabà
bàk̭əlˈ
dvə́k̭la
jvà
vàdəx
k̭em
jùmyəna
mabrùzux
č̭àpləla
##dli
xabúša
dḕv
ʾavívale
mənnə
##šíyyət
hammúnə
dak̭ìk̭əˈ
cə̀slola
tìle
saʾ
jī̀lˈ
tamm
p̂ṱ
báxtət
zàyəˈ
šabáy
yàmtaˈ
##ṱox
lvìšələˈ
šak̭lìlaˈ
Zumállan
váduxva
pràk̭ələ
ʾótaǧ
##ə̀lluxˈ
jván
ʾə̀x
##məx
ʾIlìyyəva
xamìva
sòləna
marxùṱəˈ
##dənnànnux
pulṱḗn
k̭yàmtuˈ
od
bəxzàyəlˈ
júlla
k̭ašyàvaˈ
ʾavərni
vìlaˈ
raxmà
##làp
hí
áh
bək̭ráyəna
cilóyəl
##ə̀ttəˈ
##ópə
##ələ
brátiˈ
čòlaˈ
čóban
ʾìtən
ʾə̀k̭
ʾámbar
xùvvaˈ
##planˈ
##tanˈ
simàxur
bədd
xamìla
vádəxˈ
taǧàrət
mayyáxva
bəsláyəva
márran
ʾodì
bnùni
##mun
nobànə
##k̭oˈ
##yatt
bavátət
janàvarˈ
bəšvak̭ḗtvaˈ
##dyuˈ
xmíra
Sùlduz
gíbət
##yáto
garpívala
sávət
gíbətˈ
##mu
barùyza
tí
avívaləsə́tva
ʾə̀tvalanˈ
k̭əssáttət
danamargan
cut
jyàrtaˈ
##lifò
čamču
ʾálluʾùpraˈ
muryə̀sləˈ
xartè
xáyyax
yavèla
##luṱ
k̭ési
ʾùrzə
##trə
##gúlə
xə̀zyənˈ
##ča
didàri
k̭álə
və̀rtəvaˈ
##ə̀llaˈ
Raši
zə̀n
xz
ʾəhtəyɑ̄̀jˈ
náplən
bərràšəla
ʾaxùnuˈ
spàyəla
yavélə
čimánə
čučàgə
ʾərb
##yyuxˈ
purziyyèləˈ
k̭ə́
yáṱṱət
##piˈ
carməxx
mcə̀staˈ
pə́lle
matvàtəˈ
##bərrànəˈ
ruppálə
masyupḕxˈ
atìva
lèna
mabyənnáni
mc
##vələ
šaxlùpolaˈ
bək̭ráyova
màyuna
ductət
lavàšəˈ
báro
mák̭k̭ə
xúbˈ
##ə̀šlun
ʾùrmi
##ùnə
xurava
##yàmmoˈ
šap̂ə̀rtaˈ
Nasràdənˈ
Ròme
švàvə
k̭àlat
prìmə
càrpəč
šamáša
šə̀mša
bitáyələˈ
mačə̀xlun
zǧàttətˈ
šullúxtət
##pta
##lìyyəˈ
basmàna
bak̭bak̭bà
##dan
bašáltət
cíci
màrru
bərràk̭ələˈ
sàyna
k̭ə́slə
nàk̭k̭aš
gúrə
ʾaccarùta
k̭èsa
muxrə́
palə̀ṱ
xácma
máyya
##ddar
##yədd
ṱárpə
ódət
##cmət
bixàləna
##ùyəlˈ
panjára
mə́ndiˈ
##ə̀d
yə̀mmax
saccun
vəd
mə̀rrunˈ
və̀d
K̭arajàlu
yə̀mmət
##sat
násyat
malə̀
bàˈ
mácrə
##əd
ʾəllàyə
cèna
bəxzàyəla
gušə̀k̭ləˈ
jé
##lúylo
k̭aṱunyày
ràhat
Zàyyaˈ
sáma
ʾodà
máttila
macrúzələˈ
zabun
gùbbuc
##tə̀
mìtəna
ganàn
màrya
##bbaˈ
sub
##xx
ʾàvədˈ
##ìmə
pə́llə
##úyə
basə̀rni
ʾabúy
xátxa
##vəštèla
##žèˈ
bràtiˈ
k̭ə́ssu
bsə̀rrə
non
sápar
ʾak̭ə̀šva
ṱuyàtə
##díyyə
dàvun
tanáxvala
baʾúta
tanə̀nnux
bəšk̭àlənaˈ
bərrə́šša
ʾàtxə
búda
sèpu
nimána
pā̀š
tórbət
payyàna
pḗ
p̂àlši
díyya
yàvvi
##ujèləˈ
màlcələˈ
purk̭é
bšàlələ
bašlə̀n
bašlíva
lablìlun
Yə̀p
##zinnè
nazz
lulecašì
bašlílunˈ
##p̂ru
bə̀ššələ
##ráči
##y
##lmət
npə́ltəla
##han
##šəllun
žə
bixál
##po
##cinaˈ
burrə̀nnə
maxzílə
ʾaxúni
buxa
zā̀d
k̭ámaya
garšə̀nna
labúlolə
xázza
bàsəm
plə́ṱle
tóp
bərrə̀xšələ
damxàxən
##k̭è
calbanànu
dúcti
dàmxənˈ
je
cə̀t
ùydalə
k̭əṱma
mújj
tanùya
##mī̀n
ʾAprə
xilə
communì
zru
màlla
##ə́rtəla
##̆
malyùzə
asríva
ʾallè
zabníva
gáno
mattuvvèlaˈ
šlə́glə
dáva
##tiyyàxvala
čú
mə́xta
vita
xə̀rba
np
##dya
##ule
rappùyulə
mánə
xvà
èmpire
ʾóy
nak̭k̭aš
ʾátənhónux
##ola
##loxˈ
ʾarəm
ṱašúyol
sòtəla
##səla
##taxmán
k̭aravà
##nnan
##land
rə̀x
ʾàr
ʾàdiˈ
##ylè
ʾaxùnaˈ
davə̀lta
ʾamricàyə
čurm
šálə
##rìyyə
##ə́ltəla
turšìyyə
zrílux
pə̀šlun
##yyàxvalaˈ
ʾaširáttət
pə̀r
dvik̭évən
bitàyəlˈ
vàyəla
šàtax
##bùyta
ʾuraváy
##mè
šaddə̀nnat
pá
##nā̀n
zənj
šk̭ə́lla
ʾárak̭
dok̭ánət
bòcaˈ
##cəla
c̭ə̀č̭č̭ə
gabàxvaˈ
bəlyà
məlyə́
šak̭ə̀llun
##ə̀ntəla
amsət
nára
##àzə
ʾár
marrúvvə
ʾuldiyyə̀nna
parmìlaˈ
sàtı
lábəl
rišáya
bədyàrəva
##aryátə
čučàga
xavəryàto
##náyta
rè
ʾə́tvāl
bək̭yàməna
k̭ṱəltḕt
švík̭a
##vèva
ṱmìrələ
##ə̀ltət
odàn
štè
št
xmar
ʾatravày
bátə
hayyərrívalun
marrùšələˈ
Nə́nvə
bsìma
və́rra
vítəvan
vàdəla
##rən
##si
##yəz
garvùsəna
bəxk̭àroləˈ
##vìva
balbùvvulaˈ
xak̭óvvun
maryù
##ǘ
mə̀s
ṱurànəˈ
k̭ə̀ntəla
šak̭lì
šalə̀k̭va
də́mmət
bəšk̭àlolaˈ
mumrìto
yàlu
k̭aràvaš
##lp
##nc
ʾəšta
k̭ṱílə
zna
naṱrívalə
##duna
ʾàmmanˈ
àtaxˈ
##vərr
k̭òxa
hallə
pallacànəˈ
##ulbìla
k̭ùrbaˈ
míyyaˈ
mán
píša
săbád
k̭ulita
bsì
lèva
##dìvalə
xərṱmànə
túrcət
tálma
##mù
ʾóra
pràx
ʾə́ltəx
##zuləˈ
##k̭ələ
##sahatˈ
mudməxxálə
ʾə̀
##áyələ
xamsàr
šàmmi
názuc
bəryáxəla
ríša
k̭áˈ
bəšk̭álət
tílan
##ətˈ
ʾafš
ask̭ìva
##vátu
bašul
##mələˈ
yáma
gàvər
ʾə́rbi
tàxta
máyəva
mattúvvələ
xank̭ī̀l
yamàtə
ʾavə́dva
##xəvaˈ
ʾə̀sri
bl
matvátəˈ
tyáva
bərxàṱa
jammə́nva
báh
vìdələ
harhùmə
məxyánnə
mavùrolə
pašk̭ə́nnə
ʾadìyyaˈ
muttúyolə
mub
bədráyələ
šavvá
hə́nnət
gàmi
brité
lípəva
tàmməva
gə́llə
##m
mattívaˈ
šarùyələ
lablax
buk̭ét
nèr
bəlvàšulə
pràmo
švá
Màhəˈ
##də́štət
taptəpp
ʾə́mmo
màlcələ
##ṱuxˈ
##yé
ʾàrp̂unte
sə́dlə
ṱašyát
xlàpux
##ə́lloxun
də̀mmi
xár
dùca
npúlun
##əlli
##ə̀mlunˈ
šak̭íyya
ṱup̂p̂
bəšk̭áləl
tammòhaˈ
ʾínaná
ʾəllàya
cósa
##él
bəxzayèla
k̭arávul
##sus
##tā̀
##búyta
munšiyyèna
gərd
cullanaʾī̀tˈ
taxànaˈ
k̭ənyànu
ṱarpíva
tɑn
nafàrux
##ču
##ptaˈ
hošarùytaˈ
ríšət
gorànnux
##or
xə́ltula
jáy
bətyávəla
bəṱ
##áttunˈ
šutt
##k̭u
##zəla
čučà
palgèna
k̭əṱyəva
lə̀bb
##mmu
tanap
gòrən
bíle
má
sapə̀tvalə
mə́rrə
šók̭ən
bərrá
bixáləla
##rri
##èva
##ə́rtəva
tak̭tə̀k̭k̭axˈ
sắvi
màlcəla
gnivàle
k̭arkə́ptət
yàṱṱət
##ša
péšan
mə́rrax
dùs
bətyàva
##púla
ʾìyyulˈ
ʾàmbar
##unte
k̭utì
p̂alk̭ó
šap̂ə́r
palə̀ṱva
xəzmā̀n
tàr
xèlux
váyulə
šak̭ítət
məslə
cár
tanˈ
taxmúnə
bətvàtətˈ
dòk̭ən
rədyálə
hò
sū̀r
ʾáni
plù
npə̀llun
marəlà
sápən
xə́zyəl
k̭abúluna
ʾàjjəz
mattúyəna
baǧvà
##mux
šaxìnəva
rṑzˈ
maxlú
xayyùyta
áməsva
##ràlləǧ
lešìva
##və̀rvaˈ
šak̭lə̀t
navə̀ggə
##k̭às
xamìvaləˈ
##uvvo
ʾàryə
bixàlələ
smù
xarbùs
musk̭álə
várənˈ
làx
čayxàna
ʾùr
càsəbˈ
Lós
k̭usaryàtəˈ
##ážəˈ
yàsək̭
k̭dàluˈ
yavvíla
manáya
bùsləˈ
lína
xṱ
##yàlun
xállu
##mtət
##nsa
bəddàyəla
ʾálbal
taxána
z
bə́ššəl
xayyèˈ
púmmət
maxíləˈ
k̭àmxa
##̄̀dˈ
pàrəˈ
zā̀dvaˈ
tapk̭ìtun
##xula
xàrdə
ʾidé
bədda
ʾotáǧ
##áxxə
mràyəlaˈ
plìṱəna
##laǧˈ
məlyə́va
bák̭rax
bàraˈ
honàna
plà
##k̭ə́nnun
làzəm
##sə́tva
bòci
dak̭ík̭a
##áfər
tlí
bəšvàk̭əna
mattuvvèna
lə̀tlə
##tá
bùsraˈ
sád
##àlta
##rə́s
##k̭əl
glùləva
pərdèsaˈ
ʾurxèˈ
ʾàrxə
ʾad
cusìbəˈ
mùyyələˈ
narahát
ivət
xàn
jarə̀bla
bəclàyələˈ
cə̀rvəšˈ
taxmə́nnini
šàtya
páyəš
rə́k̭k̭a
k̭iràla
tamə̀rrə
ṱə́l
ʾə́štu
pavánət
mằdən
yávvi
yàrxa
ʾaldùyit
sáva
várəna
##ík̭əna
##ü
##safˈ
ʾurxà
ʾatur
ʾámrə
##csəva
gúdət
##tùy
xank̭áx
##dra
##yuvaxˈ
##rnia
hàva
zapra
màrələˈ
bíyyanˈ
Tùrcíyyaˈ
##ḗt
ʾoríva
hàdaˈ
xinə
sparˈ
##naxˈ
taməzz
jammìvalaˈ
mugg
č
##əssáli
##rù
##ə̀ssuˈ
##úyša
yá
barrà
mattúyəl
mattìvaˈ
ʾə́tlax
##drə
xàlli
axlìvalun
yúrxu
,.
ʾázənrigàyta
k̭átoˈ
č̭arč̭úrəna
yə́mmax
bənxà
##̄́š
vətté
hə́nnamalə̀
sámə
tóra
ʾángət
ptə̀xləˈ
múmcun
bábiˈ
maxlùpo
bašulèla
##lyò
gáru
lablívaˈ
##yyət
##lun
ʾùydaləˈ
pàyəšva
k̭àtaxˈ
ptàxunaˈ
harì
k̭amàyˈ
mattùyəxˈ
k̭atóxun
txə̀rra
muxziyy
##àyəla
##sèˈ
dəžmə̀nnan
bəštáyaˈ
də̀mmilaˈ
##htə
taxnìvalu
máyyə
primàlə
dùyša
##nax
##láma
šúlac
##ìvaˈ
màxən
bəcláyəla
Tèran
ʾidoˈ
dìyyuxˈ
##msət
màx
palṱáxvala
##šəvən
č̭arč̭ə́rri
##xə̀rri
bulm
nè
azàva
lablìvalun
Haccàrəˈ
pešàvaˈ
xmàra
bəštàyəna
šax
Mahá
màmuˈ
vazzíru
##dìšu
gárdət
šmìli
šidàna
##màlla
##uˈ
mùyra
bədràša
bəxlàsəx
##ə́ggət
jàjiˈ
xmìsaˈ
##àtən
mə́jjət
hā̀l
k̭əryènaˈ
yemìšəˈ
bədráyuna
ṱé
##ín
gànilə
##loˈ
##xə̀
mə̀rrəˈ
bəxdàra
k̭ràmtaˈ
prəsbətràyəˈ
bə̀ššə
##ə̀
k̭aṱə̀lluxˈ
k̭oluníyyət
mak̭ṱú
bək̭ráy
ʾIrā́
dok̭
doràna
Šácar
tánənˈ
č̭ə̀rra
bitàyənaˈ
ctàna
##mməna
ʾavə́tva
;
Cərmā̀nšāh
K
k̭àttəǧ
##naˈ
baʾutóxun
xšə̀vli
ʾànnə
sàvəvaˈ
vàzzərˈ
##yotunˈ
mab
xaṱùra
nóbət
maxpívala
##onvaˈ
##otˈ
dáyk̭ə
k̭aṱùnti
tarrèniva
mdítət
##àtlə
bašùlu
lablə́nvala
xmàri
jarbíva
bərrə̀šxəla
bəyyavéˈ
məndiyyé
ʾə̀šta
ʾázad
ʾàtrələ
caríxu
##ámma
k̭ámxa
##nayé
pəlxànəva
ṱarúsox
məššəlmanúta
jmìleˈ
mak̭rə
plàṱaˈ
mak̭rəṱṱìvalun
xínaˈ
bayyìla
##óna
sə́lyəleʾo
burbə́z
##zza
čámča
jur
zdi
gàrmuˈ
láp
##valeˈ
vìtəla
cardíyyə
bəgvárələˈ
máyyi
ʾàlˈ
barràntaˈ
šúlux
##mtaˈ
xə́
parmə́nna
xmàruˈ
k̭aravášu
šàvyəˈ
və̀rrux
nipùxtaˈ
##áxxa
gắ
ʾək̭bà
k̭áṱlənˈ
pàrə
làxxəvaˈ
šaxì
púm
malcavàyˈ
byàyuxˈ
tìlaˈ
##zèləˈ
ʾál
##ləpp
nixún
ṱumə̀
ʾə́tle
sàʾat
##àxle
garù
šúlaˈ
jammìlə
ctívolə
##íṱə
č̭
badəmj
ʾánaˈ
##nəstì
hú
palṱàxva
gašù
máyyən
ʾə́tlun
xolɑ̄sèˈ
bə̀xya
##plaˈ
##ləc
garə
sàməla
nāšˈ
šàdər
##mula
Fáysal
də́žmən
##sələ
bədvàk̭loləˈ
k̭us
xa
k̭àmayəˈ
pav
muyyìle
susavàtə
##k̭é
yùvv
##ə̀šlə
##àxə
k̭att
tòləˈ
##ára
prə̀xla
gàva
##sì
xambáša
xàtiˈ
k̭árə
dùnyəˈ
lublàlun
xùmyu
##ə̀nva
yumə
pulṱàle
ət
##ləz
pálxa
cus
##yèlə
vádən
lavàšə
ginàvəna
##dran
gòro
bašùləla
mamm
spayùtəla
cálbə
k̭usartət
nàšo
ʾArmanəs
k̭ṱìlunaˈ
##ə̀k̭lə
xmàrtaˈ
yàmaˈ
mṱàyəna
k̭aríra
##úbra
ʾúllulgandərríva
bək̭ṱálolə
##ìlunˈ
##llə̀
dárəc
##èsaˈ
šə̀xtaˈ
mixùl
##pəč
p̂là
ganèˈ
k̭oš
tanáxla
tavə̀rtaˈ
pašk̭ə̀nna
##úyəx
ʾàdaˈ
ganàyˈ
dók̭i
bərrə́xšəva
bəsyarènaˈ
basìməˈ
mattúyələ
##íni
##ṱya
bašulèlə
bəšvák̭o
àza
bəxnak̭
##vàr
tə́vlun
dmàxəl
k̭ámta
##mə́n
xí
nùyṱa
yuvvə̀llunˈ
ʾajjù
##ydan
xàmšaˈ
cóso
##xəl
parə̀mlə
##bálunˈ
xdàrto
ʾə́mnət
ʾámsax
xamə́nnun
vúrun
xazz
xrì
bərrə̀ššən
gúˈ
mírəvaˈ
brī́t
##ílax
##yamˈ
vár
pállə
bàbivət
##tà
##àle
hùk̭yona
##lcət
mṱáyaˈ
ptáxola
zar
##pəl
tanùvvən
cúndə
pyàyən
xórə
lēt
manayé
marəs
sak̭làva
xúvvaˈ
ó
zùyzəˈsun
bədray
ʾaxunv
ʾánnə
manz
##ə́xxət
mattùyuva
tabàk̭əˈ
ʾálmət
zódəla
ʾə́rbu
bə̀z
bəšk̭álə
lablə̀nna
bəxzayèna
sxìlə
##junˈ
yúvvəx
calítun
ham
mayyívalaˈ
láblət
ʾamm
##úymə
masáləva
yálə
mémunlə
Spùrǧānˈ
yə́mmo
##tye
ʾaxunvátux
##úyul
bixálola
##làma
##bùvvəna
bətpák̭ələ
xoṱì
və́dleˈ
maclúyuva
##xən
##noˈ
dánət
##.
xayyutè
məššinèrə
šk̭ə̀llə
ʾiranàyə
##sənˈ
pur
uréməs
savə́lta
##danˈ
bəšk̭álo
məndyànə
ṱuyrànəˈ
ʾùrmiyya
šəmmané
láxmət
meyàtə
##lálə
məl
##ràtˈ
yánə̀ˈ
xarìṱəˈ
##čet
tìvələˈ
##áno
##lánə
tìlə
sàdruˈ
bək̭ràmutva
xə̀lṱa
ràməvaˈ
##raté
marzanánə
gušš
marɑsə́m
##valə
dí
bətyàvəna
cusítu
pálg
racàvə
šə̀bbət
ʾavahàtiˈ
surúytu
pràxulaˈ
p̂aṱùxə
##yyədˈ
##yyən
##nàyəˈ
##bli
və̀rrəˈ
avívaləˈ
šammáva
ʾahàˈ
##zə
ʾə̀ltəxˈ
##ànta
##élə
##ja
čallə̀ššax
##raˈ
k̭ə̀ttaˈ
salù
ʾávətva
hamzə̀
##k̭əva
bəšk̭ál
k̭ù
pešíva
##áyəvən
gabúvvox
paxàlta
##im
məndíyyu
palacànəna
ávət
##ìght
pšára
zábnən
mə̀rya
sə̀prəˈ
##íyyu
širə̀nnə
grə́šlə
ʾə̀xrə
muyyóna
ʾatyava
ʾodənnəˈ
baxtáyət
cusìbə
šadùruləˈ
gə́l
lablíla
tavər
bsìra
prə̀k̭lux
xáz
xùrrac
málla
bəšxá
ṱáša
zaǧdìvalə
hári
##ə̀nnəna
##nuləˈ
Sùl
basímə
šì
##írənaˈ
yúvvan
bérāš
tánilə
##yba
##šə́
k̭ə́šta
##bay
bəšk̭áləva
vìtəlaˈ
vad
àtyaˈ
dínar
ṱúra
ṱuyrànənaˈ
##pova
ṱumə̀rtaˈ
mattúvvəna
də̀mma
##àxləˈ
dàxila
ʾazáva
nəs
sùriˈ
bəsyárəva
taxmú
gášk̭i
txə̀
sìma
cè
##ánət
cəndùrə
ʾàǧay
gurvə̀slaˈ
gvìrə
byàyələ
##uləˈ
šuríta
##víva
##vR
ṱarùsoxva
Has
muyyàl
p̂ə́rda
##ə́vlə
šə́
pálgə
##úk̭
pašúṱ
k̭èmət
nanùntaˈ
dānət
##vaṱ
k̭ə́mlə
pyáyəva
ʾatì
##lúxtət
jvìja
ʾàrxa
sìyyə
##nux
##nk̭a
yátvən
gì
##ere
dànaˈ
ʾavahàti
ràpp
xàdaxˈ
duccána
ʾə̀rbə
##bbu
yávolə
bàlcətˈ
tíra
Palàsarˈ
mummə
ʾallèˈ
bətyàvəla
k̭aráxlunˈ
mumlə́
bèto
k̭ṱilələ
##ə̀nnunˈ
ṱalàt
niš
p̂uč̭p̂əč̭lə
parpùsu
hè
mùjja
dəryéla
clílə
##vaté
marrìlun
pravaslàvniˈ
##ṱùn
##gab
bušayuté
mák̭ta
##àxən
mammə́ddə
k̭aràvatˈ
##yàt
myàtəna
ṱamr
Bàǧdad
ʾázax
čamčumèləˈ
huk̭
ṱuyránə
##úləˈ
##vìtye
##mmə́ddə
Té
lə́tvalan
##Rpḕ
tmànyaˈ
čṓl
varazánə
jvánk̭a
xamšì
xə̀
bədràyələ
##utunˈ
##tət
šà
ṱúšyo
yaṱṱə́nnə
ʾaxlìva
šə́mmuˈ
xelántəla
šmi
cpínət
mayyávala
vàdənˈ
k̭arṱòpəˈ
bìyy
bnàto
##yəle
hacc
racíxa
##ox
k̭aràxlun
##mp
nošè
##átlə
gàvoˈ
xlápuxˈ
viyyála
lublèlə
ṱùp̂
##tèni
##lana
átə
dra
maxívalə
ʾivan
bétət
bəxzàyuləˈ
##xvagù
##ã
##nci
bušə̀llə
k̭ur
savúyni
darátu
ʾata
yásk̭ət
##ṱa
xambá
dū́z
báxtuˈ
màllaˈ
váy
bəddáyəle
##ə́lləl
šk̭ílu
k̭arzínk̭a
##ning
zuyzə
dávə
təflìtoˈ
vìyya
##ləna
xìmun
##šṱà
máttimul
##litun
##àxxa
##damta
pári
xamàxvalə
##ìti
k̭alpé
mačxáva
ʾámb
##àxvala
ʾuravày
masúk̭əna
tlúvvə
šalù
k̭usarta
k̭àlilunˈ
baʾ
##zbù
Hayə̀stan
sèˈ
bšàləla
prə̀k̭lun
hé
mxáyonvaˈ
susyáto
víləˈ
Xanìšanˈ
uˈ
ʾadàt
ʾát
ʾavíva
hám
dávla
ã
##ə
hálˈ
palə̀ṱlaˈ
ʾə́n
vàrəva
dva
xàmša
šatax
trə̀mma
métramən
##rələˈ
##ə̀llə
šàra
nùslə
##dúyələ
ṱarsívalun
tu
spartìv
vàrəna
##ytèni
xzí
gùyda
ṱúrsəva
zonáva
cə́lyən
vùdlunˈ
parpəssə̀nnun
hamzùməˈ
ṱársiva
slàba
ʾínaˈ
k̭utíyyət
##mì
və́dle
pravaslàv
súysa
##pax
##šàle
##k̭ané
##yəlˈ
šok̭áxvala
##daxˈ
##liva
xavəryà
hak̭ílun
šuríla
pallúyəla
jòja
Rús
##ə́tta
bədrà
gábúyələ
ʾavə
xílun
dmíxəna
ʾəllàyaˈ
pa
k̭ə́ṱma
mak̭rù
##mṱax
##ggə
mačx
bérašə
bambùčo
##əb
gašùk̭əlaˈ
šatìlunˈ
##sova
bəšk̭àləxˈ
k̭èṱa
##ǧa
map̂rəmm
dàvvələ
mxì
xáyya
ʾaturáyəˈ
bədráyət
bənpála
##àxvaˈ
k̭dalóxun
ùydaləˈ
sápət
bəšlàk̭əlaˈ
dok̭ə̀tva
mlày
##làyəˈ
sə
garvə̀ssa
##cašì
šárya
##uxč̭
plə̀ṱlaˈ
č̭àla
maṱìlux
ṱarúsəna
bəcràbələ
cə́trə
ráppi
bərrə́šxa
palgè
##mat
##staˈ
péšiva
##nanùnti
clìləˈ
##ə́nvaˈ
maxlèta
park̭
##arò
k̭unjìta
vàdətˈ
masála
odìvalə
nàǧəlˈ
hòˈ
##ítət
zəhə́
##lū̀c
ctànaˈ
k̭abúlona
##rrəna
máč
yat
xamàxxə
##átta
bàšli
##pá
xazdìvalun
##xšá
##míyyə
mak̭yùmu
##ə́k̭le
šuršìyyəvaˈ
##àp̂a
ʾúrzə
ʾaxlitun
##lunlə
tíyyətun
##štət
##vəlaˈ
odàxlə
pardúvvə
prò
xak̭uvvo
gašk̭ə́tva
híˈ
jàrəb
Rp̂atvā̀l
cə̀slu
cùndə
##drà
##təxˈ
č̭ə̀rranˈ
zár
##sun
##da
ʾOlìṱa
jī́l
mə́nxá
pláṱəla
##àmaˈ
p̂lìṱaˈ
maplú
bərrràk̭ələ
##mā̀n
càmcə
##tt
pròtiv
ʾaccàraˈ
mamṱìvalə
k̭ənyánə
##tóxun
buk̭ə̀rrux
##̄m
##nàˈ
váyaˈ
##làk̭əl
sə́rrux
dašdùšolə
k̭àmta
k̭ùnyələ
ríšux
bərrə̀ššənˈ
tammùzux
dàvvə
##av
šəmyə
##dɑ̄̀d
k̭at
vù
nàsus
lablə̀nnə
k̭arbù
muttè
ṱamrìvaˈ
xàltuˈ
ʾak̭lu
##ang
ṱálbən
dar
šak̭lìlə
léna
šùk̭li
mutté
šak̭lìtunlə
šìraˈ
##ə́ltən
##yaté
ʾaxunvàtu
##čyá
júm
bəxzayéla
hotèlˈ
p̂urmíyyələ
ruppìli
##ə̀llələ
xavəryàti
ʾalaha
mxáyəna
̀
##ɑ̄́n
mattúvvə
ṱášax
sumúr
vən
pə̀šləˈ
tazìyyə
xàpra
vayéləˈ
pàlṱun
##čaˈ
##ʾù
guránə
záyu
ʾə̀rbux
##šùrəlˈ
k̭ablìtunliˈ
yàxsər
p̂ə̀rda
bíʾə́t
##áni
bərrə̀šxələˈ
##và
baʾútan
rappùvvola
šàdrun
mak̭rəṱṱān
bùk̭
ʾàlmasˈ
##ùr
ṱìnəlˈ
##tùyta
vazyatté
lípəl
##ə̀nvala
k̭ámtəva
znà
##ˈbúš
gušə̀k̭lunˈ
márəx
conser
bərrə̀x
ʾazax
k̭am
##rəx
##dəva
nìnəva
tìləˈ
##ílə
xiyáli
tàzaˈ
tìleˈ
##lùk̭ta
mačuxètˈ
mavúrova
zàyə
nṱù
hayyə̀rr
šap̂ə̀rtət
bəddáyəxva
xə̀zyət
##àna
bìyyu
hrə́
##yè
ʾòdət
ʾā́nta
ʾàtˈ
ʾàtyanˈ
yúvva
##nəvaˈ
ṱe
ʾéni
bəlvà
p̂lāš
víyyə
ʾàti
k̭ák̭
##k̭uš
betanánə
mabbùvvət
ʾatəˈ
bəlyàzən
##]
bəṱlàbələ
ràbəna
cə̀lyələ
lúbla
k̭ṱíla
bitáyəlaˈ
brì
hə̀nnaˈ
##uyèva
plə́ṱlun
davə̀l
maccùs
ʾàšur
parùk̭
viyyélə
ʾamsət
Bak̭úba
bərdáxa
ʾalàhaˈ
cpínətun
durbínə
márət
xažbə̀nnunˈ
lə́tlux
yavvə́nnəˈ
ptàxutˈ
ʾə́k̭ro
vaˈ
píli
##zz
šok̭
##təhɑ̄̀n
bábaˈ
##báči
raxmàntaˈ
k̭ṱìtəla
##k̭rux
rə̀dxuˈ
maptùy
dmàx
##úyəva
hadaryátə
##dalə
tapìlə
táhar
ʾə́r
náp
##àlla
dìyyiˈ
lə́bbo
píšəl
ʾè
mašínət
sù
yád
ʾidátu
mattuy
##ùrraˈ
yáylaǧ
mumlə́xta
mùdivat
čullùxta
nə̀k̭vaˈ
màyolə
savùna
bəxpák̭əna
##rī̀
mixùltaˈ
huk̭yéna
##màla
tunìli
##raǧa
brátə
##áta
##ə́k̭k̭a
zàrra
##zan
lablàxva
ʾətválə
##lḗl
darzìyyə
nàjj
cərṱòpə
sav
bəxzàyulə
sammá
paṱì
tásma
ʾəmmá
yànə
yuməˈ
tpək̭lux
##làcanˈ
daríval
ba
mantùyələ
##età
##rəvaxˈ
ʾìdux
zádu
mə̀t
##̄s
Gúrjəs
##ə́m
bràtoˈ
ʾánja
##àdxan
biyy
dū́n
táblo
ǧa
hak̭yàttəvaˈ
##mànə
ptìxəˈ
čédi
jə̀m
park̭ə́tta
bədráy
##lálan
parmə̀nnax
##br
##rba
jamm
dùcto
və́dlun
muttéla
k̭urbábət
salùyələ
buk̭ə̀lta
byàyəva
hadrìlə
##sto
əč̭č̭àmmoˈ
tapyàn
tmanəssàr
mč
čun
##bla
bàtma
xúb
xìšə
bàk̭ri
bábo
šaryàlun
D
##ráttət
ʾàxūnˈ
lùblonaˈ
xe
##čà
purk̭ḕt
ʾək̭bàloˈ
bábax
íca
ráppət
həč
suràyə
mummərràlunˈ
šárə
gə̀x
batvat
janjū́r
Má
##vàrə
dok̭àxvalun
##yox
yon
viyy
jə́n
yurupnáyə
##bva
nš
bədráyəva
muttèləˈ
šurìlunˈ
súysət
Réza
ʾəl
pasul
šuršìyyən
##árux
šak̭lə́t
əč̭č̭
##ìvaləˈ
dəcc
gərdáyə
sə̀traˈ
ʾémargan
tanúy
tanyànaˈ
tàx
hrə̀mmuˈ
hùk̭
xavər
parə̀ttə
##ày
##yàpa
húš
šèna
yáni
xàč̭č̭əvaˈ
##nya
rápsa
máx
malàpə
##cˈ
##k̭ola
túyman
##ántaˈ
##rət
##šan
Máhe
##mmoˈ
yán
àtəˈ
odílə
zoníva
dàvəla
tanə́tli
ctayáy
p̂aṱù
maxsusán
k̭anū́n
##ùrolə
bəšk̭áləna
pə́r
p̂ós
barxəšš
àngelesˈ
bətxàrən
yavvála
yavvə́lla
hammananu
##ṱol
##ə́nta
ʾazə̀nˈ
mačxət
ʾə̀ngliz
dìyyu
ʾànti
##dāl
və́ttu
p̂rik̭às
bitáyəna
muyy
duccanánət
##ə̀ntələ
##ə̀nnaˈ
##làlu
byàyoləˈ
duccanànə
dàvəˈ
##siaˈ
goràlə
harísa
##èvaˈ
dánašàrxa
oyàvaˈ
vídələ
##àyəna
záǧa
pə́lla
xak̭úvvələ
k̭uraváyə
maccùsunaˈ
cìsuˈ
Yúʾav
##náya
yā́rvaˈ
ǜ
##myə
ʾaxlə̀n
yas
yàvo
sak̭
ṱrà
ʾavi
##bùs
ʾilána
ʾák̭lan
č̭ar
bəsnayḕ
##yát
garpìvaləˈ
mašì
máyət
xallə̀nnan
zak̭
Šā́h
##mmàna
bək̭yàməlaˈ
ʾodánna
ʾə̀rbəˈ
malyəz
šk̭íləva
ázəlˈ
##ə́rri
šak̭ə́lvalun
tívəl
cə́rvəš
##pè
##bˈ
ʾidátə
ʾalulánə
pitélaˈ
garšívalun
janàva
xyùṱaˈ
##roˈ
xòləˈ
hamzúməvax
bètuˈ
bəxzáyula
zamr
šàdərrun
šok̭i
##ə́k̭li
bəṱlábələ
##mra
bək̭ramèlə
šmíli
palùṱuvaˈ
bətxàronˈ
d
xlùylaˈ
k̭dàlət
váduva
bəxrazḗx
màta
pe
məsyáy
ʾajibúyta
xólu
ʾojáxta
šk̭ùlunlə
k̭ùnya
nav
savùniˈ
bəxdáyəna
xərxə̀rri
B
šk̭i
##xə
bàlcət
##yàdəˈ
gúyda
davan
##zəlˈ
ʾàxči
vímun
##mši
xəzmané
##bəzz
nazzìru
mučə́xta
bədmàxətˈ
mašṱàxətˈ
ṱlàˈ
šxúmtu
tpə
mattə́nnun
gdìša
bəšmaṱèlə
tak̭ríban
dvə́k̭lə
zìda
xáltuˈ
márələˈ
sabəttúta
##bày
tívə
mxìla
xamàxla
mattúyulə
lvə̀štəla
bək̭yám
xàzzi
šap̂ə̀rtəva
k̭áto
yun
xàmta
mapləxxìvalˈ
ptàlə
##sya
danta
ʾùmra
##nəˈ
##znes
##pə̀lva
bál
##ššəl
pə́llun
bək̭ráyəla
Dahlùn
mabrəzzívalə
ctə̀vta
mšayḕxvaˈ
ʾO
cul
##ptu
ʾí
brə́zta
tak̭lə̀nna
##maz
ʾə́tlux
hásəl
ṱlàˈnā̀š
jùllo
maša
vàdət
yálələ
k̭olek̭tìvˈˈ
ràstəla
vìdunva
ʾázat
k̭é
##tànəˈ
##unlə
mardù
šak̭ə̀lla
bàbaxˈ
##nànə
jarbə̀nnə
##šaˈ
vúd
ʾAvrā̀
xòšo
mənn
deystvìtye
dúlə
cv
rángo
##kəˈ
yulpanè
##onaˈ
bətxàron
##šad
k̭aṱlàxva
##ə̀ˈ
##sùk̭
##ìtax
šarš
p̂làšaˈ
vádra
və́ttət
##òyə
!
##tā̀n
ṱam
sùysəˈ
hana
bərrrà
bík̭èsəˈ
bitáyələ
canúštət
zarrə́nnə
sóda
##bbət
xzìləˈ
gašùk̭əl
dax
ʾóda
maplù
p̂lì
crəsyànəvax
lə̀tlan
muràxxa
gàšk̭aˈ
líšān
xíyyə
mə̀sk̭alˈ
rapùvvula
##àxval
xáˈ
k̭yàda
yàr
bə́ššəla
sùysuxˈ
##ùnila
còmmunist
zarzíva
##ṱṱo
daryát
mənnòxunˈ
víla
byà
ʾabú
tìvəlˈ
##k̭ˈ
humzə̀mləˈ
##č̭lə
##áva
ʾə́dmo
k̭và
maxulèna
bəddàyət
bəšk̭áləvət
payy
bərrə́xšə
čàraz
txàra
màrj
vùr
ʾilàna
##ùyəla
bixà
ʾurx
##áha
mə̀ndivaˈ
bəṱràpu
šəmma
k̭ùrbəvaˈ
bəṱràpunaˈ
tànyaˈ
sí
##lítun
Mi
lə́tva
k̭ùčč
múyy
L
##ìnəvaˈ
ʾàk̭lu
tàsma
ʾal
ná
záb
palṱə̀ttəˈ
moràxxə
##tàna
ʾúy
dorànaˈ
nìsələ
màsəˈ
##ùlətˈ
ʾídan
dàrzə
àti
hudr
spetsyalìst
sabàxta
ʾúllul
zùyzəˈsunk̭ané
##àxxə
sandalìyyəˈ
by
gúʾàni
dánadú
##šàr
óri
bərdàxəlaˈ
dav
ʾarabànəˈ
bayyat
xší
xṱì
manáyu
xèlaˈ
cùt
fák̭at
ʾalk̭ólət
##èlaˈ
##vəl
yapàxvala
k̭arìvalunˈ
dóstə
bəddáyaˈ
burbə́zlun
masáxva
də́rrang
ʾajjùz
mə̀tlə
cəšmì
bètu
##munla
atyáva
və̀rra
xə́ṱṱə
ṱúrsəna
šaxlùpola
dagùlələˈ
masipána
He
##dəla
##pən
##syalìst
mə̀ryəvaˈ
ṱarùsuna
##ms
plə̀ṱ
və́dləˈ
byày
tapù
Dewándaˈ
hal
tapxìva
ṱalabúyta
nd
sə̀tra
##àxlux
cúnda
maxə́nnə
##évən
##ívala
ʾállu
bàyyət
k̭ənyànaˈ
xluylè
xapərvalà
badú
bədráyəla
maṱì
yùmuˈ
zvə̀nnaˈ
tuny
##zé
##vì
cárra
bràtəvaˈ
mə́rtət
Šāh
sxìləˈ
sár
dùc
mìsələ
dinar
juvvá
hayyərr
apɑ̄rtm
déxa
lḕtˈ
mərrəˈ
k̭àyraˈ
núy
palúṱəla
ʾur
sáb
čaràzəˈ
ávivaˈ
ʾuydàlə
gàrəˈ
ʾák̭lu
bəsyára
yasràxvala
bəptàxuləˈ
[
ʾù
k̭ìna
pìlənaˈ
àr
ʾə̀tvalaˈ
hàmmən
vaz
daríli
bəgnàvo
mənné
Xànəm
##pləla
zabnànnaˈ
vélə
dòlmaˈ
gargúšta
##̄̀n
k̭ə̀nnət
ʾàzax
p̂urmíli
hak̭
màyk̭a
##š
##àlu
k̭aṱṱìlə
mxèta
k̭arɑ̄r
šopè
do
pláṱələ
šk̭ílo
làblətˈ
bayyə́nva
##səp
tàləˈ
cə̀l
bətyávəl
##və̀lta
šúri
bərrəššəl
brúna
bixàluna
zìrələ
mṱ
č̭á
lípot
mattùvvonaˈ
ʾùrhey
##áyələˈ
xúvvə
vàrta
##ríva
crì
ʾámrət
hə́nna
náplənva
bərrə́šxəla
Mí
##lal
mattìtunləˈ
maṱṱ
vàrəla
dìyyinaˈ
##ánčət
béta
ʾára
##ə́rrən
##k̭áva
##lúvvan
basìma
ṱalbìlaˈ
ʾítət
##ə́k̭ta
##uuˈ
rì
ʾìranˈ
##cú
guydanànəˈ
ʾaxùnux
##xà
ʾodax
gúzar
##ə́blə
məndyànəˈ
mət
x
##lut
k̭àmči
##ánnəˈ
badə
##ùyunaˈ
xayyútu
bəšmà
##vàn
bitàyə
xrìvəˈ
badùša
tmànya
vətˈ
zàbbun
##bə́r
mə̀xyil
máyk̭ə
byáya
k̭uṱk̭əṱṱèlə
mus
ìcəl
Bar
turšíyyə
mə́rtəva
##er
##lìləˈ
##áda
bəlyàzənˈ
màk̭k̭ə
##rətva
avìvalun
k̭úxət
##bətràyəˈ
júr
##ívale
brìxaˈ
mayy
##msax
ʾùže
##l
buša
ʾína
ṱúsə
xádi
daryátlə
##pé
##vá
gamíyyi
gò
pyášənaˈ
doxt
xelànə
myasa
k̭arzínk̭i
##uvaˈ
ʾə̀ns
ʾàvvə
ʾúrxa
ʾə̀tˈ
pàlṱa
magrayày
rìtaˈ
métrəˈ
pàrək̭
xárdən
muttàlaˈ
rappáxvala
##ə̀vlaˈ
##k̭to
plìṱəl
sáy
##gləz
##vand
hòna
č̭uxč̭əxx
və́stèˈ
##nə̀nnunˈ
ʾàmtaˈ
k̭aravàšu
ptàxulə
##sarˈ
ʾátxahə̀nnəva
və́rrun
lə̀tli
bət
beté
##šca
də̀ltola
mité
bəxzáyəvat
##ǧvà
cúm
##ìvala
##niva
gəl
ʾícət
##lìvalunˈ
##̄́z
gašúk̭əle
mattùvvuləˈ
bušəl
##xayú
bətyàvələˈ
ʾìtənˈ
##̆bá
cúllə
tunítən
##par
xánəm
xèyli
šə́mya
ʾárxa
dantaˈ
k̭rà
bètaˈ
ʾIlìyyələ
##falt
bašlì
plə́ṱla
dmə̀xlə
yüzinnèn
ʾabù
nā̀sni
ʾàyna
ʾidàtuˈ
tàlga
yavévət
sùysə
mə́dr
buk̭ráči
tušnák̭an
##drux
savù
maxíla
##pi
xə́rba
čáš
##yu
##xíyyət
Bark̭araxā̀n
partùluva
mší
spayúta
##àrtaˈ
##tula
ʾaxn
##ə̀lni
muṱṱə́nnəva
Dewàn
ʾo
marrùvvə
xàyaˈ
šə́mmaˈ
##làsaˈ
múttən
##yú
ʾə́tliˈ
##rāš
##mam
ʾatnàbəlˈ
hayyúrəxva
##ṱla
bīl
##tətˈ
##k̭əz
##étət
bəcráxəna
sḗl
xumì
bə̀xyəna
k̭áša
##ə̀rrun
##má
##jal
##̄r
ctàva
váyəna
góra
pláṱa
##èy
yùvvulə
##ùsə
matvátəva
##o
ʾotáǧə
bəslàyəlaˈ
##líto
bərràk̭ələ
mùjjurraˈ
##etət
p̂urṱəccále
bàbamˈ
là
##ə́rrux
lablívala
k̭ùrbanˈ
tiyànəˈ
məššəlmánə
dm
##rèta
bəxd
labúluna
bədyàšoləˈ
##álən
bəlláyələˈ
gamìyyi
gằrəcˈ
jàjəcˈ
ctètaˈ
zampùrələ
xvára
bəddàyəlˈ
maclúyu
póxa
parpùsəl
bədlàpə
nàzuc
yarìxəˈ
màlcəva
mítan
##òxun
məndì
bəddáyətun
laxm
dəžmə́nnət
##lìtoˈ
lablì
gorátli
jòkeˈ
yavvə̀tlə
xə́zyəˈ
k̭áhà
ʾalbàttaˈ
màcrəzzunˈ
jullət
ʾánvə
xə̀ṱṱə
tàmməz
hàvusˈ
##sáya
dépulə́ṱla
##mən
ʾalbátta
tíyyələ
mlílə
motànə
bašúrə
bəlvàšəla
madrašyàtə
dètət
ʾòtaǧ
xə́šlə
ʾódat
gaššúk̭ələ
xilàle
liša
bəšvák̭una
k̭azánčə
p̂aṱùxəˈ
batvátət
šàk̭livaˈ
##̄́t
rappuvv
yə̀mmiˈ
vàyˈ
muxnək̭k̭
rappìlə
dəccanánə
ṱéra
##dəšš
##ùrtaˈ
##dyat
suráyə
rappeta
k̭àzəna
ʾAprəmˈ
masìvale
xmàrə
bək̭ṱàyulə
##ə̀r
rišóxun
pàrmax
Mù
xə́rra
šap̂ìra
xamívala
Téhrɑn
##yo
prə̀šta
táxtə
hak̭yàt
yapàxvaləˈ
ʾàna
znàčetˈ
##k̭əx
ʾə́štət
mayèlaˈ
magvərràxla
##vaǧˈ
ʾaxə̀llun
ʾaṱṱàžəˈ
##àyṱunˈ
màrələ
hàji
diyyòxun
ʾavčìyyəˈ
##pp
garvùsə
tpík̭əna
ı
bərrə
##bətˈ
ʾìran
grə̀dlaˈ
##k̭ələˈ
dùləˈ
##ulaˈ
cpə̀ntət
##ílun
šap̂ìrəvaˈ
##ə̀xlaˈ
píra
msèta
gəllàləˈ
mlìtəla
##ìtəva
badəm
ʾalpá
c̭ə̀č̭č̭
jìbu
k̭éməndyà
k̭úṱma
ʾàtra
mòto
šàllak̭
ʾodi
tumbànux
yúvvənnun
bəzyàdə
yarəxnètaˈ
bərrə̀xšəlaˈ
yak̭ùrtaˈ
xmártux
##mə̀
zə̀dyənaˈ
púr
##áxət
marzanànəˈ
canšìvalə
véla
mxáyəl
gamí
bàtə
sàrhanjˈ
labúlona
sàccun
šə̀mma
##uyélə
xalva
ʾḗ
bàva
ʾə́
múmc
bək̭ṱàləl
darbɑ
##eˈ
šaddə̀nna
ʾid
maṱ
mask̭ət
húri
ṱú
##utóxun
##ák̭k̭a
ʾuydàləˈ
ʾoj
damurčìyyə
tanə̀nnəˈ
lavàšələ
##vət
tìva
hák̭i
##dona
ʾárrət
dúglə
##mùxu
##ɑ̄̀j
bək̭ráyona
tahàr
basùrələˈ
gà
múyyə
ʾúrmiyya
pulṱála
##vvaˈ
deyst
bəzdàyənaˈ
vádə
gašš
šallàk̭ə
k̭ṱi
bašlí
ṱlə́
##č̭an
zrú
Šā̀hˈ
##ác̭
cìciˈ
k̭ək̭vàna
##rut
##oləˈ
##ova
lišánət
##ṱən
mxáy
##č̭lunˈ
mùbləˈ
máyəl
##yyəva
baxúšta
jī̀l
mədrə
dérsi
Màr
Dewán
yak̭ùrta
ṱarùsələˈ
bah
ʾuydálə
##van
susa
xədyúytan
dvə̀k̭ləˈ
palùṱut
č̭arč̭ə̀rri
dàmx
bə̀xyənaˈ
##dət
##stəla
sultā̀n
##tànə
šə̀cla
vàrələˈ
##ltaˈ
##lax
palṱàni
lablaxlóxun
##zəva
šotapúta
k̭àtiˈ
myàtələ
pašk̭ə̀nnaˈ
bitàyaˈ
k̭ò
sàmə
brùnilə
və́dlax
xàya
##ə́nnaxˈ
##rɑn
gàrməˈ
k̭aribùyta
mattúyux
##vèta
bədvàk̭a
##ùluna
màmun
##šyèlə
bìyyiˈ
màyələˈ
šárxa
xìmiya
bayyaxlun
bayyáxlunˈ
bəsravélə
gə́llət
ganáy
zambəl
##lánaˈ
yàma
muttálə
gurvə́stola
xamšá
nèsən
vud
ʾáynət
xə̀zyən
basùrta
tàrraˈ
pràmuna
puləṱtéla
myàtəlaˈ
basə̀m
sálət
##yra
ʾálmàptulˈ
palṱànna
jàjə
mayyívaˈ
zayi
ʾàniva
xlápət
jú
pràk̭əna
bzayèlə
yəss
##šiyy
bašùlə
yə́mmət
##švət
ʾàtxaˈ
##ə̀staˈ
muxzíli
##̄ndɑ
mṱétət
Los
##rànəˈ
mattuyḗl
Chrìstmasˈ
è
yə́mmi
k̭à
##ámələ
##rəvaˈ
##útət
##vona
ʾarabà
xána
sos
nəsṱərnàyəˈ
ʾàyyaˈ
cəs
bək̭ṱálulə
musáfər
mxàyuna
tìyyəˈ
ʾúžeRpḕ
##ə̀lvaˈ
bək̭ṱàlə
šak̭lítunlə
xanìmuˈ
##ənˈ
##ya
bəgràšəla
zarrìvaˈ
màxəˈ
mlàyəva
šé
tán
xḕ
tapàxvalə
šak̭lə́n
zàbb
cot
gárə
yavvə́lli
pis
ʾùydaləva
mattúvvula
tìlun
##dìlə
k̭ṱílət
k̭ənyànə
malcùytaˈ
##ílaˈ
##bàrəˈ
k̭usártaˈ
zabà
avíva
mìyyəvaˈ
nìrə
bìləˈ
mī̀sˈ
##ruy
xə̀šloxunˈ
juvvàbu
yarə̀xtəla
##ə̀rrələ
##nan
ṱarùsuvaˈ
sàtıram
garšə̀tvalaˈ
##nánəva
hotè
pə́t
##mm
məttə̀ltaˈ
xambàša
ʾamsənˈ
ctavé
vádələˈ
bətk̭àlolə
##k̭əd
múttuna
##lxət
marrùk̭ətˈ
##ṱlən
pərpì
tàni
púmmo
gurvə̀s
##təx
vadè
##úš
bràtəva
##ə̀lvale
madrašyàtəˈ
p̂èp̂sin
p̂arm
m
oyáva
dànnəˈ
##yèla
Xaz
sùrəˈ
bəzz
taxnìvalunˈ
madənxèta
##è
ctə́v
juvvà
nunílə
pə́tvo
matt
gárəš
xelánaˈ
yumáne
##əˈ
sèda
dok̭ìvalun
##ziˈ
làlələ
bəšm
ríšan
k̭úxa
ʾ
ṱalbìlaxˈ
šlə́
##yaˈ
tìyyə
ʾaṱṱà
yaríxaˈ
ʾàxuniˈ
hm
ʾə́k̭
ptìxəna
pə̀rdaˈ
bədmàxəna
k̭áydət
bnayèləˈ
hayyurḕxva
idèˈ
pó
mày
špáy
ivan
xúmy
bək̭ṱàlan
p̂ap̂a
bəxnak̭èva
##šun
dalápča
yálo
maṱyàləˈ
dolàt
##resìv
jī́b
rigavàtə
péšən
byayələ
bərrə́ššən
xyùṱa
ṱlíba
bəstànəˈ
pàpaˈ
maštíle
xmàrət
sirè
barùyzaˈ
gə́šra
k̭átax
oríva
k̭átʾáha
##lanvaˈ
talxə̀nnaˈ
##mbánuxˈ
tiyànə
##àyolə
ptàxuləˈ
##na
talmìduxˈ
vàdonva
##ə́nnət
čín
ò
Dan
bəšk̭àləlaˈ
##yvan
č̭arč̭
yavvə́nnə
xə́ṱṱo
##lˈ
xàsux
##rə́nnə
casìbə
gòzə
k̭ólay
tìlux
rigaváti
pašùṱulaˈ
nàšəˈ
šùla
šarùyəlˈ
bənd
##ʾé
jàjuˈ
##psa
hàlal
bər
muttà
mardùxələ
palúṱuva
xadər
hàrˈ
mumṱìyya
parə́mva
̄
##màlta
pyàyaˈ
muttàlə
pàlṱunˈ
súp̂p̂u
másta
bèti
ʾàrpa
##lələ
bəsyáruna
##zín
mattúyəla
ʾùrheyˈ
vàdu
dànə
cyù
k̭ə́tlə
pàrk̭ax
axlìva
ʾodívalun
mdiyày
ʾídə
vòbšemˈ
bášli
gu
puc
šap̂ə̀rtəla
ʾída
šuríle
bək̭yàdən
rc
ʾaǧayóxun
ʾatyàni
zvì
##blun
ʾatə́k̭ta
odáxvalə
##áti
bàxəˈ
yarəx
ʾido
Zu
xmàrti
##hà
gan
ganátə
maplúxə
bək̭rámələ
mə́rri
paytáx
##ə́k̭lan
yàlə
ʾáxči
hasan
lablə̀ttəˈ
labláxva
àmsətˈ
rappuvvḗl
Ša
##ṱəˈ
gət
##utˈ
alá
cs
bəzdàyəna
janávar
##əss
muk̭riyyèlun
##mət
##pà
ʾabàsiˈ
havíva
Nu
##ṱān
tur
rayyíva
sálən
viyyàle
zàrgarˈ
##ùvvə
lablàtlun
##ávaˈ
jùlla
spadiyyàtəˈ
bərrə́xšələ
mattáva
ʾotáǧət
tmanə
##gé
hammúna
partúlova
ptàxul
gurvəssàlun
##tàtə
bəšk̭àluna
bədmáxəna
xurb
cál
sèpux
tám
##úṱə
byá
vádona
ṱlìbolə
bəxvàṱox
k̭átmálca
##təˈ
mənne
mắsălan
jarjàrəˈ
sənjìyyəva
tand
yuvvə́lla
lablə̀t
##šələˈ
marrù
##ə́tlə
ʾàtxəla
##ìtun
àzən
k̭aṱə̀llux
xoròxunˈ
badəmjànə
##x
sə̀k̭
pàlṱi
mujtàyyədˈ
sti
rázi
##ə̀rre
tàmmaˈ
yap
gorə̀nnax
k̭ark̭ù
yavèləˈ
núra
mabrùz
míta
xzìmun
##rə̀v
trèvən
##árət
máyyaˈ
##ə̀lvalə
xòda
rumyátə
bəxnàk̭una
mùdila
k̭àṱlən
tòpaˈ
ṱlà
bəxláso
##hùmə
juvvəbb
bəšk̭alèla
sùk̭ˈ
##màrəl
##vvəx
##bəlˈ
dáy
##zələˈ
xank̭íli
šadúrolə
##vànk̭ə
k̭ənyànəˈ
sàllə
ʾáha
yávəla
xárva
yáʾ
##nána
##bàyjan
mắgar
darà
ʾànvəˈ
##́ṱla
trḕnva
purə̀k̭li
bàby
bədvà
p̂ə́r
##šək̭
dašdəšš
ruppúlə
ʾə̀k̭taˈ
uré
k̭aṱlān
bəzvána
bə́ššəx
bəc
p̂ə́k̭k̭a
k̭emíva
##sma
dìˈ
##vənˈ
rə̀zzaˈ
budrà
hamzúmə
k̭allày
víyyəna
dūl
yak̭ub
jahànnamˈ
ʾaxun
šàk̭
davə̀k̭lun
díyyuxʾánnə
ṱùsənaˈ
huyyə́rrun
šṱóṱa
ʾído
labúləxva
č̭à
p̂ósṱ
Frà
yavvàxlux
pàlṱax
k̭óxa
##zənˈ
uže
šàcarˈ
ducánət
brátan
ʾīd
málca
čám
ríxu
yùvvut
víyyəl
šulánə
##ə́dlə
rə̀k̭
cə̀sˈ
pardú
janjə́rrən
##ránət
šàk̭lən
ho
cə̀slax
ʾəč̭č̭aˈ
jádət
parm
bašə̀llun
ʾarabàyə
ʾaváhan
mìrənaˈ
vazzírux
##yə
ʾərxàčiˈ
##ləˈ
dəryā̀l
xak̭úvvəla
bərrə̀ššələˈ
talə́
ʾálli
k̭alìvalə
brátu
bəšk̭àloləˈ
mṱílan
dàvvaˈ
yàlələ
pagèni
ʾìcət
Bark̭araxā̀nˈ
##či
jàr
sìyyəva
##búlə
dmə̀x
##alt
ʾàxtun
tanùyrəˈ
##rre
šávva
pì
primàleˈ
šə̀
Haccárə
bəxzáyəna
##ə̀sva
k̭ə́ṱṱə
pučèčəˈ
mèša
##ə̀tvaləˈ
betanánət
tíyyəx
zabú
##yán
xáʾ
lublélun
ʾúd
balba
mabbùvv
p̂urmí
galgùləˈ
##ə̀šta
##braˈ
prə̀z
##yàdaˈ
##lá
nesə̀nnuxˈ
pešáva
jamáhat
azə̀lva
##̄́h
k̭yà
xzìtən
mutmayə̀n
bùšk̭əˈ
šəryèla
ʾərbàči
bəxvàṱələˈ
##ət
cavə́tra
xə̀r
háva
Téhran
cavə̀traˈ
xáraya
sumúrk̭uš
maxulḗxˈ
tòlə
gni
xálvət
saʾátət
k̭ošúnət
##arté
šúləˈ
?]
##k̭árə
jammànne
##šax
##mb
##jax
mabrəzz
odìla
k̭àttə
mayyívalə
ʾə́tvalan
bašlàtləˈ
mə̀xyələ
lála
yasráxvalun
k̭èsi
duraš
bòšk
##ùštaˈ
jàj
nàǧəl
ʾə́l
##ə̀ṱləˈ
lə̀tvale
mxáyut
##lilə
maccúpəna
štìla
xàtərˈ
tanáxvalə
bàrax
bəxpárəx
miyyè
##ser
tìyyəvaˈ
šlàma
šidanúyta
nišánk̭ət
mattívala
lə̀tvaˈ
k̭árax
##pnátət
##zux
##ər
k̭amày
yavvə́nna
vádənˈ
grìšənaˈ
##̄p
##ə́k̭lə
hàjiˈ
tíyyə
lə́zzət
zàrda
tanitùn
##úya
mása
Gav
ʾéxa
mìrə
sab
ìva
šurìlə
šadùrolə
bnáyəva
tìtəlaˈ
Bòston
báyyava
rùppu
ʾəč̭č̭àmmoˈ
zìga
##dərr
rán
mayé
roba
##up
##šxa
k̭àmtəvən
Túmaˈ
šər
##ə̀k̭la
ʾávə
##rrun
màrənˈ
berà
raxmànələ
məndi
bəcláyələ
úžə
rappùvv
bəxnàk̭i
áxlən
avə́d
bəšk̭àluvaˈ
núk̭zət
G
##ə̀xləˈ
##yànəvax
ʾaxnóxun
##ùz
hávuz
xàˈjvùja
ʾā̀n
banùvvələ
màrənaˈ
bə
commun
xoṱ
yúvvut
yèast
hə̀nnəlaniˈ
bəsnayḕlˈ
ʾàryaˈ
tànən
##ə́lva
bəgrà
lábəlla
pàssˈ
mattúyul
xdíli
gúdə́štət
cìˈxá
xə́z
k̭ə̀d
tìvəna
parzùvvənaˈ
##lìsə
dagùlət
##nyə
tagbərrànəˈ
ṱla
rabi
ídi
bəxnàk̭əlˈ
lə́bb
bŕatan
##u
vádulə
k̭èdamtaˈ
náybaˈ
##nánələ
càlət
xə̀ltu
samalyòtˈ
xvàrtaˈ
##rra
##ùyələˈ
ʾullúylo
šíma
k̭èsə
màxətˈ
márə
dok̭ə̀tlaˈ
##tˈ
##vvəna
bn
bə̀ššət
mak̭r
mùjj
##lma
jm
marzanànət
ṱínəva
##tvā̀l
##manan
áxxa
dó
##bátta
taxmàntaˈ
bəšxà
dána
ptàxuvaˈ
húcmət
nùzul
šuddə̀nnələ
poxtè
nuy
tívəna
##áləl
bə́r
##lə̀plaˈ
myešók
dóra
mabrəzzívalun
k̭urk̭ə̀z
čurmə̀x
mulc
pràk̭tu
còsəˈ
ʾayyá
mə̀rranˈ
làbəlli
camùtra
ʾamk̭ùy
bəndàyələ
lètun
davə́k̭lun
tapə̀xval
bərrə́ššət
mattánna
ú
gàni
xìnəva
muttàcca
ṱašuyèləˈ
##ppulə
gíbi
xurdìyyəvaˈ
##yyàtə
ṱí
pušṱà
##úrəl
k̭àšəˈ
pučèčə
vàd
sùsa
##ùš
##yəxva
šadùrunaˈ
k̭àmayaˈ
daríle
##cànəˈ
vàrələ
saccùnta
buk̭àra
hə̀rrula
gnivèlə
bəšvárələ
bədrayélə
tuxmə̀nniˈ
bəxz
šok̭íva
yavvà
barúza
báxtasòtəlaˈ
bàxə
ʾák̭lux
hála
Yùrup
xóran
rk̭ù
k̭apk̭ùpə
sedáči
cullanaʾít
avə́rva
ctéta
##dda
bərrə́ššələˈ
##ə̀rrət
ʾatík̭a
muttúlə
yázan
pṱ
màvuləˈ
yumā́n
##manəs
##nolə
##ə̀mmaˈ
danaʾátxa
də́ryuna
šp
hávar
máyyan
naravátə
ùydāl
ʾə̀tva
hàllaˈ
##ànnun
p̂ə̀rdələ
##ro
k̭ṱìluləˈ
yàmət
mšíxaˈ
gàhəˈ
šalə̀
parpùlən
xarzíva
##ə́nnə
xallul
bəsyák̭əna
àksor
múṱra
k̭ùrban
##̄̀zˈ
gùybaˈ
##tola
məndiyyànə
maxìvalun
bətyáva
pláṱəl
matpək̭k̭
balbùvv
tə́vli
Ba
##ǧdìvalə
bəsyàk̭ələ
ʾarràtəˈ
ʾaxúnux
ʾavívaˈ
xvì
čì
xabùlələ
mabsà
bašìləˈ
nìyya
p̂armiyyànta
##uléna
ṱàlbətˈ
xàrtaˈ
##àyə
##gəˈ
k̭ə́ssat
##lèna
k̭arívalə
ʾuže
mṱàyəvaˈ
yunàyənaˈ
ʾavílə
štètəna
də́ryəl
bazz
bètiˈ
sàdr
##zuvaˈ
brù
lublàlə
ʾatìvaˈ
ʾùga
mardùtux
cúma
ʾávvadḕ
xḕrˈ
##ə̀rvala
ʾəmmà
xèy
àngeles
pár
uydalə
ódənva
k̭abuléna
palṱə̀ttaˈ
##ṱò
mavuréna
tapùxula
##stauran
bək̭ràmələˈ
mxílə
hay
či
šmí
##dḕt
dávun
pàlgə
mràyəvaˈ
darr
bəxzádəx
ʾak̭úšk̭a
ʾàxəl
ʾodítun
ybuˈ
bə́xya
masàla
##nəlˈ
ctayatət
##úštət
prə̀zla
k̭ṱíləl
##malə̀
və́rre
pálgo
##ùlə
##ùynuˈ
malvuš
mučxèləˈ
ʾaxča
šəmy
##ìt
bašlán
revolùtion
górax
ràppiˈ
īl
fə́llan
táy
ríšuˈ
k̭àx
vádaˈ
trəmmà
##šava
báxtasò
naˈ
prùmulə
bə́šša
k̭òšun
zabúnələ
bəsyarèna
tamməzàtlə
mərt
xàsuˈ
ʾalpà
mèšəla
márza
gabìvaˈ
məndila
xànk̭ili
##xápələ
matpək̭k̭ánna
pàlxən
məllàtt
pərk̭ùyna
mdita
xvàrta
ʾurusnàˈ
bədlàpəva
##anˈ
clétət
paluṱḕl
ʾaz
tak̭tə̀k̭k̭ax
múttəx
júrrə
jɑ̄ndɑ̄́r
càlləˈ
tanàxlux
dəm
nómur
maǧǧùbulaˈ
##vək̭va
madmùxu
ʾarálləǧ
k̭ə̀ntrumˈ
bàssaˈ
nàšaˈ
slútu
lətli
mávəx
mayét
mó
k̭àlya
##san
xam
vílun
##návot
##yyulə
geč
bèrašəˈ
zə̀rracˈ
hə́nnə
##vàro
pláṱəna
mànə
bərxá
##tax
##̄́m
lə̀tvaləˈ
##nnux
švàriˈ
nanúnti
gvànk̭ə
masìtunˈ
bəryan
víyyət
ʾàzəlˈ
##k̭li
Hamà
##mbulèva
malcáyət
xvàrə
galándi
gnàyax
##íya
##zbə
hállun
zdarò
##ə́l
povàr
gə̀ldu
bəsyàrələˈ
čə̀rtət
mə́rre
malyùzən
bədyá
p̂armiyyàna
ṱašu
bək̭yàdəla
hàlva
vàccəl
muṱṱ
dur
bné
zaryàdk̭aˈ
ʾə̀nsafˈ
mǧalyátə
məndiyyánə
bìˈ
##mya
váya
ʾìcəna
k̭àmo
suryò
##órə
di
p̂ravaslàvyaˈ
k̭ə̀š
tanínət
ʾaslán
vàdələ
fúr
top
ʾànaˈ
pə̀t
hàlaˈʾət
bəcnašəvá
máyul
bšàlə
##uran
nàk̭šə
##àyələˈ
Hayə̀stɑn
myàtəla
##ós
xatvà
šadùr
##rrálə
gárət
rùyələ
babé
xətna
ṱízət
báb
##pílun
šamá
bəšvak̭é
áddress
xíšəva
bəlláya
marr
##kin
ctə́vtəla
##k̭ó
dǜz
yúmət
xlápax
hàlliˈ
aralləǧé
bətyàvələ
labùluna
ʾaxə́llə
hošàrə
nùynəvən
##vlə
bríle
bəddàyot
xelán
bayyaxlə
ʾə́t
jammúyə
tanùvva
##xàləˈ
zúrna
nə̀d
vī̀
Mùšava
bəxnà
xlàpuxˈ
har
buk̭
pášcaš
##ji
##xə̀d
pàllə
rədyàlə
bəxšáva
ʾávənˈ
mattúyolə
tuyrànə
yarì
##náni
mìrətˈ
saʾat
cùmaˈ
amsíva
ʾokèy
párək̭
ʾafšɑ̄̀r
gargùšunaˈ
ršə̀mlunˈ
ʾavílan
gám
bìyyəˈ
ʾəš
pàrpəss
trə
sùvaǧˈ
##ánk̭ə
##úṱəna
##tənaˈ
vádəxva
šk̭
muyyé
basìmələ
##xsaˈ
##rəs
bəxzá
šəmmánət
##ùvva
cər
ṱamràxlun
və́dlux
mela
##tru
ʾəč̭č̭à
bədvak̭ólə
ʾárp̂a
##ámbaš
prəs
##ṱp̂
və́rrə
xamyàn
čardà
patxìtunlun
Na
##ú
##tunlə
jafári
glùl
ṱavvúyəva
##yyətˈ
pšímət
ʾávvadḕv
pato
masyupḕ
gàrdəla
purk̭èlə
mya
revolù
doxtórə
k̭ənyànan
bašúləˈ
ṱa
bíyyuˈ
šák̭lə̀nnun
##ə́šta
xayyíva
##àlə
##̆̀ro
ʾavíni
lə̀tluxˈ
hak̭uyḗl
bəlláyələ
##xálun
##ìvalə
ʾárxə
áx
dvík̭əna
pallívalə
##c̭ác̭
lə̀tlax
tammòˈ
darə́tvalə
##lān
xàyə
múttətun
čúncət
mlàyanˈ
ʾamric
manáyət
carmánə
mùyyəˈ
##bi
gàmiˈ
Bàharˈ
duccà
##ràpu
dánnə
mírətva
mayḗn
jáyran
k̭áyra
##zì
odívalə
##keˈ
mačxə̀tti
nipù
##rrən
consersɑ̄zì
##ešó
##lìvaˈ
yàvoləˈ
sp
mučx
##yáma
ʾə́tvaləˈ
tùrsova
##jbur
sílux
##k̭us
k̭aṱə̀lvali
##úṱ
yàrxəˈ
xàč̭č̭ələˈ
Pèrsiaˈ
bak̭làvaˈ
##pùrǧan
k̭arúvva
fàr
bəxdàyələ
šúk̭lə
baxčòxun
##ṱax
ʾužèˈ
xoṱívalun
mā̀t
##tila
yày
ʾul
dìyyux
bərràk̭ən
tayə̀n
##úyo
xšə́vlə
##ləlaˈ
nə̀k̭
méli
dàvaˈ
máxˈ
ʾùydāl
bahré
dàyya
ʾəsrà
##varò
tànəˈ
##myu
šuddə̀nna
##áyəlaˈ
daráxval
##ánuxˈ
tammùzəla
švóta
##vəbb
bəs
guybanànə
ʾòdən
##k̭ə̀z
maštùyə
k̭áyrə
máttuyəl
k̭àmuˈ
àxxa
pə́šle
váyola
àzət
šmitḗn
ṱúr
##pk̭ù
ṱúš
se
mávələ
júrra
dalú
##rrə
tlə̀x
##k̭bà
##lavèva
K̭uryák̭us
č̭arč̭ùrəna
gurúytət
xod
mə́ndi
súrṱa
##rəvən
##sulə
snìk̭ənˈ
yasráxvalə
magrayàtəˈ
jìləˈ
##haˈ
šak̭lə́nna
ʾamárat
bətpák̭əna
avívalun
də́k̭k̭a
##ə́k̭lun
pnílun
túrvənte
jə̀p
gaššá
šap̂í
ʾídi
lublálə
##ané
búšk̭
##yyərr
magvur
šad
##yan
hudrèlun
ʾúrzā́n
bnàyənaˈ
sírunva
xuté
ʾúxča
bètuxˈ
##gul
##èp̂si
mabyúnəla
ṱuy
##dak̭
k̭unjìtaˈ
cə́slu
ductaˈ
nā̀š
mxáyələ
Pèrkinsˈ
##gàˈ
##̄́x
pyà
cə̀r
yumān
ʾavilax
čurmə́xxən
##ə̀xlə
urèməsˈ
ʾòdatˈ
ʾaviˈ
cípət
xáyələ
basíməl
xamsár
carmúxəl
xut
ʾak̭ùšk̭aˈ
yavvìla
məndiyy
lišbə
tú
##nérə
xzī́l
tìyanˈ
pulxané
##àbad
##ùnti
vì
##ṱunˈ
yaṱṱùvva
pálət
sú
ʾatravátət
##P
xúšun
##òpə
cárpəč
Chrìstmas
##ralle
##èPvaˈ
##jan
sapúyol
hátta
bəxvaṱélə
mădə̀nxa
brùnan
k̭ṱìləna
munšiyy
jarə́blun
mā̀tni
pyàda
##áxta
xak̭óvv
bənnàsulə
áziva
k̭upš
bəsláyən
gášk̭ava
məšmə́š
čòban
váttət
brétət
xardúyələ
gìbuˈ
màxlili
mádən
ʾaxə́l
rángu
ʾaxúnət
ʾúllulgan
k̭ərṱàlə
##gùpta
šamàša
pulṱ
##riyyèlun
myátə
jaray
##bun
mayyáxla
##ḗlˈ
garpìval
plə̀xlun
vúr
##ə̀tvaliˈ
cal
parmívalə
dvá
##ə̀xli
##cā́n
bitàyəva
##ránə
gurvə̀slə
zàbən
##unˈ
nášətˈ
yàdla
zrù
##lə̀tti
##dunva
šx
ʾodátlun
mabrùzona
xə̀tnaˈ
fák̭a
ʾaràlləǧ
àks
ʾalàhələ
labláxvala
hàmma
nə̀draˈ
vidàla
xáyyi
uydálə
##ùsu
k̭ri
ʾalmé
zí
màtəla
mšixàyə
máccət
gúrta
zlùmya
##màk̭əl
bərrák̭a
šatì
avili
tópə
laxùmta
Sul
ʾammè
maxzúyəna
ʾoyán
bəd
zrútət
yavàttun
xàˈ
márzət
drílə
k̭arùvva
k̭abúlə
##ˈb
slú
rìšiˈ
diyyanˈ
xoṱívalə
tuy
Šá
bədráyəxˈ
ṱalašyátə
rappáxvalə
mumrìtova
štèta
xšú
bə́ryətbə́ryət
də́šta
ʾáynan
bərrə̀xša
yánˈ
šamm
ʾàxli
##w
tánax
jàrbi
k̭aráxvala
k̭usàrta
dàx
##yam
mač̭č̭
##̄́l
ʾaxlə̀nnə
##árəl
bərrə́xša
nimánaˈ
ʾarək̭
grá
gníva
ams
ʾə̀tlunˈ
##tḗn
##ə̀rrətˈ
##nìli
##toxun
maváy
madrásət
Xanìšan
##ə̀nnuxˈ
k̭aryàtə
bùš
surúytət
ṱamràxxə
məndiyày
məsté
pàrk̭ət
šuršíyyə
dolàtman
##áyəva
P
dmìxələ
##nənˈ
k̭émət
##yni
váyələ
bəsyák̭əl
dok̭ívaˈ
py
##lunˈ
naš
##àmta
paxlə́tli
sàynə
daríva
##ùrələ
pacùroləˈ
##áyəx
mə̀ndila
odàxla
k̭ṱə̀llə
##anè
ganátəˈ
xə́šləˈ
##ánə
##xtu
ìlaˈ
bədráya
páyṱunət
rappíle
tak̭ríba
bàbaˈ
lḗl
gúyba
mə̀rtaˈ
vùd
##məna
xəmyané
k̭áti
šúlələ
brátux
##nen
##vuz
jə̀nsˈ
##dk̭aˈ
k̭àṱuˈ
šəmmànələ
mùyyəvaˈ
vila
k̭ar
vítəlaˈ
čumčəmmólə
prə́k̭lə
xdi
bərrə̀š
bəzràč̭ələ
lə̀tləˈ
bək̭r
##áyəla
mráč̭əva
lázəm
##zar
patxàxvalə
yala
zabù
mṱáyələ
maxvúrə
tàpək̭ˈ
##yavl
marrúyə
šap̂ì
##óblem
##daˈ
##lú
bàrbər
bóci
sì
jana
##ston
lulecašìˈ
grišàlə
màlcə
bəslàyaˈ
sàvə
pə̀šlaˈ
bùšˈ
bəšk̭áləxˈ
##yyəˈ
##rˈ
harámbaš
##ə̀č̭lə
mújjura
ʾágar
ràma
##yéna
dàntaˈ
##kə́p
##ə̀ltaˈ
##ránna
mattátlun
ṱárpət
##uyḗl
##̄́d
də́ltola
##lànə
##vā̀r
tunì
ʾə́tlaˈ
Helìnəva
##ddà
bàri
##šulə
maštiyyàxvala
mùčx
bàxčəˈ
k̭dàli
xìtaˈ
park̭ə̀nnə
k̭ə̀mləˈ
óya
cə̀s
##tì
və́dla
Mixàyəl
bitáya
ʾaxù
mattùvvəla
danátət
k̭átxamší
bərk̭áda
jàmmaxˈ
raz
ʾátšə́mmət
ʾIlíyya
cyùlaˈ
èngland
##pù
k̭ərṱàla
ʾúrmiˈ
màydanˈ
ʾətli
təflíto
nišànk̭ət
sàvan
##cəl
xor
bəšk̭àləl
brà
rappúyol
vídənva
mā̀nˈ
sə̀pyə
ʾaxùnoˈ
ʾužé
##xána
šìra
šak̭ìta
##ə̀llan
ṱìzux
ílə
##go
gámi
damùrčiˈ
xzìluxˈ
vádo
pti
dagúlət
mátti
gannəvvə́tta
xáč̭č̭a
bayyìtun
còtac
gvìrənvaˈ
bəstàna
ʾIṱàlya
cùp
guššə̀k̭lun
švə́k̭lun
tanùvv
ʾak̭ùbra
və̀r
xáyu
Dewàndaˈ
xàto
mudə̀vlaˈ
k̭arzìnk̭a
yávələ
ʾə́č̭č̭i
í
šə̀xta
dárši
myàtə
##dùy
bək̭yàmə
zabnə̀nnun
nonúyəl
##də
bnàyuna
##úyuva
taləmyáy
J
##syát
vítəva
bəšt
bèrašə
##ùl
máxən
ptə̀xle
pálṱi
##̄́
k̭ə́nna
pri
arallə́ǧǧət
sàrhanj
##rùta
gamb
##ə̀nluxˈ
hánəz
##̭
##Pvaˈ
duccànu
braté
maxmì
tə̀ryənaˈ
rappúyə
##ìlə
xər
xáti
k̭díla
mə̀rtəvaˈ
##lo
ʾaǧay
marúmo
##áxlunˈ
dùssak̭
ct
márəl
šavvà
rə́z
##pré
tàlax
##ḗn
##lux
##rí
xìluləˈ
xamyát
barnà
ríšo
ṱə́nna
xelà
biyyé
šux
##dánta
##ə́tva
xatvàtax
bəxnàk̭ələ
ʾu
pəslət
c̭ur
òrən
híʾàx
pàləxˈ
bìyyunaˈ
šk̭ùlliˈ
##⁺
maǧǧúbə
dər
báni
maccús
xàyya
šarúyəna
gòran
várel
vēl
púlad
júvvab
p̂àl
tpə́k̭le
dàst
k̭ə́mla
tàxtəˈ
##àto
cùptəla
xamàxxa
##àyənaˈ
zàvən
mxàyətˈ
túnya
jàju
Nɑ̄dər
vazz
báyyət
baxtˈ
cúlləci
##ə̀tlaˈ
bək̭yàdənva
šàrxa
k̭átəl
bazbək̭k̭
##vik̭
##ítun
ṱàr
##úyra
snik̭úta
crəs
šešə́nnə
muttílə
déna
sùrəvənvaˈ
lxímən
##ùxun
šeš
##k̭əna
dàva
nes
ràxə
pràk̭əl
##čəˈ
páǧra
bìyyuna
##mànəl
ʾàyənˈ
clìmunˈ
##ártux
ʾám
k̭ara
##k̭ət
úž
##z
màyələ
Bak̭ùba
mattàxva
šàgərd
ʾodə̀ttə
làzə
lišà
píšəˈ
ártist
##ḕtˈ
ṱríla
##yòˈ
idè
xlā́p
lablìləˈ
##dəna
vazzì
šok̭áxlux
gàrə
mṱàyəl
manšə̀nnə
labə̀lvalə
Yangə̀jjaˈ
bərrə̀xšənˈ
ṱèraˈ
barxəššə̀tvalə
bən
##llul
mur
##yyíva
ʾojàxta
##yyux
##útu
bašlàtlunˈ
ʾAza
marganìtaˈ
šulxètəlaˈ
##ə̀k̭li
bərrə̀šxəlaˈ
bšə̀llə
Rašī́d
##ámta
##xuva
sənj
##òšk̭a
##mèrica
túrci
bàza
dávək̭
ctayàtə
lublélə
##k̭
U
bnàtəˈ
lám
zúy
##èsa
##àn
kən
mačxə́nne
cl
k̭èsələ
bənpàlələ
ctayàyˈ
ʾóynə
ʾó
##mayə̀n
šak̭ə́llə
máyula
bəgràšələ
##ssár
šú
də̀štaˈ
də̀llaˈtré
##ə̀tva
##ùnəˈ
ʾìman
bənčàla
xabùy
k̭ùlyaˈ
ʾidà
k̭rílun
rá
bəslàyələˈ
mapšùrəlˈ
və̀dləˈ
tuxmə́nnun
ṱèrə
tanáxən
##ca
ṱèrəna
##otvaˈ
map̂rəmmàxxəˈ
##ílo
k̭até
