ráy
paspəssanóxun
saṱránux
xazyánax
č̭ambərránax
mak̭vəxxánux
čopánax
mardənnántan
nə́nv
muxyə́mm
pk̭
hardək̭k̭ánux
##ílin
ʾarzənn
k̭áy
bəy
tam
k̭ripóxun
ʾarət
tantás
gečáyan
bəṱváyan
p̂uṱp̂ə́ṱṱan
##áruvax
lullənnóxun
xurdíyyan
muyyək̭k̭
##unla
gurjəs
ʾordág
nesánux
mamunvátux
tál
yubáv
k̭úlyax
-⁺
tpin
balyántax
##ívən
##̄́n
mehmanx
rak̭
cpiróxun
majjiyy
pullóxun
dvírax
túrc
zamcánux
mǧušáyux
##áxx
mrə́ṱ
ratrəttan
naǧ
taxr
dólux
zabṱún
yalə́nk̭
barríyyax
##unj
ʾark̭
xə́ṱyux
pavvərr
čalmóxun
yaldánux
varíd
xošíb
p̂ulṱə́c̭c̭an
paslanóxun
##antéxva
mazbəttan
xalíčux
ṱán
bə́xy
patxántan
xurx
zə́d
luṱ
xúrjax
nk̭ídax
smík̭an
ptix
canáš
bík̭
k̭uzzə́ddan
musk̭ə́ttax
harhərr
seb
pasyanóxun
xarvánux
parpərránax
ṱoyánax
gúbyan
manyanóxun
##urévət
šmíṱ
yám
dəbbátax
##cum
pšítan
ṱəppóxun
šaxn
palač
sunk̭anóxun
##iy
##ilə́nva
zoziyy
mə́rtux
##roxun
munṱə́pp
##ə́ttan
##itéxva
mušv
yrítax
zínax
gugiyyóxun
mak̭yəpp
k̭anṱərránan
##dét
##ənlə
##íyyin
haslánax
mumməss
rəsk̭
ʾajj
##úpax
doránux
##ána
ruxrə́xxan
k̭ulyatóxun
##əltétunva
k̭áz
dy
mak̭viyy
##íyyivət
##c̭c̭
mə́lx
k̭és
sənj
##libóxun
sarpánax
k̭azúd
k̭er
júdux
ṱə́z
guššə́k̭k̭ax
lujlə́jjux
šlə́m
##rantóxun
##rəna
burxə́ššan
muzmə́ṱṱ
k̭att
k̭apyánux
##íyyo
narrast
luh
##rúnux
ʾutíyyan
pás
láxp
##úlo
mə́syux
muč̭ríyyax
galyántax
maṱriyyántax
surgə́ddax
sənjíyyax
mamlúy
mugvə́rrux
k̭arab
band
səmb
vuk̭və́k̭k̭an
rúyax
č̭amyánux
rak̭d
duldə́nnan
č̭arč̭úrux
##ulayóxun
tx
dábux
##lə́ptux
mask̭əttánux
k̭rix
čuplə́nnan
tlík̭ax
muxməss
##áyənva
bəšrák̭
tušn
nak̭k̭aš
musyə́vvax
hak̭yánux
##livan
muprə́ṱ
k̭arútan
halhəll
č̭appár
mdumdə́mm
k̭ó
búk̭lax
bəbx
xumx
snínax
nə́š
xurz
hulhəllóxun
##uyévən
##uynóxun
matr
sk̭ə́d
rə́gyax
plə́ṱ
nuvvərr
##ráxla
sust
lak̭lək̭k̭anóxun
matnúy
rig
cubbóxun
ṱisóxun
šula
mcurmə́xxax
ʾaptápux
mak̭k̭əšš
xem
štuvhə́rran
baṱuvvóxun
##ayy
##lə́x
map̂ṱəxx
xíṱux
##ítunvala
durdə́ž
náz
čolavá
ʾurzagág
bərrə́x
##ulay
pə́sk̭
šuk̭lə́k̭
##ə́nnin
##lanévat
parmánux
báz
parpərrántax
šavvəttánux
múṱṱ
bunpərróxun
jurróxun
p̂ačc̭
##šək̭k̭
pašpúšax
##iván
baxyánux
##ʾl
catvanóxun
ʾanám
xəvyóxun
həndúšk̭ux
##ʾáttux
dán
mulhə́d
mačxánan
mutlə́k̭k̭ax
šar
tapánč
##ləhh
musk̭ə́llax
##dux
gmiš
jíran
púšk̭ux
maccús
sépan
ramšóxun
musyəṱṱóxun
čak̭k̭álux
masnənnanóxun
##jj
gamgəmmánux
bəzbák̭
majrəmmánux
##ítuvax
xə́rṱux
supy
##ašénva
bəbráz
bəbsaróxun
ṱumm
šamyánan
mam
##ə́rtoxva
lə́zzan
bətláp
##užóxun
k̭úlyan
maṱṱətt
muccə́mm
sə́rṱ
##úyitunva
##va
ṱəlpáp
gupgə́p
macc
xatránan
šen
zalk̭ánux
mamúnan
msazg
##yátəna
durdə́k̭k̭an
xk̭ir
xap̂k̭ánax
musrə́ptux
##ilén
dəltóxun
xup̂xə́p̂p̂ux
č̭apč̭
praxóxun
##əč̭č̭
čalavá
##yánt
hasíd
xmár
mtílax
č̭ərṱə́ccux
##ə́valə
mgand
k̭aritóxun
##yátovat
gríd
xap
##ə́la
duláb
šulṱíyyan
suṱlə́ṱṱ
##ə́llonva
čangalúš
##ə́nnətva
mr
##úyul
čó
mucvəč̭č̭
blítax
bəngár
matniyyánux
moh
##tár
ʾay
baxxəvván
luxl
ʾatur
ṱup̂p̂úr
##ərran
##íyyolə
nášux
bəššáš
buxxə́vvax
mk̭aṱk̭úṱ
dárax
xušcə́nnux
k̭ánc
sarsərr
síṱan
va
vaccil
k̭əm
ṱavyánux
##úrtan
buzbə́zzan
mušrəzzóxun
dajóxun
##iʾ
pudrád
xóran
tólax
gulgolóxun
ṱuvvóxun
duk̭də́k̭k̭
búz
##əṱy
##áǧan
mutvə́nnax
racván
nk̭ízux
celánux
xə́vy
k̭arv
č̭íman
##ák̭uva
tpík̭ax
jalla
caxlánux
č̭albəxxánux
ʾazla
diyyóxun
šúk̭an
##úyovət
tan
šacšúc
xəlmáttux
cəndúr
saxbərr
pə́rs
ʾəzzóxun
júr
ʾurməžnáyux
yask̭anóxun
répan
mašmúš
##liyyóxun
k̭alíbux
raxúšan
dárdan
čalj
##k̭əva
švó
ʾurməžnáy
gobalácux
##uléxva
dúyš
##app
zoyánan
pam
##əllántax
surgə́nnax
##úmova
mə́šnux
diš
nag
mád
k̭aṱk̭úṱux
sant
čalúvv
k̭us
duss
##aréva
šlik̭óxun
mašp̂ərránan
##íyyuna
snídan
bərj
xzidóxun
vak̭vək̭k̭ántux
gəpyát
##d
##uṱóxun
vuzvə́zz
##yántitva
ṱarsanóxun
ʾəss
muspíyyux
##ə́rvalə
##áxvala
sak̭k̭at
##ə́nnutva
xarxúṱ
muty
ʾaryanóxun
coyanóxun
##íyyəvat
##ə́vtux
pə́lyax
nak̭ránux
daldənnántux
ruyóxun
čablúz
mə́ryax
xník̭
muxd
núk̭
##áyulə
##arétunva
##íləvət
ʾayvóxun
k̭úblan
k̭amáyux
##ə́k̭tutva
buxxə́vvan
cxílux
##úsiva
##ə́rrovən
k̭ašíyyax
čumčəmtóxun
mə́ryux
sursə́rrux
muk̭k̭ə́ttux
muxšə́vvax
šúbb
tark̭ánux
xallənnánux
šaršərranóxun
##yántəvan
yə́k̭n
nuxnə́xxax
##ək̭loxun
taššíyyux
##uyl
k̭ann
xatvá
##rə́tvalun
zéy
zarróxun
c̭anc̭áš
mujrə́ppux
ragdánax
bəms
šunšə́llan
peč
putpətt
šurk̭ə́ppax
ʾəsculáyux
bug
k̭arrəss
##ə́nnəl
ṱanṱənnántax
##rə́nn
##ə́nnovan
maǧǧəbbánux
pašk̭ántan
ʾámrax
##ívalux
zríč̭ux
muxjə́llax
snə́d
zǧid
##ívan
bast
zubbə́nnax
muxrə́p
ns
guzgə́ztan
šalmánux
k̭uṱk̭ə́ṱṱax
##lə́ntan
balbəssánux
##rí
muk̭rə́s
mužǧə́šš
duccandárux
##ánət
čamčəmmánax
dabánan
cumcə́mm
xə́ṱṱ
majj
cóx
dájan
xrítax
natranóxun
sandəllánax
xulxə́llax
dəpn
nə
k̭mə́č̭
bəzván
candalóxun
xə́ršux
tapmáj
sárgux
k̭azd
xurbə́ššax
k̭úblux
mak̭k̭əmmánax
mucpə́nnax
muyyə́k̭k̭an
k̭utíyyux
bəšvák̭
gavayú
maccəpp
tro
##rəṱtóxun
žarg
támm
mx
muclíyyux
margiyy
ṱrípan
šanyántax
k̭arbənnánux
casxánax
k̭usaryát
##éta
##rəz
##úlax
natamm
p̂č̭ílax
##étax
dérax
nuzn
##úxonva
vuk̭və́k̭tan
buyṱ
k̭urnəzz
mupšə́ṱ
##bázux
##átutunva
pampəxxánux
č̭ər
muk̭šíyyax
ctívax
gərv
matləxxánux
cə́ly
zk̭ir
ʾazlanóxun
gənnanár
muk̭y
##ánon
saránux
muptíyyan
maṱbiyyántux
nəmcát
##anélə
k̭úk̭ax
ʾadáttan
pandəmm
##yavandóxun
mčíxux
tabbárz
##lax
k̭ark̭ərránan
cak̭rak̭úš
sunsə́ll
##áton
muṱbíyyux
rə́pyan
tíc
jarpánan
balbəllanóxun
##étələ
dárzan
yaval
##rə́ṱtax
##ə́rrutun
sarbazóxun
búk̭
##ə́xlə
tərtu
gə́rs
xášux
##əllanóxun
k̭əṱy
javvəṱṱ
yayóxun
ča
##ət
bašl
##k̭əxx
nacn
##urén
šṱíxux
##tóxun
ṱaryánux
k̭ulyóxun
srípan
čílax
##ə́ntit
ʾángux
bəxlám
##átotunva
bə́ṱ
xójux
bəčr
sádd
narnərranóxun
k̭ə́syax
##áp̂p̂
gmíš
xúllux
xúmč
mamməddánux
pəntiyy
##ərri
nigar
lavánd
saryanóxun
pašabándux
sanjóxun
k̭adim
zalmanóxun
buk̭b
šúpnux
sarván
##úytut
šód
k̭áttan
sapyan
mabxiyy
ṱún
marməllánux
nək̭y
bədvár
##lə́tvalux
rayyiyyanóxun
p̂aṱxánan
mascənnántux
muk̭rə́mmax
bənpás
bazárux
xuyyəddóxun
tonánux
madrás
bəxláṱ
šup̂rənnóxun
##ánox
##mə́nn
ganj
nánux
##vənva
párdax
mapšəṱṱ
munsə́rtux
tarsiyyánan
camánč
xmílax
##yáni
pəst
šíb
majyərránux
muk̭šíyyan
nə́ssan
masár
##yátinva
##íruvan
šəxt
murpíyyax
saryánax
pušk̭óxun
k̭uxk̭əxtóxun
##íluvax
##əntét
ʾaslóxun
##úlona
bərk̭ád
šucləcc
rpítan
ʾaláh
baydaxčíyyux
gə́glux
nallún
vazvəzzántax
bašlántux
pumpə́xxux
##aléna
##údan
ʾavár
ʾabúnan
k̭apk̭ápux
muṱlíyyan
talmóxun
šrik̭óxun
čak̭k̭alóxun
##ənloxun
hdiróxun
##ílutunva
##litun
príxax
muzlíyyux
sh
k̭urumsáǧ
šavvú
həndus
##aléva
mabrəxxánux
ʾelčíyyan
mdumdəmmóxun
##to
čunxəssóxun
daldunóxun
naṱránan
səm
bəp̂k̭
basrántux
##yántovax
##pun
túnx
xurzə́ppux
šərgə́mm
lúylax
zarzərr
mač̭č̭əmm
púk̭dux
##ə́k̭valax
naxlanóxun
čarpánux
buxxə́v
saxsayát
k̭eṱ
mgurvəssóxun
##yántax
##ə́č̭
rjímux
šák̭ux
musyəppóxun
##uxva
gužžənn
xliṱ
##árila
šrísax
##ántəxva
c̭urc̭ə́ṱ
gadyántax
barbərránax
cəpt
##yánina
##litóxun
nšíp
k̭unṱó
##iyyantóxun
ṱanṱúnax
sarídax
čímax
ʾáynux
daldəllanóxun
jungənn
##ánətva
ʾarzóxun
##áxəl
pašk̭ánax
palṱánan
##ə́tli
zə́ryux
mə́šyan
ʾəšk̭
tuvvə́b
supítan
bəpláy
dvə́rtan
##ák̭əva
bəzl
xamúytan
xp̂ík̭ax
##ánu
sot
ʾurgə́jjax
bəjn
##ánovat
tanduryát
##ik̭
##átunva
zarzántax
paríyyax
rutrə́t
ʾəṱm
mk̭uṱk̭ə́ṱṱux
k̭iyyóxun
xurxə́ṱṱux
zúbnan
zabk̭ánax
##antéla
bəšmáṱ
ləb
maps
gúčm
cəšm
pardúvv
pacránux
##uyéva
##ítunvalux
##rívalan
magdəllánux
hugyóxun
mə́zyan
bəmm
təly
##úc̭
manpəssánux
massək̭k̭
##áni
č̭uc̭b
səryóxun
brə́z
k̭urk̭ə́mm
cmilóxun
##ə́štutva
dəcca
psítax
##yávalan
k̭rixóxun
patlánax
cavč̭ánux
##úk̭ut
č̭ál
##rədtóxun
mecún
mamməllántax
##mənva
nuxnə́xxan
lə́s
##ínax
lajləjj
##ušéva
sunsə́llax
zumbə́llux
xurxə́č̭č̭ax
##rəšš
cumcə́mmax
carúzax
dalápčux
lum
muk̭šiyyóxun
cál
##ítit
šríz
muryə́ss
gəv
bəsyáv
##úyit
bexyáy
mgužžənnóxun
##uyzóxun
##úbax
tanápan
##əltéxva
cállux
diróxun
mulpíyyax
pušángux
##štóxun
##úytotun
rc
zung
mantərránux
ʾə́ryax
k̭ənnóp̂k̭
ʾahválux
mixóxun
culcə́llax
čučuman
k̭ək̭k̭aš
mumrəll
bəgrád
bumpə́rrux
##révan
xás
badəmj
##ərrax
murmərróxun
##əla
nak̭d
láppax
##ánotunva
čarzánux
masxaračiyyóxun
palxánan
##yatóxun
ʾarabánax
mutxə́nnax
gárm
šánsux
ṱanṱəllánax
cullúngux
k̭emánan
muxnə́k̭k̭
šaṱxanóxun
manšərránan
badənjánan
mč̭anč̭ənnánan
k̭aryántan
bərráyux
##ə́ltətva
núdran
ṱaxn
xə́k̭
radxánux
##ántuxva
bənṱáp
xamyantóxun
xsitóxun
č̭anč̭ənnanóxun
talxánux
čáy
busr
##ə́k̭k̭
pullac
##yánva
maj
dvíxax
k̭arabattúy
tímax
##rel
k̭ol
k̭ayy
ʾujjəzzóxun
lucc
məššin
p̂ulṱə́
murmə́rrux
táf
k̭azzáb
zalpánan
##ič̭
catrún
dəžm
##nén
bak̭bək̭k̭ántan
k̭ass
##azéva
xúyran
cund
park̭ántux
bəzláp
taryanóxun
k̭aryántax
ṱard
##úk̭on
magrəššánux
##yantétva
mardənnánax
mans
furʾ
dušd
k̭éy
muk̭rəxx
ʾik̭óxun
##írunva
##yánox
##yat
##áxən
muddərróxun
rapyantóxun
##ətténva
##úvvənva
pə́syan
##əryátux
##əccá
múv
##íyyonva
sanjúyy
xup̂xəp̂p̂
k̭urk̭ə́šš
bašránax
ʾaróxun
lípux
tanúy
##əly
maštiyyánux
banpərránux
mayyántax
k̭ons
##úyy
paṱ
##̄́v
zungə́rran
k̭uṱrə́nnan
mgužžə́nnux
šuršə́ṱ
xorúytax
##áyina
hivíyyux
k̭álpux
čak̭č
šucšə́c
vusvə́s
garvənnánux
cəcyát
##íyyotva
puršə́nnux
##əš
dínax
šarš
cugúr
##úvv
ʾoyunbázux
cumáyux
tə́ryax
bak̭bək̭k̭anóxun
##č̭óxun
gamməš
##únitva
##anuytóxun
mumcə́xx
šópan
cúyrax
bəxyáp
sandántux
parṱánax
zə́lpux
ras
xark̭ánan
##áyin
##lotun
##lə́nvalax
##əxtéla
##áyovax
srəptóxun
šártan
maxvərránax
gəx
lúblux
##úlin
xanzərránux
##tvá
##cc
k̭ólux
mač̭č̭əmmánax
trídan
##p̂əṱṱ
##úləxva
##ranóxun
šrə́z
tuvt
yón
k̭uhbə́nnux
cutlənn
##ṱanóxun
šaryánan
yapyantóxun
k̭urk̭ə́rran
šuyšóxun
payṱúnux
bli
mubyətt
k̭díxan
##rə́tlax
šalyánax
k̭alpantóxun
srík̭ux
xandacóxun
šorš
ṱúšyan
šucš
purpə́ssan
bazbúz
xoyncárux
##áliva
naz
xašc
šamxənnánux
xalván
xiyavánd
gullatóxun
masn
musxərr
bəxxáv
##ə́llitun
bazr
mutniyy
tuvvə́bbax
rángan
##ə́ššax
náx
ʾamk̭
##rə́nnax
maprəṱṱ
táj
ṱə́lp
bəxšáv
p̂uṱp̂ə́ṱ
spiróxun
zúlzax
xaráb
mamrúč̭
tarsiyyánux
tambal
metánux
mazməṱṱ
##ə́vvux
cvišóxun
pariyyóxun
pašab
buǧúm
mantərránan
mízax
šəpp
xasránan
xulám
šəlyóxun
xanx
ʾamrántux
mutlə́k̭
bubə́ggux
matriyyánux
tivóxun
šər
tayl
bək̭rám
##ʾ
macrəzzánan
xamsánux
durdə́xxan
sninóxun
drí
surgənnóxun
xuyyə́ddux
sə́l
xarxánux
##yántina
muǧǧ
k̭anúnan
masliyy
rvíxux
muzbə́ttan
məs
rigáy
tapp
xarxəṱṱ
bəšk̭
##úllax
šurk̭əpp
##yátivax
pšíṱan
k̭oyanóxun
##apén
##ol
cípax
##xə́
##ə́vyax
načar
nxilóxun
malhəddánux
##áyova
mabyənnánux
saxl
rík̭ux
yiróxun
##úpux
hammálan
čarčúvv
šalpántan
mrí
patxántux
##ráxax
lóṱc̭
camlanóxun
##gərr
zaryanóxun
poxóxun
zumbə́llan
ʾast
bəbdáy
típ
xazna
malápax
musyə́vvan
rjím
ricóxun
c̭anc̭aš
##óg
k̭arxanóxun
grišóxun
##ítəvat
pric
həndaváyux
##unéla
bəmpár
calcəllánux
purpə́ttux
cusíyyux
##ə́rrotva
musnə́nnax
č̭arč̭
murrə́šš
##áləla
xasín
##yántuvat
zubṱə́nnux
gundə́llan
bsə́rtan
mgurgə́ššux
páršux
k
##sərr
malvəxxánux
##ələ
maccəssánux
naxpánan
dəlman
púk̭
garúman
bəjváj
mč̭arč̭iyyánan
gadyantóxun
##áyəl
hənd
##tuxva
##ván
čal
semántan
pun
basmóxun
rudrədd
múttux
yə́mm
naxmánux
##ə́llivan
##ánk̭
xp̂
riš
šumxənn
##uvván
xrə́p
mušyə́llan
ṱex
musvíyyax
šúnnan
rabíyyax
##ə́mtux
baxxúv
xy
##ləcc
masnədd
priyy
p̂ál
talməddánux
murrəššóxun
yask̭ánax
gurməllóxun
muč̭riyy
dárs
malpantóxun
rozóxun
lvə́š
tamməzz
varvár
gungə́zzux
talmídax
repánux
bəxj
so
mašš
muryəxx
málan
čangəllánan
mask̭əttan
xnam
ʾurxačíyy
macp
pasxanóxun
mamməllántan
##ə́šton
báǧux
šúbxan
mən
cmílux
tunva
##itévax
tk̭
cutcəttóxun
torčíyyax
matyəvvan
k̭rípax
bərvá
k̭ač̭yánux
zənd
##ə́xvalə
zaǧd
bajranóxun
##saǧ
cavá
mamməssánux
##út
turk̭ə́llax
muspíyyax
sebár
mupyəššóxun
k̭ə́syan
talg
zubṱ
##ə́xtuvax
iyyánux
hn
ʾalmásux
masxaráttax
šaršərránux
##náyax
šxuryát
zalpánux
č̭ulbə́xxan
cumróxun
masluyóxun
k̭ašk̭óxun
hammənnánan
pk̭ídux
mč̭unč̭ə́nnan
darvúd
##lúnax
mammulóxun
##əvən
maxlúp
də́myax
šləp
##̄́k̭
k̭amyánux
jigar
##átvali
bazk̭ánax
tartərránan
cup
yáh
xzuyróxun
lúm
##tag
vak̭vək̭k̭ántax
muzd
go
##culay
lumlə́mtax
##uytévax
##attét
bəšx
##úytivat
camránax
mucpə́nnan
##ic
ríš
pursə́nnan
šalṱiyyánux
bsir
k̭užk̭ə́žžan
##tic
paspəssántux
xurdiyy
yə́lyax
xdə́rtux
##ə́n
##arúytux
muccə́šš
paryántax
naxm
##ítulə
##étəna
túyman
macsəcnét
capšántux
namnəmmánux
tamməmm
k̭apóxun
mašp̂ərr
lə́p
luhlə́
švík̭ux
veyl
##úntan
##írovət
šalgánux
##pánux
##ə́lvalax
nə́k̭bux
paván
smálux
##téva
xall
múj
dmíx
xə́pyax
tólan
ʾavámux
šark̭iyy
pala
buk̭r
bállan
ʾávux
zalk̭ánan
k̭undáx
mušpəxxóxun
xasiyyát
cəryóxun
sargóxun
mutlə́xxan
##altóxun
parsúpux
ʾurə́dxux
##k̭anéx
mulvə́xxux
saryánux
jalaliyy
##úləla
garúpux
ʾutk̭
xríṱan
k̭ašyánan
gə́ppan
##lacóxun
##tu
təny
ravayóxun
č̭alpánax
xadyanóxun
##cárux
baṱúvvax
##évax
də́r
pšítax
lə́k̭yux
švavóxun
təry
pastúyg
mərra
by
vázux
bəgrášax
muns
mamxiyyánux
čacmačíyyux
##úštux
bəspáyax
šadlanóxun
tašʾ
##ərránax
k̭uv
##ə́llol
nxílan
p̂amp̂əllanóxun
##íyyotun
bán
mummə́ltan
də́xnux
ʾurgəjj
##áyilə
rabiyyóxun
palabaš
ṱardánan
čacmi
muc
muplə́xxux
ʾujjə́b
cošánux
bərcáv
šanšəllanóxun
##ə́rra
##iténva
k̭ač
muttə́v
##lotva
garšántux
mumrə́č̭č̭ax
mrík̭ax
##tavatóxun
baryánux
bəpyáš
##íyyən
marə́g
bəmráč̭
sapk̭antóxun
lóǧ
cərṱop
ʾurzóxun
čúllax
zannáy
k̭ésan
pusyóxun
gugíyyax
mak̭dánan
ʾodanóxun
šəny
ʾurxačiyyóxun
guvá
##yántələ
mač̭cənn
čacmítux
##bəll
muxx
##íyyila
šcírax
búṱ
hón
i
nvál
yavantóxun
lamlúmax
##azgərr
##rəvax
ruyt
babavátax
ʾamar
k̭amčíyy
##úsan
maṱyánax
##ítunlə
xm
##tovan
##ánivət
gəbbún
parpəss
##tətun
##əxtéxva
##yántovət
##útət
mand
magrétux
##lí
ʾáyv
xuldíyyux
##əntóxun
čríp
mummíyyax
goránux
dúmǧux
mgandəllanóxun
##čaxóxun
ʾəš
gvíxux
rodánan
##ə́lluvən
jvíjan
##rəxx
##acar
tin
sapyántan
jadug
##ə́nyax
gúybux
k̭aṱúntan
húk̭yax
##átələ
xeṱánux
gəsy
p̂alúš
šel
tínax
##íban
muk̭yə́nnan
k̭ubl
svet
nadidóxun
pílax
##iyyén
gubgə́bb
##arévət
pašpəššántax
párdan
sandúy
maṱṱú
xapúṱ
nšímux
##árovən
bəp̂lám
##íril
jeránux
sanyánan
bujróxun
##uréva
zir
ʾamdanóxun
šucšə́ccan
k̭ošuyn
ʾask̭ánux
səmbúl
hak̭yáttux
bəty
##əbbóxun
nəmc
nvíran
čucč
šumšəmmóxun
č̭angúrux
##rə́tvalux
barxəšš
k̭ə́nn
maṱm
gənd
ʾahávv
##yátoxva
ce
stum
##atéxva
bayísan
bək̭dám
ṱə́vyux
nšə́ṱ
julx
natíjux
##attétva
dəmmóxun
muzvíyyux
maccəmmánax
bənj
k̭úp
yík̭ux
k̭uvvəll
balbəssánax
rxíšan
ganyánax
##ayétva
##ílona
teránax
čulbíyyan
yatvánan
márj
smík̭ux
tavtəššánux
yuk̭rə́nn
k̭ṱil
p̂alušóxun
k̭áṱan
##unévan
curm
zrič̭óxun
k̭arabattúyx
xp
ʾurəd
dmíxax
šaddənnanóxun
npə́s
mašləmm
hursə́nnan
majrəṱṱánux
##rə́ṱ
jamyánux
šallák̭ax
palṱ
munsə́rran
k̭uyróxun
c̭ap̂p̂íc̭ux
bəzváy
mídan
brík̭ux
k̭umarbázux
mamunóxun
sbiróxun
bagránan
mak̭yəppánux
talp
xams
mitóxun
damur
##lə́
šunš
k̭ərṱálux
##ílun
p̂uzp̂ə́zzax
k̭aṱúntax
gundə́llux
bunpə́rrux
##ə́ltotva
tyav
k̭ṱipóxun
sark̭állux
##rántəvat
##rəcc
šapšəpp
mdabr
sip
k̭úč̭
yona
maṱyúp
mumliyyóxun
vár
ṱaryánax
muk̭rə́vv
šák̭an
dəlmanj
k̭át
##áyətunva
bəcváč̭
bəršám
##úlotva
mak̭rəssanóxun
gamr
##ítotun
k̭alláyč
dínan
##antéva
ʾallab
nk̭íz
mə́šn
zurzəč̭č̭óxun
tanáp
huyvə́nnux
julxóxun
##ə́lluvət
básmax
bəmráṱ
##əmmánan
ragyánan
xusxə́ssax
turmúz
plíṱ
sanduyk̭óxun
nṱíp
matlánax
purpə́ssux
xašúlux
muclíyy
bəšṱáxax
puvvərróxun
mbar
##vəšš
k̭áll
gəzgə́zz
mubyəttóxun
sə́mman
##ovat
ruyy
zog
o
##áyotunva
ʾámrux
##íruvət
č̭az
masrəppántax
parúšax
mušxə́nnax
ʾaxún
šə́ṱ
##íluvən
ṱrí
čalíš
čímux
latlú
xamk̭ánan
k̭ə́ss
nvírax
há
crív
##alét
hilóxun
mutxənnóxun
zampúr
məššárux
baxxəvv
sap̂s
##póxun
∅
##náy
macpún
šaróxun
matyəvv
sundə́llux
šunyóxun
tunjíyyux
juvvəṱṱóxun
talk̭ántax
lutlə́t
bətpayóxun
##xux
ʾancərr
catavóxun
##ədtét
##tar
##ótax
bəfcár
yarəx
##əp̂p̂
mamxiyy
maxliyy
##uyatóxun
bumbə́ččan
čə́d
šciróxun
cutlə́nnax
salbánux
muncə́rrux
cartíx
casx
##ádiva
k̭rə́xtan
pílux
píšan
##ánəvat
##təb
##yániva
rúmx
ʾastrelyáyux
muštítax
k̭miṱ
várd
musyə́ddan
p̂almanóxun
lap̂áṱk̭ux
zúrzax
ṱavviyyántux
muxn
fciróxun
bəzzázax
##zan
##muva
mabləss
##itva
p̂lím
catránax
mardánux
palt
ʾavúrux
budnam
čix
##ə́rtilə
luk̭lə́k̭tax
dulləllóxun
##yánə
ṱuppə́nnan
bə́ggan
davríyy
xup̂
musrəptóxun
tívax
##íləva
##áxot
mubbíyyux
səry
hak̭yánax
č̭ápp
k̭atiróxun
k̭urp
xuyv
lašx
smálax
ʾabuyr
prídan
ṱurṱə́mmax
rm
rázux
zbík̭an
varák̭ax
mag
sáx
zumpə́rrax
##bun
c̭óc̭
zupzə́ppan
xmáṱ
##žbəxx
də́k̭n
##iyy
griv
##útux
palṱántan
lemánux
mugrəššóxun
bərdáy
maxziyyántux
pti
mašyánan
macxánux
lóṱc̭ux
##úmiva
ru
č̭urč̭ə́rran
xrívux
ladanóxun
tuvvə́bbux
xrík̭
##ə́tvax
taxanóxun
xaldiyy
zarzúč̭
yavánan
##paz
ʾalúy
##ə́ntoxva
zbík̭
čəngə́rrux
bədx
sardantóxun
##ə́štan
tanyánax
malí
maxvərranóxun
mašrəzzánux
máčax
ṱal
mamməssantóxun
bəjm
xód
júd
rayy
##áyoxva
##jar
zuk̭zə́k̭tux
mraxman
k̭lə́k̭
munxə́p
zarṱánux
mesánan
mušləmm
maryánan
basim
k̭oyánux
k̭undáǧax
k̭elan
##rántotva
suráy
p̂ur
šəmyóxun
xadránax
yurup
sedánux
č̭á
pardóxun
k̭urums
ʾark̭ánan
zabn
gúšk̭ax
pundə́nnax
##ə́ntəvax
muššíyyux
də́ryax
ṱunṱə́ntux
turk̭
taǧárux
mdən
k̭ə́ṱ
mšarš
šúnn
mapšərránax
šulgədd
##ə́xtola
tlípux
tuxrún
níxan
bərcác
čuplə́n
##daxóxun
k̭arṱánan
ʾalízan
##úxon
pícux
nalóxun
sník̭
mung
muncə́rrax
##yátulə
cúmtux
mušk̭ə́llan
k̭ə́nyan
ṱap̂ṱ
maštək̭k̭ánux
zúrn
bumbuylóxun
k̭imóxun
bəgs
pašyánax
p
luxlə́xxax
##úrələ
gináy
musc
gažžənn
palačiyyóxun
səxva
mašlək̭k̭
nə́sn
túrk̭an
k̭ə́m
##ə́nni
xritóxun
rgídux
mundíyyax
xíyyan
muraxxás
masrúp
p̂lašóxun
##áritun
##ílitunva
##áyən
ʾəṱ
ʾaxlánan
ʾarṱ
xullə́llux
cuštigár
##ántilə
xarvanóxun
burbə́zz
##vəll
k̭ariyyát
mə́xyan
gnivóxun
čárxux
ṱanṱúnux
zrízux
bṱinóxun
mti
k̭azmóxun
yəss
pušpə́š
ʾə́zzux
ʾáǧax
##íyyəva
sodóxun
šurrə́rrux
ctívux
šlígax
##h
húslux
patvá
šlúx
##umétva
hərs
túrcax
mzídux
selánux
ṱanṱəllánan
gamm
mansərrántux
búk̭šan
lcíz
sarídux
jáz
##rúny
k̭ə́rṱan
tubləbbóxun
̂
hurbə́k̭k̭ax
ʾušánux
##əxva
xabranóxun
pərd
macrəzzánux
k̭azdánan
##antét
##unéx
də́ltax
##tétva
##úytovət
ruznámux
sal
ṱárpax
##luva
mank̭álan
ʾarxuyát
k̭ažk̭úž
garm
##úytan
maṱmiyyánan
sel
##uryátux
cə́xva
guzgəztóxun
šarzántux
cúsyan
cəry
k̭axk̭əxxantóxun
##rə́b
xə́rdux
ṱp̂íxan
manxəppánux
##úrəvən
muspə́k̭k̭an
maxnək̭k̭ánux
bíyyan
bášk̭
k̭ərṱop
##ə́ltax
k̭lipóxun
xrixóxun
balbiyyánax
##ran
gə́ppux
čáǧan
mattúy
šla
čelan
magvərránux
##árə
gogiyy
##ə́ž
cəx
šárv
mayr
k̭amxánan
čarpanóxun
k̭uym
xmə́s
pamlanóxun
ṱep
##̄́s
lazz
zar
##lula
tanyánan
pəssúr
mušxə́ṱ
jaryánan
šarsánux
ganyánux
lag
xlím
garyánan
naparóxun
##ək̭k̭óxun
##lanévət
k̭addóxun
muxxíyyan
carpúš
##úk̭in
mbajbəjj
palyanóxun
##rəmm
munp
sənjíyyux
baj
babas
k̭armántan
rpápan
##áǧux
mup̂č̭ə́llux
lk̭íṱan
garúmax
mučyərr
barxánux
cargárux
fcár
majrəpp
lélax
##tuvan
maxbərr
búsmux
palx
ʾak̭úbrux
mazb
##úyətunva
##zux
ṱuva
šunnə́nnux
mădə́bx
purzíyyan
mark̭ánux
k̭urrə́ss
##ə́xy
čalúvvux
mussə́mman
trik̭óxun
pundə́mmax
k̭álmux
srix
xašxášux
##avar
yaləx
mč̭urč̭
mulyə́ss
p̂č̭ilóxun
k̭aṱk̭əṱṱanóxun
ṱuyát
muǧǧə́bban
zumpərróxun
##lə́k̭
suxlə́xxax
mutk̭ə́nnux
šṱík̭
##axl
xó
puxlóxun
mummək̭k̭óxun
musrəxx
cúrcux
lmísan
##əs
hújjax
murgə́ddux
libóxun
bumpə́rrax
duccand
k̭últan
gəryóxun
gummə́s
parpərránan
bazyánan
mcix
mabsəmmánux
##luxva
šp̂ir
šaṱxántux
muč̭cənnóxun
##čiyyévax
sazgərr
búk̭rax
mutyə́v
##líyy
muncə́rran
k̭adšántax
muṱyəxxóxun
xanyanóxun
darrənnan
láš
čayni
búyṱ
bənh
ntíran
ganv
tark̭antóxun
šúlk̭ax
muk̭š
masṱáp
##ə́ltilə
turxə́ssax
hurdə́k̭k̭an
rxíš
manóxun
ṱunyát
cəvyóxun
xp̂ik̭óxun
xurxə́č̭č̭
nṱir
yatv
k̭uṱróxun
##ə́m
##danóxun
ʾarbəṱṱ
##rə́tla
garg
##k̭ova
məptax
gmíšan
calámux
ʾə́zn
dáran
k̭uxóxun
pə́tlan
##ump̂
##évalax
gargəmm
məšx
luccə́nnux
##əsténva
čumčə́mtax
hum
bazz
k̭dimóxun
davl
k̭álax
nol
##yánot
parsənnánux
tvín
clám
var
xurxəṱṱ
k̭úxux
nk̭íšax
šə́psux
láman
ṱalánan
xoṱánax
šníz
mač̭č̭iyyanóxun
paytáx
##ə́ntu
panyantóxun
munxə́ppan
gubbúc
lulə́ggux
##ola
mútvax
doxánux
jum
pə́rx
munpəll
xusxə́ss
##ítivan
nxílax
muccə́mmux
šupnən
##ríyyax
supləpp
pak̭dántux
galgəllánux
##ss
##ub
maštuyóxun
šap̂ránan
šupləppóxun
úy
xampóxun
lacxánan
nan
ṱullə́zzux
##ə́xxan
yulp
k̭aṱmənn
ʾoj
##loxva
k̭álman
tayb
rísan
k̭uṱm
xalpanóxun
maṱbúyux
##rutun
parziyy
jalxanóxun
xuzdə́gg
lak̭ṱánux
xsiróxun
##ávət
šaṱyánan
sidóxun
##ah
hadránux
muč̭məč̭tóxun
##zax
zed
mušrə́k̭k̭an
k̭úypux
xət
címux
##úyuvət
ṱuvvítan
gazránux
mardərr
muč̭cə́nnan
gdipóxun
gilásux
zubbə́nnan
pandəmmánax
buránan
jargóxun
puvv
muxvərróxun
ʾut
mammud
##ə́ntivət
mupat
##ztóxun
həndav
ʾávan
mə́š
##inva
##anúytux
pušpə́štax
##álonva
bsə́rtux
##áyunva
nə́dy
mašməšš
zuvvə́jjax
dussak̭óxun
tak̭óxun
##ə́nnitva
xanyánan
muč̭č̭əmmóxun
buk̭árux
dk̭írax
k̭aplóxun
nírux
šamb
##íyyovat
##ə́lluna
rezín
púšk̭ax
lúcm
ṱərra
nṱírux
tfik̭óxun
balúṱan
mazm
darbənn
##vəxx
lusləss
raxúymux
maccúš
čalx
mamúnux
ṱaryanóxun
muxlə́ppan
ʾabárux
baxránan
k̭ráyux
##vəss
##étutun
ʾare
baṱlantóxun
gan
míz
lungənn
murgə́ddan
baxxəvvanóxun
##ə́lva
##ə́xtuvan
##epóxun
##əvvóxun
##ə́llətunva
##étivat
##ə́ltivax
##nak̭óxun
##rə́ttan
bənnávrux
partəllánux
čarpár
##úruvən
p̂ə́rṱax
munpəllóxun
macsəllanóxun
sk̭íṱan
mugniyyóxun
háč
tamməzzanóxun
maṱmiyyántax
sumb
##ítitun
zrə́k̭
mušxənn
mupšíyyan
##tək̭
ʾáv
##nax
ge
zə́b
##lanétun
nk̭íšan
munšuk̭
júrran
mumməzzóxun
nk̭írax
k̭urdáy
puxl
vən
zon
šp̂ílan
mč̭urč̭iyyóxun
##sux
víd
zǧíd
##íjax
bərxám
búk̭lux
puvvə́rrux
bərrə́nč
brítan
##ə́rrolə
maššiyyánan
pusp
šp̂ílux
prix
ʾurusnáyux
bək̭ráṱ
nak̭dánan
muccə́ssax
##urč̭
ṱxínax
xup̂xə́
prə́s
šalaš
rodanóxun
clí
surgə́dd
##adóxun
##áǧax
e
nvir
my
zlík̭ax
muhníyy
maxvərr
##árənva
jarúb
šalgəddánux
sarṱánax
páv
məryóxun
##əštéva
xúyux
ʾəcrám
muxm
rod
suxbə́rrux
vacc
gadpánan
varvərránux
cal
##íru
pasyantóxun
murdə́rran
gúšk̭ux
šaríṱ
##ə́xtutva
##ítinva
k̭ərnác
bədváran
šír
##úlolə
bəcn
smuk̭óxun
k̭abáran
cš
bak̭buk̭óxun
muǧǧəb
zoduny
mapyúš
pašpəššántux
k̭uzzə́ddax
jammiyyanóxun
musk̭ə́ttux
cərtvártux
xundə́k̭k̭an
p̂ak̭k̭
ṱamránax
səmyóxun
ʾəštáv
duvalak̭báz
hun
k̭álan
tapyántan
bambəll
rək̭
##úləvan
najjárux
lízux
##úrən
##ádta
bəctár
##iva
##iyyévan
bəmyás
sk̭úrax
mamṱiyyanóxun
##átəx
mušm
mí
zarzərránan
jas
##lívalə
xmik̭
mašməṱṱ
muccəmm
savvənnánux
gáll
bak̭lánan
cučlə́n
##úynux
##váx
##uyévət
čalúvvan
ʾaxunva
k̭annəš
saṱmánax
##úrixva
trík̭an
malvúš
rə́gyux
##étun
tívan
##iyyántan
##rək̭k̭óxun
lák̭k̭
bašlanóxun
gripóxun
hurdək̭k̭óxun
mupšə́mm
k̭aravát
zmir
##ə́xvalan
k̭ixóxun
malpanóxun
saxyanóxun
ṱuvviyyóxun
mammərránax
sār
gúdyan
##ívət
nəmcáttux
cab
bək̭y
##č̭əxx
##yétva
pənnárux
##élax
naštáran
bángan
k̭almənn
k̭avvəllánux
mucrə́bbax
k̭uṱrə́n
xaruz
garvús
vacəllámux
barbərránan
p̂líš
mupšəṱṱ
##lum
saṱyánux
šahíyyan
##átəna
ʾodánan
zəly
nsəvtóxun
nə́d
láccux
cəp
hudr
xúrg
tk̭il
sṱ
zannáyax
ʾúryan
ʾarman
šupšə́ppux
duldəll
muṱravá
xuyád
štavhúrux
gərván
pəsy
bulmə́llux
šucləccóxun
p̂ul
zlúmyux
lvíx
ʾúxlux
xə́ly
k̭úč̭an
k̭íx
mámm
muxbərróxun
syívux
k̭eybatcárux
tpík̭an
tamməmmánux
##uyénva
##rə́nvalun
ʾamlánux
##ítolə
masyəvv
maxrəmmánan
pušíyyux
lutləttóxun
##əllántux
napúsan
##íyyət
malpánax
muxnə́k̭k̭ux
mburrə́nnax
čárj
malpiyyánux
msuzgə́rrux
tuvv
šuryóxun
īxva
maṱr
hak̭yáttax
##ántit
barúx
ṱumš
malóxun
mušníyyan
daldənn
##unnux
gazgəzzantóxun
tvínan
##álila
tápax
mənnóxun
##yá
lúc
mutyəvv
muxóxun
lumlə́mmux
k̭adx
##iyyátan
zə́dyux
ʾoy
sabranóxun
napx
šxúm
##iyyátlə
šxín
k̭abanóxun
ṱv
##əstétva
mak̭k̭əššánux
ʾastrely
tabyánux
galyánan
č̭ak̭úr
##yátutva
madvək̭k̭
nullənn
##ə́ddax
šṱixóxun
vulvə́llan
##ə́šloxun
múcs
gaddíš
ʾabúk̭
bə́rk̭ax
xlímax
čelánux
dúmǧax
payt
##cul
sə́ṱy
goránan
comac
žǧíšux
mudmíyyan
zídax
davlačíyyux
zalpanóxun
pašpəššantóxun
šáv
šulṱiyy
turbə́nnax
baluvvan
bəlyóxun
k̭opás
mə́nnan
bavas
supróxun
babavatóxun
k̭ərṱóp
xasxánux
k̭ač̭č̭
k̭axk̭
k̭vílax
muprəxx
tumbəll
##uménva
##əxlə
##ir
répux
basúran
##adéva
čacúl
patyanóxun
núyr
bajbəjj
bəmp
cux
pə́šš
šcuravá
mujjəbbóxun
prəstóxun
maštiyyánan
garv
xuld
xalpánax
diván
spírux
mə́lyan
šanyánax
ʾərxavá
xalxəll
ʾulay
muṱṱə́nnax
zíran
ʾaxunvátux
pšítux
ʾarmanəs
rdíxux
##rəbtóxun
maróxun
facr
mučrə́x
naṱúp
##yátvalan
mupšə́ṱṱux
##tél
murcə́vvux
p̂lášax
tanúyrax
dabləbbánux
k̭abánax
yalyan
k̭ubbux
hey
##átutun
suṱləṱṱóxun
tópan
mugx
ʾambárux
ʾə́p
gargár
k̭alyúyn
durmənnóxun
##ánovət
jalalíyyux
ʾurzə́nnux
ṱuppənn
##írila
##úytolə
vírux
cocóxun
tamtəmmánax
šuclə́ccax
npíxax
popax
##yátix
##úlotunva
##əntétunva
xurdíyyax
bəšrác
##ar
č̭em
gdíp
šurrəccóxun
taptəppánan
xə́c
cxílan
k̭uk̭óxun
tanyanóxun
č̭ungə́rrax
gúdyax
##ə́mtət
zariróxun
ṱri
parčənn
darvá
carbánux
xə́nyux
macsanóxun
garvanóxun
muṱrə́ssux
##átta
šannənnánan
sedánan
k̭ud
ruprə́pp
yaxsírux
patlanóxun
muccəss
p̂ə́c̭x
dlípax
##nét
čak̭čák̭ax
royánax
zardač
msazgərr
xánax
bi
nə́zrux
bəpšáyux
surrə́p
##úrutunva
rdixóxun
maxjəllánux
##miva
č̭ambərránux
batmánux
zardənnánux
sálmux
##təšš
sərs
racáv
marmánax
murrəšš
k̭azzabóxun
bək̭ráx
##ə́llina
xáčux
líban
ǧlibóxun
k̭arúsax
##mənn
nə́vyax
maštúy
##otunva
k̭ablanóxun
cə́pn
busmənnóxun
mak̭k̭áš
zarzánan
mudmə́xxux
k̭úlpax
čumbə́llax
gúlyax
##yatévan
mardəxx
##ítunlax
yalóxun
mumxíyyux
muxbə́rrax
fayṱ
ganvantóxun
gdípan
túrsan
k̭ub
sk̭ídan
bəmráy
mašməššánux
gungə́zzax
zavvəjj
zmícan
ṱappənn
cəss
muš
čuk̭
catrənn
##uxtóxun
šibavátan
xə́gg
caláman
ducdə́ccux
zarbənn
ṱup̂p̂uryát
cnušyát
##ləvat
hayvənn
mubsərróxun
dəxyóxun
zarzərranóxun
buk̭bək̭k̭
##írivat
zuxmənn
zun
mužǧəšš
burəxtóxun
baxánux
shidóxun
šah
maššiyy
buran
k̭ark̭árux
mak̭ṱəppánux
##yántəvət
mupyə́ššan
nák̭šux
zə́lyan
##úrət
galyánax
bənsávan
məlláttux
##úrovan
xašxáš
mcurmə́xx
muzyəddóxun
tušməššóxun
##rə́ptan
xurxə́č̭č̭ux
gamməssánux
muk̭ríyyan
sríṱan
##ə́ltan
ṱayús
suzgə́rrax
cúmux
šúb
šarícax
##úroxva
majgun
mardənnánux
lís
zangərranóxun
##ə́nnar
##ə́mtitva
##untén
muk̭yə́nnux
švírux
nak̭dánux
muštə́k̭k̭an
cišóxun
##yənn
k̭an
##saxóxun
mak̭k̭ašóxun
dvínan
sursərróxun
parúš
k̭azdanóxun
deránax
štuv
laglágan
xadyánax
šuxx
xtímux
nšípan
##úyti
##ušyát
dalap
##ə́xtinva
čak̭mák̭ux
paml
púslux
jarím
mup̂rə́mman
##ántula
sarxánan
##áyəvət
mup̂rəmm
zn
búlax
puk̭
caráz
pak̭
taxmənnánux
pə́nyan
##bóxun
##úv
lək̭
bərvánux
yárxan
tur
bullə́ssan
raxrəxx
xyaván
masipánux
sl
musnənnóxun
sp
calə́b
dálp
##ə́xtəvax
našún
mid
mummə́ss
junjə́rrax
ʾidatóxun
mutlə́xxax
módan
tapxantóxun
par
pə́ryux
ṱp̂íxax
šak̭úlax
bəxráy
musnədd
šviyy
k̭urmə́ṱ
burbə́zzax
k̭rəxtóxun
ʾək̭
bəbráy
##áyətva
nšíṱux
##únuvət
xuyvə́nnux
##ímunna
##íyyuxva
zurzərróxun
mulliyy
sə́pyan
##yántotunva
ṱrip
vasílax
šark̭əpp
##əpnóxun
durmə́nnan
dul
xšiv
davúlan
xp̂írux
mašyəllánux
##yánilə
gumbáz
##ə́rrətva
##ədtétva
k̭úllan
xupə́ṱ
k̭armantóxun
##mm
##ləx
muk̭k̭ə́rrax
muhniyyóxun
bədr
bašílan
yarxóxun
čančəllanóxun
##ə́xvaloxun
majrəppánux
talpánux
##ís
gubg
ṱo
buxt
map̂č̭əllánan
muǧǧəbt
də́mman
bašlánan
ṱit
zurə́z
##íxəva
míj
ʾuyvə́nnax
##yánlux
ʾuldiyy
mačriyy
gd
xaznad
yácc
ṱumr
k̭ašk̭úš
calbatúyn
##ərtét
pasúsux
ʾabas
muk̭rə́xx
ták̭an
##ə́rtovax
p̂alúšan
šríṱax
bádlan
gumšóxun
muštək̭k̭
dabləbbánan
səmbuyl
zəvva
darzíyyux
mé
##úyrax
##lət
##ímunloxun
##áyolə
bn
ʾassas
##ḗt
najj
gamg
šacránan
##ač̭óxun
mak̭k̭ərr
bəxváš
c̭urc̭ə́rran
ʾərbət
maṱṱəttan
munxəpp
jríp
məššəlman
jarjárux
##ula
tumməzzóxun
muxvərr
##lévax
búrjan
čacmačíyy
purtəxx
gvílux
##átət
##lijóxun
buṱlóxun
yart
bsaróxun
mátlan
zlípax
raxušóxun
cálb
baltačíyyux
č̭ənna
tabbár
mač̭múč̭ux
ganvan
magra
ʾalúlan
šuk̭šək̭k̭óxun
surgun
xaník̭ax
yamm
šurrə
##úg
gužžə́nnax
nk̭
##ə́mtin
xazád
muṱlí
mač̭məč̭č̭ánax
muhn
mangírax
šak̭lə
k̭ulínax
##úytovan
xúl
##ərtétunva
č̭ángax
darmənnánux
##álit
laš
šulpóxun
ganvanóxun
cučlənnóxun
##ə́ltovat
tunyóxun
ṱíman
tarva
xmaróxun
č̭əll
bəxd
sak̭alóxun
luk̭lək̭tóxun
ʾarmílux
lə́b
šətk̭
murpíyyan
hard
muhníyyan
k̭ark̭ərr
zah
xuzdə́g
cullún
##ə́rrix
##yanén
šuršə́ṱṱan
ʾurxačíyyax
cax
##ílila
k̭rə́m
baʾ
marp
lvəš
mučrəxx
k̭anunóxun
zalyanóxun
k̭aravat
bila
ʾaǧáj
mahn
zmicóxun
mayyánux
ʾap
bəṱvayóxun
gvixóxun
mídax
mašk̭əll
zárr
šacšəccánux
smik̭
xačóxun
##úməva
k̭áx
##uṱ
k̭arxánax
nazránax
tabyanóxun
xašxášax
dánn
mumc
carván
čeránux
nak̭k̭ášan
xúblux
gurvə́ssax
plixóxun
##áč̭an
manš
k̭ənnát
mušpə́xxux
mamməssántux
palṱanóxun
ʾul
##əgg
č̭ənč̭
bó
maǧnat
##tit
hagyánux
##ə́xtot
##ə́k̭tətva
bəgláy
masyəppánax
dak̭ta
##ə́ccux
dos
ṱoyántux
sarád
ʾuml
##úyuvan
šamáš
ṱə́ṱṱ
k̭údš
k̭aruṱóxun
sursə́mm
xazíz
xrík̭ax
navə́g
varazánux
taptúp
durdə́k̭k̭
mašp̂ərránux
napusóxun
##ín
muṱmítan
púrk̭ux
catlənnánux
##əllántan
ʾə́č
burə́c
dam
munpə́llan
##rivax
p̂urṱə́c
mabbúvv
gədd
paytáxtux
bəsrápan
mac
xlís
##č̭xəč̭č̭
pašpúšan
šə́nyux
maxr
ṱapp
p̂azp̂əzz
k̭ə́ṱyux
bustiyy
##tíx
laxləxx
p̂up̂
šurk̭iyy
##ə́rtula
nčilóxun
madənx
munyə́xxax
tuntəss
tantəssánux
k̭árǧan
hacmánux
tvinóxun
č̭árč̭
ʾurzə́nnan
##əxtél
##ə́xtəva
xalsánux
cárb
##ánovax
k̭azzədd
busp
tuntə́nnux
búnyux
mutrəssóxun
muscənn
záp
##k̭ux
gúryan
muttáccux
##c̭ux
xicóxun
muly
map̂rəmm
##ləxxóxun
##vəntóxun
buṱ
nə́hyan
šlík̭
##árəx
xuddə́t
p̂ulṱə́c̭c̭
muzzóxun
xə́myan
##úxtax
duc
mazzúz
zark̭əṱṱ
tə́nyan
daxyántux
cárran
mburrə́nn
##ə́nnəvan
carám
sarrajóxun
k̭uṱúr
##əllun
ʾixidáyux
##íb
sardánux
zurzə́rran
daldúnan
púc
banyantóxun
xadxízux
k̭əmyóxun
zetóxun
ṱə́vy
k̭aló
##rántətva
purpə́t
gəddíšux
camil
payyantóxun
naṱpánan
##únovax
mušniyyóxun
núk̭zux
##əb
maxpiyy
doránan
##allənn
laglágax
lu
mugvəllóxun
##ə́ltotun
səmtóxun
raxšantóxun
mak̭š
k̭arm
maxxúy
gabban
tapuvván
balbáṱ
ʾáps
šuttə́ššux
sap̂sánux
salmóxun
muk̭rəṱṱóxun
p̂am
ʾayv
maštúyan
jvank̭
##últux
dalánax
##ṱún
purpəll
gəsyóxun
zak̭zúk̭
bəblás
gvir
darčín
xuvváv
xeláp
cət
##úk̭ən
nsírux
maxmək̭k̭ánux
##úšiva
##yánəvax
##astóxun
##álona
murxəššóxun
##ídan
zampərránux
##ánutunva
mrídux
xumy
dáš
šuddə́nnax
zin
sahattóxun
masálax
cačlún
šuxtə́nnux
salóxun
mk̭
gurgə́š
mom
ṱammənnánux
k̭yáman
žaǧš
##úyənva
hám
simax
šnə́z
xərdóxun
k̭eybatcár
zā́
canšánux
k̭arív
xrívan
prixóxun
##upéva
pak̭dantóxun
k̭urṱiyy
pə́s
zoyánux
xoravá
##árona
dáy
taš
k̭əš
plix
##ə́ttoxun
čungəll
nzírux
sə́ryax
šúlk̭
##gg
pudrad
k̭ey
bək̭yád
ʾān
šk̭
zampərr
p̂uzp̂ə́zz
xtíran
mulh
bəpš
##ə́nnulə
muzmə́ṱṱax
lak̭lək̭k̭ánax
ʾabris
carduvá
šalxanóxun
xalvánax
čangálax
park̭antóxun
č̭anč̭ənn
##ílova
xupṱóxun
mhúd
sk̭ímax
hag
zur
##ul
##ləjtóxun
##ə́vali
č̭ak̭k̭
##ṱc̭
ǧlə́b
xunzə́rrax
xtímax
musafər
##ítən
##lin
sark̭ánan
##ítunnoxun
##úyə
mamməllántux
##xat
guš
maxlúṱ
suxb
mardánan
##árətva
mummədd
cipóxun
xluy
susítax
##ánəxva
ṱlí
turšənn
šep
##šəpp
sə́ryux
hujjəjj
gulg
ʾabárax
##úmut
ṱāl
sál
k̭íman
##č̭č̭
munpə́ssan
xap̂
ʾark̭əllánux
bšilóxun
putpə́ttax
##šəm
curməxxóxun
burbə́rran
k̭áṱvux
gandúlux
ʾaxunóxun
##əcc
ʾaxmaǧ
šaxrún
tvínax
blítux
##ə́z
mulxə́mmux
vulvə́llax
jrídax
čarxóxun
málax
musviyy
bəgb
čumčə́mmux
##tuvət
tizáb
xubróxun
buk̭račíyyux
bədyóxun
bək̭n
gi
pultə́ššux
baz
trísan
bušlún
šak̭š
munyəxxóxun
##ayóxun
##tivət
##áyovən
baxranóxun
##ə́lluvan
patpú
hurhəmmóxun
k̭avv
xazdúg
vaš
k̭ulmə́nn
k̭aṱúntux
##lévat
č̭ulč̭íyyax
hujjə́jjan
cusíyyax
bazə́ccux
špíxax
##úyol
##ísan
gmuryát
ʾús
ʾárz
mdarv
##k̭óxun
cúxv
ǧlíbax
purpə́ttax
ʾaliz
##yántutun
xoránax
mət
búsm
bəlk̭áṱ
šlíxax
##ra
mucrəzzóxun
šoṱóxun
ʾasbábux
húgyux
k̭admántux
##átuva
puy
mujyərróxun
xarab
##árətunva
xandak̭óxun
xvə́ṱ
gasyánux
##ə́rtətun
mubyə́ttux
ṱizóxun
##úxux
sə́n
muryə́z
lumləm
cəlpáttux
bərvanóxun
čurə́tmux
##ə́rtit
##étan
masip
gárdan
bala
##ə́rvalux
bélčux
##runva
xaməšš
p̂ačc̭ənnánax
ivət
p̂ačc̭ənnánux
šurrə́cc
##la
bazə́ccan
šríṱ
##əltéla
šavvəttan
k̭aṱlántan
ʾaǧ
masviyyánux
##ə́k̭li
rapyánux
cámrax
k̭aloš
šə́tlan
muscə́nnan
bə́zy
##yávalun
bt
griš
##úrol
mak̭nəzzánux
maṱṱənnanóxun
lamṱóxun
búk̭lan
dástax
ṱlibóxun
bək̭vá
mumyə́ttan
k̭exánux
##úxotva
bək̭ráxax
páyd
k̭avr
sánjux
muṱṱə́nnux
čub
##ílənva
burṱə́nnax
baxr
xušcə́nnan
ṱáp
bšil
mangíran
tuvvulyát
##uzén
##áron
bək̭yám
##č̭əpp
raxšánax
ʾoyunbáz
##unvá
cpírux
k̭ex
xepánux
jríṱ
parziyyánux
k̭amč̭
parṱánux
pavaróxun
dvə́rtux
salyántax
##ə́ll
muštitóxun
risóxun
pašk̭ánux
##ə́llinva
##lə́nvalə
##úsux
##iyyétva
nazránux
##yántə
dušdə́ššan
zuvvə́jjan
xandák̭
simóxun
duǧǧ
k̭dixóxun
hasíran
grə́s
muzbəttóxun
muvvədd
hummə́nnux
sapk̭ántux
k̭úd
camánčux
duyk̭ənn
k̭ə́lyax
##íyyənva
júlxux
ṱə́ppan
galdúy
láxmax
maštiyyánax
zək̭k̭a
šrə́ztux
##əltét
mak̭rəṱṱanóxun
vurvə́rran
pasxánan
##álə
xušavóxun
mupsəxx
majrúp
jand
barríyyux
juvvə́ṱṱux
rxím
ducdə́c
rximóxun
malə́
##əvyóxun
sáll
loǧ
##úsova
##ə́mton
tuk̭t
##aš
k̭adálux
mup̂č̭ə́llan
##rač̭óxun
galyántux
ṱarbəṱṱánux
ʾáyn
sádax
rí
samk̭anóxun
rəx
mamc
ṱítax
č̭angərrantóxun
šuny
##ímunlə
muxrə́vv
bo
dušdəššóxun
milóxun
gə́d
lac
príšux
##ánəva
##rántəla
patar
búṱlan
cur
mə́t
maṱbiyyánux
##ə́k̭tit
brisíman
mumlíyyux
xayvənn
jajíc
##yatévən
č̭anč̭ərránan
mascənnantóxun
ganduláyy
##yántutunva
suvvá
xacm
mhad
pux
bašk̭áb
##atténva
šalk̭ún
xullə́nnux
hanh
ṱunṱəllóxun
mačxántux
k̭ayyím
muṱliyy
šuxxúr
ṱappənnánux
munxə́llax
##cam
##k̭anóxun
mač̭r
ʾəʾtu
dín
burrənnóxun
k̭aṱúlax
nis
musyə́ppan
maṱbiyyántan
##úlilə
nak̭k̭ašc
šabbíbux
##úluvət
rak̭rək̭k̭
hayv
##ə́njan
mapšəmmánax
xát
msazgərrántux
záǧ
príman
pul
muk̭rə́v
žǧúš
vuk̭və́k̭tax
yáyax
ʾupr
muráxx
zarzərránax
tanx
gəs
##ušét
bulbəssóxun
jvánk̭ux
juvvət
bsə́rtax
čə́zvux
ʾə́zzax
xalvanóxun
mušlíyyax
mz
sṱírax
sayvánan
xaṱránax
dayk̭óxun
##ə́dy
ṱmírux
musmə́k̭k̭an
ṱup̂p̂
##ək̭ténva
k̭ulmənnóxun
##itéva
##yatélə
mə́rzux
šuxrənn
šúryan
parušóxun
šət
curáx
jardanóxun
múššax
##əm
zárbax
čuk̭čə́k̭k̭an
camrántax
##ílo
gašk̭ánax
fár
ʾəpyát
šlə́ptax
purpə́rran
manzəllanóxun
xník̭ux
k̭azzəddánux
##ídax
hurhə́rran
šuk̭rə́k̭k̭ax
mummərróxun
calbóxun
##uny
##olə
sed
xəltóxun
##ítila
črizóxun
##vazóxun
rek̭ánan
##yámax
zalk̭
marrək̭k̭
gavóxun
čed
k̭iš
garšánax
tórux
mandúy
mudyə́llux
hujjə́jjax
hábs
##č
xarvánax
ʾayvənnánux
štuvh
##p̂
macvəč̭č̭ánux
deráyax
##ə́ptux
šə́p
bəpk̭
tanapóxun
muttóxun
mk̭aṱk̭əṱṱ
##íla
##p̂p̂
muzliyy
maššəššánux
k̭bílax
ləbbás
muṱy
našránax
toriyyóxun
las
šalk̭ántan
pə́ly
##írula
k̭ṱə́p
muppə́xxan
fayṱúnux
##ánlə
ʾamagú
mubrəxx
ʾuyvənnóxun
gármax
bəsyamóxun
mə́šyux
xulxə́llan
munšíyyax
pum
##ánvala
ʾangóxun
šríc
gvə́ltan
ʾər
turk̭ə́llan
ṱulləzz
zúrnux
hasírux
##ə́rtuvat
massəmm
##úytuvat
musk̭əll
bayəscílux
rózux
nxip
nadə́t
sak̭óxun
##manéxva
tuptə́ppux
tuybə́rrax
nati
ʾann
húcman
zuczə́ccux
muk̭yə́mmax
xúblan
muccə́ppan
púk̭dax
##ítunlan
mup̂č̭ə́llax
sáv
bṱílux
čulləšš
mubrə́k̭k̭ux
pardúvvan
bə́lyux
suk̭k̭ə́ttux
c̭urṱ
bdílax
ragyánux
xap̂ranóxun
maṱbiyyanóxun
nziróxun
ṱurb
gz
xšíxux
sən
mumrə́llan
##ayévat
murxək̭k̭óxun
júrʾat
##ʾát
k̭amṱánax
ʾustó
k̭dálux
be
##áxon
guzgə́zz
c̭ə́č̭č̭
bəlx
lk̭íṱ
k̭aplánan
tumbəllóxun
##əntélə
tarsiyy
##rəvván
k̭ašóv
suplə́pp
##rántonva
k̭urmə́ṱṱux
ṱəvy
mburx
suk̭l
masxaračíyyan
p̂urṱə́ccax
šibóxun
##árəla
bəšráy
jrə́d
##ənk̭óxun
##íluva
mamunvá
##ə́rtəxva
šálax
gəglóxun
saribal
muk̭ə́d
tápan
gamíyyax
k̭arúsan
maxrəvván
č̭ed
bəgráš
casyantóxun
lumlə́mtux
jassəss
šotap
muxmə́ssax
maxrəv
##ə́nnuvat
masməssánux
dussák̭ax
k̭unṱópux
##áluvət
mummiyyóxun
šra
halhəllánax
búxrux
##əltévən
mumcəxxóxun
milal
ʾatliyyóxun
fars
magniyyánux
suxləxxóxun
burbəzzóxun
rajm
xák̭
##p
turšə́nnax
brisímux
malc
gargəššántax
bəsvá
šabxánux
muč̭
xámpan
č̭uc̭bənnóxun
##áyət
mujrə́ṱṱ
mor
súrgux
##anéxva
šviʾ
naznúz
muss
ʾə́šk̭
xublóxun
príd
##ə́rtəvət
turtəxx
k̭urk̭ánux
k̭ažk̭
numm
mə́j
payyántan
masyərránux
mutp
marróxun
hambálux
xandácax
p̂uč̭p̂ə́č̭č̭
cállan
k̭arṱanóxun
##əššóxun
šupšə́ppan
tulməddóxun
jummíyyux
dənd
parsánax
bəgválan
ʾábur
k̭ésux
práṱ
yúp
purtə́xxax
##uzét
dak̭ránan
našuytóxun
ṱə́ryan
suṱ
mašviyy
gdíšan
badánan
č̭ambərr
mayánux
##rə́zz
mesántax
í
k̭anyanóxun
xrizóxun
yask̭ánan
sem
teránan
gapgəppánux
saxsiyyánan
cx
muxjə́llan
dalápč
haccím
ganjápux
##uyévat
pəšcášux
##úp̂p̂
mup̂lə́ššan
##yántuva
pumpə́xxan
šarrəccánux
balúṱux
beb
maləc
mcur
yárk̭
ṱə́by
bujbə́jjux
badránan
laṱṱənnanóxun
xayáṱan
##unyatóxun
laxum
muxmək̭k̭óxun
zíd
numnə́mmax
mapšərránan
dak̭ránax
č̭arč̭iyyánux
gurrəll
muṱṱə́ssux
##ántux
gúš
##acóxun
pšímax
mak̭k̭əddánux
##anétva
##ə
zang
dak̭ík̭ux
malv
k̭uždərróxun
naxmantóxun
##rəll
váz
pšix
muxšəll
##rula
bərpáyan
k̭uždə́rran
díšax
zmiṱ
gə́zm
ma
muxrə́mm
caculyát
zurzóxun
nsir
k̭aṱp
##étut
k̭azzábax
##vá
xz
xoyanóxun
túy
mə́xyux
šamág
curhənn
mašrək̭k̭
xatmóxun
búrxux
mussək̭k̭óxun
ním
yə́m
prə́ṱ
mavvúd
mubsə́mman
##íp
c̭aré
xazdəgg
##rəxxóxun
##ə́rronva
mactəvván
##áritva
##ə́rtotva
ṱəzt
##áṱux
zə́llax
##yánətva
dəx
sarráj
garmóxun
páršan
##́n
maṱriyy
##úytotva
šamagóxun
bə́rṱux
xulləll
ṱanṱənnánan
hurárax
##úytova
mutriyyóxun
hunhənnóxun
sursə́rran
##ə́tlə
##bb
č̭arč̭ərrántax
cə́n
muvvə́d
pə́tlax
mujrə́ṱ
##lavatóxun
šə́mm
vídan
šídux
mup̂ṱə́xxan
tobacar
xúyax
##átəvat
talmídux
matxanóxun
naṱup
bəšp̂
g
rə́mtux
##tévax
mulyə́zzux
nk̭ir
p̂c̭íxax
ʾáyvux
gazmánax
musn
bəgvál
məsrək̭
##ə́rtitunva
šərmóxun
mír
dávux
##ək̭lax
k̭umbə́ččax
bampúr
##rim
##ənd
garr
murdə́ntux
nim
mutrí
jə́ry
##lixva
##yətt
sp̂ir
bayt
šəlg
raprəpp
##ə́rtova
xzəm
k̭ə́vyux
numnə́mm
toxm
ʾábbux
##rə́tli
mrík̭
xúyan
buk̭bə́k̭k̭ax
##ašéva
bunpə́rran
haccímux
ri
baxránax
##áxlə
##ə́stan
gila
jalxantóxun
k̭aṱlánux
carazóxun
bsírax
xónan
xuprə́ccux
báǧan
šaríṱan
masxərránan
##umét
##íyyivan
##ítot
##ulb
mak̭vəxx
mə́stan
bənyattóxun
##úləvax
buṱrə́n
muprə́x
cúrs
mak̭n
bəryáman
bəp̂láš
grísax
mašyəppánux
k̭amyánan
xabránan
múlux
ʾil
čangəll
zux
prak̭
k̭alp
p̂láš
daxyanóxun
curmə́xx
##xim
dabləbbánax
hammənnánax
saxsiyyanóxun
k̭ə́my
curp
mucsə́llax
yrítan
bəšrazóxun
carpəššánux
yarránux
zigačíyyux
k̭ə́b
k̭állan
xašxánax
bəšn
bəṱyás
gúl
turmúy
bsimóxun
##yəva
lmís
cif
nək̭k̭át
parpəttan
mujjəbb
##arúytan
gúll
sə́nyan
mutrə́ggax
k̭əšyóxun
báxtax
##pək̭k̭
##átilə
jardánux
muxzíyyan
##uréna
sinóxun
dagaltóxun
jabb
zunbə́llax
čidóxun
santimə́trux
spik̭óxun
gannánux
mtílux
mubrə́xx
gúy
mummə́xxan
bəcl
jnivóxun
##eténva
sak̭l
šrə́k̭
##ə́ntivat
líšan
##ad
##run
mdúb
mulpiyy
šallak̭
šaršərr
bayís
##ək̭li
cavút
durdə́žžax
mísan
cəpn
bam
jiyyóxun
##əryát
mumyə́t
mgumbə́llan
səpp
##ə́rtənva
k̭aždərránux
haz
víyyan
mušlə́m
ṱloxóxun
nób
gami
##ə́ddux
bə́lyax
zan
šíc
šp̂írux
mumməzz
scínax
##létunva
##lə́ntax
##yáto
brə́k̭
cə́rxux
səxván
##ítol
mutrə́ssax
##yátuvan
xatránax
muč̭ríyyux
zuziyyóxun
xalvanáyux
ʾarr
bəxyác
xušcənnóxun
basmənn
mugrə́ššan
gəm
bíyyax
luccə́nnan
slí
maṱyəpp
##tanéva
k̭ičíyy
načlánux
masáll
buranóxun
##átivən
dárǧ
##ə́ltut
júmman
##vali
xoyánux
marv
##úp̂
##dax
pušak̭óxun
ʾəstifád
k̭altaxs
canóxun
xúr
dvík̭ux
k̭árǧux
rabb
hálv
məštaʾl
munšərr
muddíyyux
musrəxxóxun
č̭anč̭ənnánux
##ílovət
##áluvan
##əvvánva
##ulyatóxun
tulmədd
čarág
č̭ə́myax
mgundəllóxun
šap
muxrə́mmux
k̭urránux
muxyə́mmux
xamp
rj
baǧván
radx
k̭
marəs
##ə́xtovən
yaxč
zalmánux
šaṱxántan
jurbóxun
ṱxínan
sómax
xalpánux
ruppiyyóxun
xélux
mgurv
savunvá
šamšəmmánan
ng
č̭upč̭ə́ppux
zəry
ʾə́š
ṱašyánan
pávax
tamtəmmanóxun
xužbə́nnan
k̭urdáyux
ʾabád
p̂əc̭
##yánan
##úyən
purdə́nnan
ṱunṱə́nn
palačíyyux
##yánvalə
##yátot
ríyyax
##áyila
##xtóxun
šlámax
pəšyóxun
##rəs
ʾijarad
jav
bəšráṱ
##iyyát
manyánan
vazvúzux
##étiva
ʾángan
hoš
mucc
p̂uč̭p̂əč̭č̭
saṱmánux
racávan
##évan
##létva
mcurməxx
č̭ə́lpux
##úlola
sapk̭
camcəmmánan
bəgnáv
##yántəvən
mussə́k̭k̭
##ərtévax
yemíš
bəyyák̭ux
ʾurvóxun
##xət
pašxánax
mak̭k̭ədd
k̭áttux
ragyanóxun
ʾəšc
zabṱənn
hurə
huk̭
muk̭k̭ə́ššax
##uyétva
##vuxóxun
pak̭úd
gardúyn
k̭állux
nčílan
sríxax
mammərranóxun
##pén
k̭arutóxun
yarmánax
ṱamšantóxun
də́p
̄
murdə́nnux
mučy
šaryánax
varák̭ux
##unéna
##rə́d
vuzvə́ztan
nsiv
k̭elank̭úš
tpítux
dában
gamíyyux
mdurvə́dd
dárǧux
##ásux
##úrətva
céc
sap
capránux
jvan
gə́nyux
sp̂írux
##minva
majyənnánux
grívax
slibóxun
nšík̭ux
k̭úl
##ə́švala
##əššá
xarxərr
tálg
k̭urk̭ə́ṱṱ
sáyn
muk̭rə́ssan
balabančíyyux
tlix
bujbəjj
k̭abl
navv
naxpánax
dúmǧ
##vayóxun
šópux
##ilax
musk̭ədd
jalládux
xaličóxun
savəltóxun
sáddan
sapk̭ánax
siníyyux
##əč̭
##ítunnun
cərṱ
vurvərr
yošóxun
cícan
cóxux
lač
bráx
camranóxun
xam
súltan
brí
jázy
bəly
hála
cnúšy
č̭urč̭íyyux
gabyántux
gúyb
marífat
pex
sull
janavá
camránux
bərráyax
bulbə́ssux
razóxun
##ləb
nícux
##ícax
sark̭ánax
##lələ
mamrəč̭č̭ánux
k̭it
##k̭əžž
sargánax
##úsun
priz
ṱin
šuclúc
xašcənn
basum
zuk̭zə́k̭tax
##írinva
mummə́z
##átula
##ə́xtu
sə́vyux
mapyəxxánux
hadr
bəšyác
ʾoyənbáz
##ərrantóxun
mascənnántan
##ə́rtax
##ə́štut
##ayé
##ə́č̭tax
júdax
mušvíyyux
múššux
šarzánux
##k̭uš
šarrərr
##álta
mubsə́mmux
##əssóxun
nom
bulk̭ə́nnax
xurzə́pp
##álula
bibəlyát
muxmə́s
nə́ssux
xurbə́ššux
##utva
xamuytóxun
šaryantóxun
varvərr
šuvvətt
maplúṱ
gvíxax
mə́syax
tavvúb
ṱə́myan
##ícan
bəčxás
mgarvəssánux
muctə́vvan
lak̭lúk̭
sarrast
map̂lúš
mujrə́mmux
tuk̭tək̭k̭óxun
ʾəngləznáy
tiz
##yátva
##rún
juvvə́ṱ
smúk̭tux
mešačíyyax
marcəvvanóxun
curáxan
masyəppánux
##átova
duccančíyy
šə́ṱyax
pənd
mujjə́bbux
šumšə́mman
k̭ark̭áran
šniz
carpíčux
##ántitunva
čamxəmm
pašarúc
ṱxínux
súprux
garvánux
lamləmmánux
gumbázan
lab
xulámux
xúvvux
čančúr
maxyánux
##ə́švali
##ammənn
##únuvən
##rántəxva
barbərr
mak̭k̭əmmanóxun
tardanóxun
píxux
xdírax
jiyázux
savúran
stúmc
##úru
gurgə́mmux
xv
k̭aṱpantóxun
##ároxva
ṱmíš
tánax
núdrux
suys
##əvva
##iyya
lélux
suk̭lóxun
lavándux
murk̭əllóxun
šibavatóxun
mazdúy
gazgəzzanóxun
##tav
múlpax
xax
briz
salm
zablənnánux
##ə́rtutunva
##rə́x
mădə́nx
búx
mummə́k̭k̭ax
divan
y
tapmájux
##gəbb
##ənnánux
gánn
ʾotáǧ
susítux
zapzəpp
šṱəxtóxun
bədxáy
tavə́rtax
xə́ltan
palyánax
rúš
k̭bílan
távan
bək̭ráv
##k̭éva
xzúyrax
šúry
##runa
šúll
k̭ə́vy
##úytax
šəšš
čulluxyát
##os
našṱánax
##rúnax
muslíyy
##ə́xtun
šṱə́x
ṱammənn
k̭ark̭ərranóxun
matx
hulh
matyəvván
jvánk̭
busmə́nnax
mgumbə́llux
mupatíš
bulk̭əṱṱóxun
##árč̭
[PAD]
k̭lí
buxaríyyux
havúz
zungərróxun
ʾantárux
##tir
##lə́tvalə
č̭ungərr
šlímux
##əctóxun
nčílax
máyux
sapyantóxun
sílan
ʾaǧay
mesánax
sək̭y
calíjux
yak̭uyr
púllax
lúxux
hanyanóxun
##ə́xtivan
k̭rípux
nós
marlanóxun
muccəpp
mup̂ṱəxxóxun
##ə́rtəvan
zírax
šulx
šərn
xój
č̭ə́lp
č̭alpanóxun
gadág
nasyattóxun
laz
ivat
guym
daǧal
rípux
k̭ə́mp
lvə́štan
mán
trə́s
damurčíyy
##tayy
##lanévən
##ázz
tummə́mmax
bərrák̭
k̭úk̭an
sap̂
k̭arnəzz
dalúp
cúyšan
k̭áṱrux
gə́ryan
yartánux
xallattóxun
##rəla
##ə́t
srík̭
candálax
##úrotunva
šúnnax
murməllóxun
tušmə́šš
bə́ny
gurjáyux
mascənnánux
bušr
šətyóxun
bə́z
mušn
##ticóxun
xólax
##dəva
míl
šlig
##lívalun
k̭amayóxun
mamməzzánux
mubyənn
gubgəbbóxun
zapz
və́d
##rə́ss
prə́xtux
##áxvalux
múdv
##yáman
rəǧj
##líva
mašməṱṱánux
##ə́ntolə
ṱexánux
luslə́ss
túrs
garúpax
burxóxun
laṱṱənn
muzmə́ṱ
šarṱ
ʾamlantóxun
cusiyyóxun
xuyvənn
yaǧ
xáltux
gújux
murádan
nak̭nək̭k̭ánux
vuk̭v
bəšš
##urénva
k̭líp
njívax
cutcətt
##ánixva
##ív
turtə́rran
##bur
##ánuxva
##úytotunva
##urévax
čúllux
muctə́vvax
xl
##əvan
k̭aṱk̭əṱṱánux
sə́tvan
cís
sípax
toríyyan
víyyux
lap̂
sabunčíyy
fcir
ʾapəsk̭
dalpanóxun
párrax
zapzúp
bətyár
zlip
šurr
##ál
ct
##ə́rvalan
k̭vílan
calanbúyr
mubrəxxóxun
purdə́nnax
catávax
ṱúvvax
púšṱux
vánux
ceš
šúl
##til
həndavá
zúlm
parpuróxun
##žb
##lənnóxun
səpyóxun
mummə́rrux
##ašcənn
címax
##rántənva
doz
k̭undáǧux
##ə́xtətunva
hd
rázax
dak̭ránux
turtərróxun
k̭p
šurrə́rran
babavá
k̭aṱíyyux
musnə́ddux
durmənn
c̭ap̂p̂íc̭
gúzmux
##líyyax
šəptíyyux
k̭aptúrǧ
sundə́llan
p̂ac̭xánux
báxyax
mə́x
k̭uhbənn
p̂arṱənnánux
sp̂isóxun
##éla
mandərran
mujrə́m
muzviyy
səx
##ə́ntona
muṱríyyux
ruyyíyyux
č̭ulč̭íyyux
munzəllóxun
p̂ap̂
patp
hazərr
##váy
dallálax
bəyyák̭an
šriṱóxun
patlánan
ngiróxun
nak̭z
muz
mussə́mmux
slib
raxúšux
muxliyy
mabb
məṱrə́bb
mucvə́č̭č̭
zuczə́ccan
momiyy
tužbə́xxax
ʾojáxux
vak̭vək̭k̭ántan
bəṱx
payyanóxun
masálan
xalláttax
gərr
xeṱánan
##ṱəpp
sənják̭ax
sos
bənyát
mápš
muyyə́k̭k̭
##áxətva
čak̭m
mascúnax
##ə́štax
najvánux
vašvúš
xšílan
xə́myux
##rəllóxun
##lipóxun
sunk̭ánux
xál
madván
xalt
zubbə́nnux
##udóxun
busmə́rran
šamášan
basmərr
túpyan
spanáǧ
##ərránux
jarb
lak̭lək̭k̭ánux
calám
##uytévət
síd
mudmiyy
##ənj
búšran
xošánax
k̭uxk̭ə́x
šopóxun
č̭ad
k̭upk̭ə́ppux
##una
##upénva
ṱuyátax
šuk̭óxun
bək̭k̭
rodánux
##úṱux
šamašúytux
šadlánax
muč̭č̭iyy
sənjíyyan
##ə́xli
salyánan
##ák̭ta
munvə́rrux
mujrə́mmax
xmárax
sə́ny
giróxun
madyəll
matriyy
bazbəzz
xrə́ṱ
múčxux
suxvə́nnax
##uséva
tapyántux
##íč
zark̭ə́ṱṱ
##bərróxun
rxímax
šaryanóxun
múk̭d
mxušcənn
šíran
bək̭p
##ə́xvali
vasiyyát
pk̭idóxun
sayádax
xərpún
pušák̭an
##úmuva
yúmux
munšək̭k̭óxun
duǧǧənnóxun
háčux
sunsə́ltax
musrə́xxan
trik̭
##ápp
k̭əštóxun
k̭ošúyn
##yátivət
##suxóxun
muryəss
vušvəšš
purtə́llux
mašr
mgambəllánux
k̭ṱítux
gə́lyux
##yévali
p̂ač̭lanóxun
sunsəll
##ultóxun
murg
##iyyátax
##k̭əṱ
pultə́ššan
k̭op̂ál
majrúṱ
##ə́cc
##úytəva
iyy
mə́z
##tucóxun
šuk̭rə́k̭
xurxərróxun
šamṱánax
k̭urmə́č̭
mayyánan
ʾalman
mupyəxx
##valax
sarṱənn
sen
##ərtévat
loṱc̭ačíyyux
hurhərróxun
bálk̭an
nuz
bə́scux
cəb
mupvə́rran
pursə́nnax
mušyə́pp
naxírux
ṱuxṱə́xxax
šíš
##ə́ltinva
##ovət
gə́xc
raz
mucnəšš
šavál
##únot
bós
sərṱ
##íyyax
čac
##nab
plíṱax
baladčíyyux
ṱísan
purpə́ss
xoyn
paryánan
nasvan
luk̭lə́k̭tux
k̭ázmax
k̭aṱlánan
##átiva
ʾárux
##lanévax
rutrə́ttax
čarxánux
pasúk̭ax
rapyanóxun
bəšláp
mamməssántan
supítax
##čiyyétunva
gargúš
mudyə́ššux
muṱlíyyux
mušrək̭k̭
ták̭
šə́ryan
barəxmáy
##úrəvət
##ric
mandiyyánux
muštíyyux
hayyərr
k̭oravá
tašməššánux
gánax
k̭ášux
##utéva
saribalíx
xelavá
napúsux
zen
##uy
##lək̭k̭
racxánux
yárx
pšám
bel
mcundərróxun
##əštét
grídax
matlək̭k̭ánux
macrəzzánax
ʾaturáyux
yonáyux
muxdə́rrux
mabyənn
pučéč
gabbárux
mušrə́z
tuptəpp
gdálan
muzbətt
k̭uṱ
saṱm
tárb
muk̭ṱə́ppux
k̭uxk̭əxxóxun
dvir
muxdiyyóxun
##ə́nnox
##rantévan
##yám
sə́mtan
##uré
bri
##ə́ltoxva
cušcə́ššan
##úrəxva
##il
duryóxun
mənyánux
##áp̂
pundə́nnux
c̭urc̭ərróxun
k̭áddax
bulk̭ə́nnux
xaṱúrux
šunnóxun
načlanóxun
mč̭anč̭
ṱurbəṱṱóxun
paryánux
məšm
##uylóxun
žadyánan
raprəppánux
k̭upk̭əpp
ruk̭rək̭k̭
##ə́šlə
šulk̭óxun
pox
gál
##ə́ltən
majjaróxun
muk̭ṱə́llux
šiš
##átitun
zangúylax
##ínan
mulyə́ssux
ʾərbóxun
bəǧl
zlə́m
bəxláy
##yánət
rabbánux
madvərránux
č̭uč̭íyyan
šák̭ax
tublə́bbux
mattantóxun
damxanóxun
basr
šaršəṱṱ
zalpánax
mutk̭ə́nnax
##xva
##ərtén
##əttétva
brác
magvəllánux
muxlə́ṱ
sapúyax
matrəgg
havá
ṱunṱə́llax
jaf
gečítan
k̭úyrux
sarpantóxun
bəsl
ṱvíxax
raxmánan
##lə́p
musk̭ə́llux
##ri
##ti
##étit
vasilóxun
mcurmə́xxux
nícan
bəp̂c̭
k̭urmə́ṱṱ
candərr
barbəzz
##ántivax
təvvəlyát
gub
xmil
pumpəxxóxun
k̭ə́ntax
##ətun
mašxənnanóxun
lak̭ṱánan
##yálan
duyk̭ə́nnux
hačóxun
lutl
##mantéva
zubṱənn
##ánulə
k̭allab
##ə́ntovax
musárd
šúbbux
mulóxun
maṱbiyyantóxun
macməll
ṱummənnóxun
dumdə́mmux
maddiyyánan
mač̭məč̭č̭
jalx
brant
laṱṱ
dvə́k̭
sarítan
pašpúšux
ʾujjə́zz
gubbázux
čarpánax
duldə́llux
barúxax
masyəṱṱ
marvúy
slívux
##xəs
yatvánax
##íxux
##raǧ
gumgə́mman
bəšr
k̭ásran
ṱarsantóxun
čólax
##təmtóxun
pur
fay
##əbb
##íyyəl
xáp
túpyux
xurəg
p̂urṱə́nnux
trídux
zvínux
cúčux
múr
ʾuyv
k̭unṱóp
##úlən
páx
bulbəllóxun
##vas
##átuvən
bəšrázux
bnát
cíšux
čumčəmm
##avatéva
##réna
busmənn
xurb
rd
k̭án
##rut
yartan
gapg
bajúj
##ák̭an
štavhərranóxun
##árəxva
taršənnánan
##ə́tlan
##uytétva
ʾúp
k̭ríxux
xrə́z
mubbiyy
[UNK]
marrúy
cálbax
ṱall
sap̂ranóxun
buzbəzz
##əltévət
búl
tasmát
jášax
masla
šak̭r
zublənn
murcə́v
nxípux
comur
ṱuš
davacar
došéc
gúzman
luj
purtə́xxan
bivóxun
zonántax
##yanténa
musx
cpiš
xaprúc
bəšyár
zunpə́rrax
šap̂lánax
rxík̭
k̭unṱepóxun
ʾərxačíyyux
hunhə́nnan
rəpy
ʾadyálux
macrəbb
##né
##ə́xvalax
bətk̭
##lə́nnux
##ləss
musv
k̭díx
##ə́rrovət
##xóxun
##átvala
ʾaráv
yas
jass
ray
muccə́ssan
sníd
mə́zyux
muxrəmmóxun
ʾaryánax
k̭apt
gərvítux
cor
raprúp
xasyanóxun
mapšúṱ
dvík̭
garugóxun
madvərr
k̭assábax
šoratánux
cmil
č̭ac̭bənn
márrax
had
##rántax
bilac
tulk̭óxun
mdumdə́mmax
nširóxun
k̭op̂
bəčx
##lə́m
##idóxun
šumxə́nnan
xc
bubə́gg
##əllan
xvarnáy
hammamčíyyux
##up
##anévat
jo
##dén
##rántələ
mrik̭óxun
bazəcc
lišánax
##uṱénva
túyran
##unva
##ona
cúnd
munk̭
šrúp
sape
cətvan
maglóxun
p̂uč̭p̂ə́č̭č̭ax
mamxúy
ṱalanóxun
taz
##utun
muk̭k̭ə́t
ʾabayát
##uyéxva
##yánnan
stúynux
xašóxun
##álut
šuk̭
tubləbb
##ə́ltuvən
bə́d
##yátula
muk̭k̭ə́ššan
shíd
garúpan
ház
##yantétun
##əxtévət
xt
sk̭íman
cə́tvax
véy
##lib
gəp
##ə́ltovax
múttax
harbək̭k̭
##íz
k̭ə́č̭
nədy
##upp
rek̭
lil
##írən
##ánitva
ʾal
bušl
celan
##ántotunva
mulhə́ddan
búd
k̭ač̭
guvárux
marriyyántux
k̭ránax
mugvərróxun
murrə́k̭k̭
k̭ərra
##ənténa
šansóxun
xarjanóxun
##tiróxun
šulgə́ddax
bdil
k̭ə́rṱux
non
yaṱṱ
muddə́rrax
k̭uṱk̭əṱṱ
##̂
šé
šudr
gríč̭an
šiyy
##ánux
má
sunsə́ppux
k̭alíb
šṱə́xtax
tuk̭nək̭k̭óxun
sunsə́p
xdə́rtax
saral
xdəryát
ʾurbəṱṱ
xyáṱ
mušyə́llux
ṱummə́nnux
pašar
xurxəṱṱóxun
radxánax
ṱarṱ
laxlúx
gurvə́ssux
pašxánux
p̂ṱíx
rutrə́ttan
buzxánux
muppíyyax
mə́zy
##lut
##ayétunva
##ép
pupp
ʾurxavá
k̭álpax
dk̭ir
p̂up̂íyyux
dəšyát
mak̭ṱəllánax
##ášux
##íyyit
##lantétva
muxzərróxun
čak̭čak̭óxun
gdíšax
šurrərróxun
maccəššánux
##ə́ṱṱax
mcurmə́xxan
mummə́rrax
mummə́xxax
##úcan
##úǧ
##ə́mtutva
č̭ac̭úrc̭
golántux
zambulóxun
k̭ulp
k̭míč̭an
k̭aburǧ
bəxbár
##rətunva
zalz
ganavá
daǧ
k̭íž
gúllux
bándax
bsím
##iv
##attóxun
tak̭tək̭k̭
dúllux
##amét
gdálax
rab
k̭urmə́č̭č̭
jarj
ʾarp̂
nam
##əc̭c̭
bəgrášux
##únuvat
ʾidátax
##yévalan
ʾavčíyy
mazzəzz
##yyóxun
##yátovən
##áttoxun
čanx
k̭uk̭
ṱipóxun
turtə́bb
namnəmmánan
muk̭rə́ṱṱax
lvišóxun
ṱə́šy
yóšux
zupzə́ppux
glí
p̂c̭íx
párčax
##ayévət
rə́p
šuršiyyóxun
dallác
##átvalun
čoracčíyy
##lə́nn
##ə́ppux
##yən
zə́llan
##ṱux
##lévan
túpx
gumməssóxun
šə́lyan
rcix
murább
carpíč
##ə́rril
duld
ṱaymənnánux
ṱurṱəmm
ʾúryux
hurhə́rrux
muprə́xxan
šaruyát
leyt
v
##žgəžž
səly
núk̭z
šammóxun
bəzǧád
muxcum
##ák̭
##amm
##lutva
##ə́llul
zamranóxun
sánj
##lanét
ṱalbánux
k̭arav
##vəzz
sarbázux
šupšəppóxun
guzm
gós
zuk̭zə́k̭k̭an
buk̭ráy
gandəll
##ílitun
bəcváy
xúbb
racó
čaltúc
gangəzzánax
bənšák̭
##ambəll
lcízax
tuntə́nnan
zarbún
zəv
túpy
k̭alíbax
nə́sy
salmas
babə́cc
##əxlun
č̭əm
mup̂lə́
k̭uṱk̭ə́ṱṱux
k̭míṱan
##írivən
sedačíyyan
švá
ṱurbə́ṱṱax
dran
šláp
zún
yárxax
xabuš
##puxóxun
dussáǧ
hdir
rcívax
##čiyyéxva
pataryár
č̭axč̭
##lattóxun
gaššək̭k̭ánux
šúrax
núy
##írut
pə́tyux
búgm
xarṱ
lín
ṱəšyóxun
pəslóxun
cnuš
parpúrux
pə́ryax
rajmánan
gúlyux
jaryánax
sṱíran
musmə́ssux
mutk̭ənnóxun
mup̂lə́šš
ʾak̭ub
gavar
ʾuncərróxun
##ánəvət
núb
##al
húdrux
líṱ
zógan
##caxóxun
bumbə́llux
priš
mangánan
zamránux
k̭azdánux
palxánax
šahiyyóxun
raxúymax
##lún
##əltévan
parxan
suvvə́nnax
##ugóxun
šə́ǧd
čang
##yánitunva
jəmyóxun
parpətt
tó
gav
##uyb
dard
pušmóxun
vulvəllóxun
mupšərr
donug
cač
suysavá
cəssayát
##ə́llitunva
ʾamb
##ə́ry
mucməll
topóxun
##upétva
##ək̭lux
##í
npílan
vət
carxánux
nuxmóxun
hámzux
xošanóxun
k̭arúṱux
naṱər
hurhə́mmux
mark̭
saxləxx
šric
yalúd
ramúvvan
mač̭riyyánax
sárgan
masyák̭
zumpərr
mank̭áš
##átun
maxrəmmántux
nuvvərróxun
ṱuyátux
mady
k̭arn
zuk̭zək̭tóxun
šak̭lək̭k̭
daryántux
zuvvə́jj
jar
##tuc
##mun
šápran
tuntə́rran
##ə́xtutunva
##íləna
macpənnánux
k̭ávrux
šlə́
##yátəxva
muddiyy
k̭ənn
cušcəššóxun
##yátənva
saxə́
xaríṱux
laxpóxun
gnív
gabyántax
##ə́nlə
dólan
taptəpp
gúlp
##úk̭ənva
##əxlux
naxp
zahm
sənn
curpə́šš
##loxun
jíb
##yátova
gíb
##átivat
nabyánax
##íyyina
pris
gərdé
yə́ly
damǧ
cuyóxun
noniyyánax
xasyánax
srík̭an
xódax
mupšə́ṱṱ
csíxux
tuk̭nək̭k̭
paṱírux
básmux
##ə́č̭tan
##əp̂
bríc
dárux
brisím
xli
sarpántan
mazyúd
maxpiyyánux
bənsavóxun
bard
sávan
pə́šyax
pšák̭
mutníyyux
zer
k̭arúṱan
##írətva
p̂alṱúyn
ṱuvítan
mudm
##ízux
mabrəzz
pašpəššántan
bulbəll
bríd
k̭admántan
k̭úypax
matv
##ítovət
lə́k̭ṱ
##tuv
##átənva
muššəšš
č̭áp
dola
##rántəx
xvíṱax
ʾəšṱárux
maxdərrantóxun
dussaǧčíyyux
ṱəmyóxun
bəgz
majgún
harhəmmánax
rak̭ádax
murdə́xx
yatvántux
k̭arútax
##ə́lliva
k̭ət
k̭ursəlyát
yarmánux
##ə́rtol
prə́xtax
murxə́šš
gə́n
busmóxun
manxəll
##yantévax
##ə́mli
muryə́xxax
čúnd
k̭ull
k̭əzza
č̭uč̭
xayv
##yəp
damdəmmánux
bṱin
č̭oč̭iyy
bək̭máč̭
##ak̭ét
buk̭bək̭tóxun
mhúdyax
dulában
##ándax
gosóxun
záyan
hamzəmmánux
gurvənnóxun
macr
lámṱ
naṱránux
##írovan
calíjax
payyántax
xlísux
lujləjj
púndux
muṱmiyy
maǧáz
zann
k̭uzzə́dd
vuzvə́zzan
mak̭k̭ásux
tór
##əstét
cučlə́nnan
parpəllánax
ʾaháv
janjárax
##aréna
čóṱc̭ux
maccəmmánan
dárd
darbənnánux
zilə
ganyánan
purpíyyux
mucnə́ššux
lajləjjánan
##ránan
ʾarab
k̭arb
lak̭ṱanóxun
mus
k̭aram
p̂ar
ʾəšk̭anóxun
damyánan
carróxun
k̭óč̭
čarxánax
calcəll
só
máccux
mublə́ssan
šarrərránan
toríyyax
xrítan
psíxax
pardúvvax
##yántivən
##ə́ltovən
##əxli
nap
csix
šulgə́d
šahíyyux
mak̭rúv
paslánux
mgurgəšš
nk̭ídux
bəšvár
k̭ondaxsáz
báv
mabsəmm
bulbə́ltax
yálax
cuš
gúdy
nisaryát
gurrə́llax
yapyántax
sepánux
camlánux
p̂alṱəc̭c̭ánux
prəxtóxun
mušləmmóxun
taybərránux
munṱ
xumxəmm
##itévan
laslús
k̭əv
ʾə́k̭
mašcənnánux
munyəxx
mascənnanóxun
##uyátux
šumšə́mm
čxísan
matván
##cəxx
##átvalan
hurhəmm
pə́ss
k̭aramíx
mutyə́vvux
##əlyóxun
##ašm
buk̭ráyux
bazrúk̭ux
bənk̭áš
dək̭k̭óxun
gužgə́žž
##unnax
k̭arívan
##təxva
##rétva
##ívalan
bəsb
##uné
##álitunva
maxy
čuk̭č
muk̭šiyy
bəzyád
k̭arr
ʾáyən
tamməmmánax
k̭abánan
snídax
sus
##ánto
jəryóxun
p̂ṱúx
lungə́nnan
k̭y
šacl
cašcúš
šlíxan
majjiyyánax
dáv
##ítənva
laṱṱənnánux
mayy
xlíp
mujjiyyóxun
čarxánan
##yántivat
muprə́k̭
pušṱ
čacčəccánux
bədvá
zarírax
cípan
##ll
k̭əṱmáy
macnəššánux
ṱap
sə́ndan
xlípux
##ílətva
šulk̭
cámran
##ə́zzax
##ə́ntut
tarc
pučéčux
talísux
rašp
yem
gmíšux
burvánax
##rántəvan
bullə́ssux
##áttuva
bítan
xə́rd
##ə́ntola
purtəxxóxun
burə́xtux
mríṱan
jald
jungənnóxun
lxəp
ṱaymún
mešačíyyan
##rəvv
nanag
##ə́zzan
balməll
rušan
macsəcnáy
prid
curhə́nnan
tant
níxax
tə́pyux
coyánux
mak̭k̭ášux
mubrəzzóxun
##tivat
##mux
xəpyóxun
šib
daš
matl
mutpə́k̭k̭ux
təvvəllət
mč̭arč̭
bəbd
##ánivan
ṱalánux
gurrə́llan
cvíč̭an
##átuxva
##ə́nva
k̭ark̭ə́p
##aǧ
ʾamránan
č̭up
cušcə́šš
bəpyác
zə́lyux
culpáttux
##ast
##úri
saxyánux
muzk̭ančíyy
k̭ok̭
burə́x
šarṱánan
špix
bav
xsiruyát
##pat
##ántun
nák̭k̭
darrənnánax
musmək̭k̭
ilə
ʾərbačíyyan
tuxxə́b
muplə́x
maṱmúyan
muxpiyy
xundə́k̭k̭ux
xullə́llax
mgužžə́nnax
č̭ulbə́xxax
lull
šəṱy
bənšáp
p̂aṱxánax
báxy
bəryáp
ʾaš
ʾutk̭ə́nnan
csixóxun
sunsə́ltux
sardánan
##ə́nnəla
mank̭úd
šullə́llan
burbə́z
purpíyyan
bŭ
mulhə́ddax
comurčíyyux
malhədd
jašóxun
xzídux
##ə́ldar
k̭abárux
zadyánan
xásux
paxlánax
##íf
dan
suplə́ppan
huyvənnóxun
čaplənnánux
dala
ʾah
barb
galyanóxun
šub
suriyyóxun
cúpš
harb
bexx
##ánəvax
xṱir
zrizóxun
pərṱánux
mə́xy
mugvə́rran
šk̭ílux
ʾatírux
xp̂ik̭
k̭uṱrə́nnux
tuxmóxun
šór
divánux
##írotun
gazgəzzánux
palák̭
sə́k̭y
našpánax
masxarát
mutpətt
##yanétva
##ə́rtuvax
k̭vílux
##ə́ntun
k̭úypan
xyavánd
##vərr
naxpánux
clámux
hugy
č̭ím
rumx
casyántan
##ə́llo
muppiyyóxun
č̭anč̭ərranóxun
ʾelí
##arúy
bə
čamčəmmánux
šívax
dríš
janjárux
##ušc
ʾaxtóxun
yasránax
dašc
cundə́rrux
šmíṱan
mejánan
brizóxun
harhəmmanóxun
xarṱánux
mupsə́xx
marmərr
pop
cocár
##eróxun
buxx
šídan
žar
də́vx
čuplənnóxun
muzlíyyax
gərd
p̂ulṱə́c̭c̭ux
bdilóxun
canušyát
mburrə́nnux
##árax
burxəššóxun
lúmbux
mdənyát
##ərté
ʾaldiyy
marriyyanóxun
tívux
ʾák̭lux
yapyántan
bəpnáy
ṱlib
p̂urmiyyóxun
caryánan
sripóxun
masc
ctávan
lazləzz
sə́d
puspəss
zadyánux
nxə́p
##íli
húgyan
šanyantóxun
k̭ə́ms
murgə́dd
##iyyátloxun
šap̂ránux
##ánti
cúyran
šcírux
nək̭k̭attət
xaním
búlan
msítux
k̭unṱép
xdə́rtan
##íyyətun
bák̭lax
šmíṱax
bəṱ
k̭admánux
zungə́rrax
k̭upšinóxun
##úyuva
xup̂xə́p̂
##ábəl
k̭áyan
lcízan
hammám
púslax
mantiyy
k̭um
##əggóxun
zlí
semánax
##ung
##árətun
tpínax
muplə́xxan
ṱunṱə́llux
yúm
k̭íšan
k̭admánax
nə́m
bədk̭
šalpántax
##átla
##unnun
duva
tarsánax
xurbəšš
k̭rip
magv
cac
k̭íxan
žážž
xlúylax
masyəvvan
jállan
nvílux
jəddóxun
##iyyánux
zamzəmm
sabətt
myuk̭ə́rtan
luxlə́xxux
mítax
##ex
luxləxxóxun
baṱúvvan
##iyyélə
mahniyyánux
mgandəllánan
mucə́s
rapyántan
mh
tórax
dájux
##ə́mtətva
k̭ašang
##ə́lləx
##úytutva
p̂urmiyy
##átot
ṱə́šv
mazy
xaprəcc
##íyyəna
zígux
lxípan
bərg
##úruva
ʾəngləz
##yávali
nabyánan
búšk̭ux
leš
muzz
nexánux
##détva
zuk̭zək̭k̭
haṱṱ
šav
k̭ə́žž
zigačíyy
##étəva
ʾáryan
ctivóxun
balbáṱan
manzílax
turə́s
bilác
dəbbatóxun
č̭ap̂p̂alyát
##ə́rrux
šṱ
xlə́
sa
muk̭k̭ə́d
dublə́bbax
zarṱánan
xalvan
##úxin
xurbəššóxun
barṱənn
##ánunva
##úmun
ntírax
šuc
cə́rx
túnyax
rjim
cniš
taptánux
tlə́x
bəxs
##ə́pp
bak̭ránax
mumlíyyan
sarsúran
pə́tyax
##žǧ
##valoxun
mušviyyóxun
táštux
##ənnan
##anténva
palṱánux
suráyan
xir
muhniyy
sbírax
cámrux
bəss
##údux
##ə́ṱtux
mucv
čamčúmux
yuk̭rə́nnan
##átin
díran
bəcm
tpín
##íxan
murxə́k̭k̭
##úšəva
zaczəccánux
nurn
tummə́zzax
más
k̭vírux
šə́myux
mašc
##əntétun
pán
ʾavadan
ʾarzačíyyax
hammənnánux
yatúm
čartan
xullə́nnax
##nac
##tənva
##ə́ṱtan
šóṱan
luhlə́hhan
xarzánan
##árolə
šlixóxun
dvíxan
nšip
##áləxva
xaprəccánux
túlk̭ax
gunahcar
həssáb
xurbə́ss
sank̭ánax
mušlə́mman
šap̂rún
baxxəvvan
basmántux
##ritun
saridóxun
sə́xyan
búǧ
lajləjjánax
xrí
tumtə́mmux
sup̂p̂
p̂árux
raxṱ
k̭uxk̭ə́xtux
sargánan
štav
guzg
ṱurṱəmmóxun
rajr
xemánux
nín
maxšəxx
šacləccánux
##rə́p
bəspáyan
vazyattóxun
zlíp
mtílan
madm
muxšə́v
nazn
##yátəx
##ə́btan
numnəmm
xayyəddánux
zlipóxun
búš
mác
xyár
##lətva
gugíyyux
č̭urč̭ə́rtax
nk̭íd
štavhərránan
##k̭ən
##artóxun
##ox
muč̭miyy
##áǧ
šp̂írax
xumčóxun
xlísan
tə́ly
##yántoxva
grivóxun
bənyanóxun
##lívalux
šurróxun
mudríyyan
gungə́zzan
rə́py
zonánan
bəstíyyux
k̭ə́ryax
bul
čaráz
badúvvux
##yánələ
čalb
xaznačíyyux
gužgə́žžax
vujvə́jjan
šládd
túym
čacmačíyyax
##rənnóxun
šp̂iróxun
ʾaxə
mej
maxniyyánux
madv
p̂aṱ
ṱlə́b
k̭ərṱó
supyóxun
gammíš
k̭armánux
línax
##áll
k̭ačáx
rəmyóxun
##ítətunva
muryə́ssux
##úrulə
mamṱiyyánux
zangúyl
mušlə́k̭k̭an
k̭urrə́ssax
mak̭v
duxyóxun
##rəštóxun
masliyyántax
##úyax
zedánux
buymóxun
č̭upč̭ə́ppan
ʾátax
k̭lík̭an
tak̭lánax
##ə́nnotun
maṱrús
múxcum
maxləṱṱánux
buzbə́zzax
##úrix
ṱúšy
##yátiva
##ə́lta
k̭arabín
šúyšux
ʾoránan
##vənn
č̭arč̭ərránan
pilóxun
p̂lám
mujyərr
xoróxun
lang
čubb
xáss
##lə́xx
čaš
zínux
musyə́rrax
zamzəmmánux
##ús
np
bəxp̂ák̭
ʾujjəbbóxun
##aytóxun
lamp
bəgráp
čardák̭ux
tuvtə́ššan
k̭apyánan
zap̂p̂áng
salyantóxun
naxób
magn
prís
šaršərránan
duǧǧə́nnax
xald
raxk̭
k̭umbəččóxun
burnó
šatt
##ə́štuva
harsənnanóxun
##tina
ʾalm
murrítan
xaldúy
##úvan
ṱuvvíyyan
##ya
##ílux
##ə́ssux
mdurv
ʾavánux
k̭ə́tp
purdə́nnux
nacnəcc
k̭arxánan
##aséva
yáld
##ə́nnun
sonordác
##tan
sarpántax
ʾajjəzz
k̭abúrǧ
##unyátan
mril
muxmíyyax
murgə́ddax
xbiróxun
p̂uzp̂ə́zzux
##ə́sy
##rə́ttax
xə́l
čxísux
tapk̭ánax
k̭lapsís
pəšcóxun
ruzzəllóxun
##včiyy
guyóxun
tlí
pasyánux
##ay
##ə́byan
šac
##lə́tvaloxun
bəṱyáp
táxtax
##úytə
k̭urməṱṱ
k̭ə́štux
capránax
sarast
dəd
čid
bannáy
bəbṱ
##áč̭ux
gurvə́ssan
zalyánax
##lílun
k̭upk̭
šalgánax
##yánlax
ṱuván
muk̭ṱə́pp
ṱə́ṱṱux
daldúnux
##ə́mvalan
čaxs
musxíyyux
nadyánan
yaṱṱantóxun
zk̭írux
badánux
k̭abárax
bəṱmáš
##rítan
múcsax
##ritunva
šapnánux
bəpráxux
##yévalux
həzz
pavvərránax
##anuytéva
təptíc
ptíxan
garpánax
gríč̭ux
dok̭
ganvántux
saʾáttux
##nək̭k̭
k̭apuč
muxzə́rran
báj
xsírax
##lamat
săbábux
bulk̭ə́ṱṱan
sansəllantóxun
basmərránux
##diyy
badəmjánux
mušlək̭k̭óxun
zurbənn
taxm
máčux
čorac
xélax
də́v
ʾáybax
xarbəss
míjan
##iyyanóxun
səcyát
č̭arč̭ərrantóxun
ʾe
ʾijar
táp
zəvyóxun
vak̭vək̭k̭
babavátan
šalpantóxun
ṱap̂ṱúp̂
ʾojax
##áttiva
zarzəxxánux
##təvən
##čiyyévən
k̭onax
xšə́v
##ə́mm
huc
sə́vyan
mdabranóxun
cúyrux
ʾurbə́ṱṱ
k̭ə́rṱ
šán
mumcə́xxan
k̭umbáran
bək̭k̭a
tab
p̂ulṱə́c̭c̭ax
dussák̭ux
maxšəvvanóxun
mešógux
bašk̭ábux
šəc
k̭užk̭əžž
##ríṱax
maryəxx
##uzéva
p̂árax
durmə́nn
bárran
pašúṱ
yaǧíyyux
bos
č̭unč̭ə́rrux
##léla
maryanóxun
##ə́valux
hammámux
tupxóxun
##valan
dx
##uytévan
bustíyyux
##ə́rrələ
ʾaslánux
pənn
musrə́ptax
##yátun
bəprayóxun
k̭arǧóxun
luk̭lə́k̭k̭an
šlík̭an
lallún
balk̭únan
casxánan
maxx
múyrux
##ə́vala
núvvan
##ántovət
##úrəva
##elóxun
davríyyux
##ítovən
ṱuyóxun
msuzg
gargəššanóxun
##ə́ntivax
k̭lə́p
guššək̭k̭
šak̭lánux
blə́s
muxniyy
bəmrák̭
##luvat
mgažžənnánux
muk̭rəssóxun
zak̭zúk̭ax
##ayuytóxun
dullə́llax
gə́lyan
vazvəzzántan
bix
##áyuvət
bəxdáy
zlík̭
mamməllánan
##ílotun
mulhəddóxun
mašpəxxánux
cpíšan
##yántix
##vanéva
cícax
tk̭ilóxun
bálk̭ax
tuy
##rantéxva
##uštóxun
č̭əvva
xíc
maly
hór
tpíxux
##əlman
parsúpan
##úk̭it
mdab
marcəvván
dok̭anóxun
dubák̭ax
tə́ryan
##lə́jj
gaxuc
mascúnan
muč̭mə́č̭tan
##l
túrk̭ux
yub
tuntə́rrux
tapyánux
##ívalun
##yanévan
##ig
k̭á
nallənn
jungə́nnax
maššiyyanóxun
zanyánax
ʾuṱ
tanínux
raxmuytóxun
mírax
cullúng
##rúz
k̭ənnatóxun
##tva
ze
snidóxun
maláxux
prítux
šə́ty
sapyán
basmax
rpítux
čaculyát
mačxánax
parmánan
k̭arxánux
ṱap̂
##ə́čč
gnívux
xazdanóxun
ṱašyántax
mač̭məč̭č̭ántan
##úluvat
ʾavčíyyux
##ə́ntotunva
ʾuryóxun
k̭axk̭úxux
##yátovax
tužbə́xx
burxə́ššax
mud
sarṱənnánux
zargáran
cə́stan
luṱṱə́nnax
baxuš
barranóxun
saparčiyy
xuč̭xə́č̭č̭ux
gurrə́ll
suzgərróxun
muč̭c
čolóxun
##ánətun
prik̭
cusyóxun
túnxan
marṱánax
mč̭urč̭íyyax
maššiyyánax
ʾarx
šə́tyax
k̭aṱk̭əṱṱantóxun
tabl
mə́rz
shídan
k̭árras
gull
biš
zak̭zək̭k̭ántux
xadr
##únovət
mublə́ssax
sak̭k̭ávux
##əllə
mušlək̭k̭
buxxə́llux
##ma
##írol
p̂up̂iyyóxun
bulmə́llax
talxanóxun
gó
##úk̭ot
##pp
muzyə́d
murdə́ntan
pašrántax
daldənnántan
laxm
šmə́ṱ
mašxánax
##ítola
xliṱóxun
balbáṱux
čučágux
ʾərx
camcəmmánax
##yánitun
bak̭bək̭k̭ántux
galgəllánax
sc
məxyóxun
##étuna
ladánax
č̭uzč̭ə́z
tə́by
juvvə́ṱṱan
gurvə́nnux
čacm
##u
pušm
bəxyóxun
mazuz
šə́nyax
##úl
grísux
šəryóxun
cpíran
tpík̭
##ak̭d
cáv
rəmtóxun
##ánvalax
p̂uč̭p̂əč̭č̭óxun
deván
mríč̭ux
č̭ə́l
k̭op
ríṱan
##lə́nva
gadpánux
namah
díšan
muxrə́mmax
xula
k̭ún
čuliyyát
sarxánax
##ə́ltənva
parušyát
duvalak̭
##ə́xtil
ʾarzan
ṱrípux
zaǧ
mgarg
mál
baṱl
súmb
xunzərr
ṱunṱə́nnan
gə́ny
gumbə́xxux
##əcyát
k̭ésax
də́m
č̭ə́x
saván
##iṱóxun
saṱranóxun
gabgúb
saṱmánan
##axtóxun
sriṱóxun
ʾáslux
púsyax
sənd
pasyántax
maštək̭k̭
mušxənnóxun
šuplə́ppux
muk̭nəzzóxun
ganátax
##írəvan
mə́xyax
banyánux
bəpráṱ
##ə́k̭lan
maxlánux
##itétva
mul
nanagó
p̂líman
##úyin
##lanéx
hayvanóxun
tamməzzántan
masalóxun
parsupóxun
##yattóxun
tapt
##ílil
k̭ultóxun
lxə́p
catranóxun
##úyolə
ṱamrántux
cə́syax
parpərrantóxun
sartípux
##íyyux
sə́nyux
xazádan
carvánan
xazádax
čungə́llux
tambúyr
muppíyyux
mutrə́g
rajrəjjánux
čobánux
mašləmmántux
bəšṱaxóxun
čulləššóxun
mantərranóxun
šarzánan
sə́lyux
reṱánux
zamaróxun
gupgə́ppax
##par
##ə́stax
šuk̭rə́k̭k̭ux
gamranóxun
gə́s
cətva
šamšəmmánux
šəp̂p̂
šars
ṱə́šyax
tapk̭ánan
ṱamrántan
##ṱəp̂
mabrúk̭
sak̭k̭əttánux
čálmux
slív
cíš
sípux
zə́ly
yatvánux
balyánan
##úləl
##yánəva
ṱarp
talməssánux
muxlə́ppax
júmmux
həny
k̭ázz
##álm
ʾámran
##uzd
raxman
núbyux
xandác
zark̭ə́ṱṱux
ʾóyn
##rántətun
##ílunva
mdurvə́ddux
sursə́mmax
buk̭bə́k̭tan
munpəss
##ə́nnax
sunn
púlṱux
pə́slux
xník̭an
pandəmmánux
gužgəžžóxun
k̭arítux
č̭upč̭ə́p
murdərróxun
##p̂əzz
paspəssántax
carp
k̭op̂álux
čatiróxun
##uyvənn
ʾámm
slə́b
jámm
mudriyyóxun
čamčəmmántux
barránax
##áləvax
šúd
rpup
##átovat
##ə́rrutva
##ənlun
ʾatk̭ənn
ʾanc
k̭ax
##áč̭
xúms
##únilə
deránan
maxšəll
šúyšax
šcir
mappəxx
k̭ə́č̭yax
carduvárux
buráx
##ə́xlux
naṱp
golántax
zlə́k̭
zav
tummə́mman
marcəxxánux
mátax
gangəzzánan
lə́zz
##yantén
sə́ry
npixóxun
##ón
##xan
xals
bərrə́n
muk̭k̭ə́ss
##álivan
##umén
msuzgərr
k̭óč̭ax
zubṱə́nnan
muscəntóxun
vuzvəztóxun
[SEP]
mammús
zúyzux
mubrəzz
č̭lípax
č̭uč̭ánux
nuníyyax
mazdiyyánux
č̭ángux
syə́v
šamṱanóxun
bebún
durbinóxun
##ord
##c̭óxun
##rívali
prə́k̭
nṱipóxun
gih
parróxun
nk̭išóxun
cip
bək̭č̭
##yátivən
sárg
mačxánux
k̭arṱ
prík̭ax
mušxəddóxun
cám
##ə́ltiva
##əṱyóxun
davúlax
hamzəmmanóxun
sud
lak̭lək̭k̭
č̭əlli
nánnux
mačx
##rə́ntan
muk̭nə́z
manšək̭k̭ánux
muk̭rəvvóxun
ráb
došé
tapnánux
musm
xalvánux
ca
xúrgax
šúbx
gogiyyánux
muxmək̭k̭
k̭əs
buzbə́k̭k̭
brízux
zab
líṱux
nuxn
##tutunva
k̭arván
nə́k̭z
dišóxun
napsánax
munṱə́ppux
muṱmə́rran
muxdə́rran
muzzə́zzax
hacm
šuclə́ccux
suk̭k̭ə́t
##úytu
##aṱét
k̭riṱ
xnik̭óxun
maydánux
k̭ariv
##árəna
yónj
bənk̭ád
sosiyyanóxun
gniv
c̭am
shídax
šárux
##up̂
bulmə́llan
munxə́ssax
bəxráp
##ulyátan
cšiṱ
mamməllánax
p̂ak̭
šalxánan
mrílan
č̭əmyóxun
mudyənnóxun
zriz
šəm
xayyánax
ʾorušlúm
k̭úlyux
bək̭ramóxun
k̭oč̭óxun
tušm
muk̭k̭ə́ssux
xrík̭ux
ʾamlanóxun
zílux
buzbə́k̭k̭ax
vasvəssánux
muxj
##əvváx
mabl
tk̭ílax
šicóxun
day
harhərránux
zurzə́č̭č̭an
muppəxx
k̭admántax
rujrəjj
janjərránux
##ə́ltin
##urélə
xviš
ṱarṱəmmánux
##yántox
patxan
malvəšš
cərtvár
##vanétva
č̭míč̭ax
gazránan
k̭ázm
spik̭
mucrə́zzux
də́ry
pašmántux
busáman
čop
xabl
ʾáh
guróxun
mubxiyy
pašṱánax
jammiyyánan
raš
txísan
ʾélan
tər
tarsántan
balk̭óxun
munpə́ss
zó
##ə́ctux
muxrə́pp
gdípax
sam
šrə́c
taptánan
čuplənn
barṱənnánux
ṱummə́nnan
xár
p̂lə́m
šamaš
cumcəmm
##tivan
xut
jardánax
##tələ
ti
č̭a
xaxíz
##ə́ttux
clamóxun
šan
parpəṱṱánux
malpántax
##áləm
cn
##áləvan
rušnúc
gum
##yálun
zak̭zək̭k̭anóxun
muclí
rabban
sərsərr
ʾabúnux
ʾastrelyáy
muššə́šš
ṱrisóxun
##und
ratrətt
##ə́xtənva
bər
##úxova
##ərroxun
rvíxan
꞊
šxúny
gríč̭
##úk̭itva
darrənnántux
xárx
sak̭ṱánux
rpápux
##axóxun
ʾurṱ
##véva
xuprəccóxun
nas
bark̭
mucmə́llax
čucčə́ccax
##úrəx
tlipóxun
madriyyánux
šunnə́nnax
talpánan
xasínan
sep
tavtəšš
xayáṱux
daryantóxun
mušp̂ərr
van
xardiyyánux
lob
patxánax
dəbbátux
muzzə́z
cə́vyux
purpə́rrax
cətván
ʾardáv
puč
musyə́llax
##ílax
mumrə́
čárax
xaṱyanóxun
##antélə
ṱašyanóxun
mtíx
šoyánux
brisim
sansəllántax
xušávax
radyánux
k̭áyd
masrəppanóxun
##ítiva
čunxə́ss
ʾáryux
xvírux
yúvvax
##íṱan
nšíṱax
púnyax
nak̭nək̭k̭
taníc
navvərranóxun
##ə́nnuvət
rím
marrəššánux
mə́ltan
zeləcc
##anét
mabx
madvánux
nak̭rúzux
##ə́lləvən
jrə́ṱ
mušlíyyan
malyát
rgídax
##uk̭óxun
daldəllánax
yavanóxun
##úyəla
mapvərr
ruppíyyan
č̭idóxun
mətk̭álux
šarícan
##ə́štunva
##lílan
##č̭əzz
xumxə́mmax
ṱəz
nuynóxun
gə́x
gung
k̭usár
lək̭ṱ
ṱxín
##ə́xtovax
partəxx
šṱík̭an
maṱ
maštiyy
lub
puršə́nnax
buṱl
parsánan
gv
múyy
##ántətunva
haj
k̭et
##yátixva
máxš
tamməzzántax
tarsantóxun
##íyyat
bgir
##ə́nnu
##̄́j
muscə́nnax
gurgə́ššan
sum
muct
capšántax
mcandərranóxun
gazmánux
ṱárpux
tartərr
myás
cusítax
sunsəllóxun
maǧǧub
lullə́nnux
bəcláy
crac
matlántan
##úytun
sullə́llux
k̭dímax
xazn
mč̭
k̭ək̭
zmícax
čumč
dástux
##ávalan
ʾašpázux
tagbərrantóxun
duy
bəč̭máy
čalxám
tumbánan
##eg
tulmə́ss
##bázax
##ə́k̭loxun
k̭aṱlanóxun
sansəll
čuynóxun
čxə́s
mahniyy
yaz
##ddóxun
##ačiyyóxun
čamxəmmánux
ləng
bák̭
ʾaccárux
##əmmánux
damxánax
##árəvan
gurgəmm
bəzvá
búxčan
mak̭rəmmánux
gíyyax
byáy
mgažžənn
ṱalášax
ʾoyən
saṱyánax
##iréva
musrə́x
##litunva
čín
##ulyát
nə́ss
##ə́ppax
##əpy
tavt
nud
duǧǧə́nnux
##rə́z
ʾod
gog
k̭uṱk̭ə́ṱtux
šoǧ
##ábar
dévan
null
šrisóxun
nk̭ə́d
pak̭dánan
bəšṱáxan
##ə́ltəvət
gungə́zz
xo
šúlp
hər
cviš
nadídax
šutt
pardúvvux
tox
cə́vy
ʾuš
mšurš
##ílula
k̭ok̭iyy
##ílonva
gammús
lé
darb
##ə́k̭tin
gənnan
sansúp
bəzlák̭
guššə́k̭k̭
xurxə́rran
don
##yántəvat
mízan
duǧǧənn
pə́ty
həndúšk̭
mak̭rəvv
xliv
suly
##úk̭onva
mdumdəmm
k̭addə́š
nánnax
##ə́lax
##ərténa
zupzə́p
špíx
č̭umbərr
murádux
##licóxun
yum
muxlə́ṱṱux
racxanóxun
baṱ
pašc
##úsuva
p̂alúšux
puxúyn
pumpə́xx
č̭ac̭
šə́ltux
##k̭ənn
k̭əsmát
xəlyóxun
čəngelúš
šrícan
xəsy
k̭urbə́nnax
lxíman
xašlánax
##ucóxun
##álitva
bənšáṱ
##acénva
##ə́ltuvax
ṱítan
čap
həndava
lxípux
lósan
z
##úytuna
č̭uxč̭
k̭aṱṱa
zangərránux
mušmíyyan
sək̭
bəsyáman
madməxxánux
lamlúmux
##əžtóxun
##ítuvan
##motva
tícax
##ə́ltitunva
calyánux
maxúsux
tpik̭óxun
muxrə́vvan
pəšṱ
mazyəddánux
mašləmmántan
mantərránax
panyánan
mga
##ím
čarz
k̭amx
ṱupr
prísux
k̭ark̭əmmánax
casúx
buzxanóxun
##uyvəntóxun
##iyyántux
maxdiyyánux
##avay
mupšə́rrux
##ʾattóxun
šanzánux
lə́k̭
cúmax
##uxóxun
jím
k̭rivóxun
macriyyánux
k̭úyp
buǧúymux
xalsanóxun
muč̭č̭íyyax
huj
šúlpan
k̭aṱk̭uṱóxun
vazvuzóxun
gm
margan
šə́ps
##v
rgúd
bəlxám
can
p̂liš
muxrəvv
##rə́tvalax
jríṱan
də́vxux
k̭ú
busamóxun
roxánux
##lak̭
##ayél
##ə́xtəvət
múp
gadyántux
##rix
banyántan
k̭ašyánux
gazgúz
nak̭yanóxun
dáld
sayádan
burbə́zzux
bəpy
ʾə́ryux
júrax
ʾák̭l
##ug
p̂op̂
vazvəzzánax
ṱárax
ʾo
čangal
mumrə́č̭
ʾurbə́ṱṱux
jan
mač̭č̭əmmánux
##ilénva
muk̭víyyan
xuzdə́ggax
##əštén
bəxp
ṱurṱ
##vəč̭č̭
golánan
mugvə́rrax
bəbz
##ə́ltuxva
baxúš
##udéva
k̭alyánux
lem
maxúsn
##ántiva
##ə́li
##pánan
mítux
šrík̭ax
bulk̭
##ántivət
##úyo
xašulyát
priṱ
##ítilə
xə́vyux
rədyóxun
##apénva
k̭ə́ntux
cárrax
bulk̭ənn
háv
k̭mixóxun
##ácax
ṱun
ju
##ləs
##ánt
xiyaván
candərránan
pardənnánux
sídux
sir
mušmə́ṱṱ
##mət
bək̭váy
šúyax
##úminva
háččux
yir
##étovan
talyánux
lung
xdiróxun
##ílovan
čaluvvóxun
čardácux
musliyy
talmídan
blís
muxzə́rrux
maryəxxánux
zak̭ránux
múš
zínan
maptúlux
yrí
munsə́rtax
ṱlíb
##ə́ntəva
k̭uxk̭
múcsux
šápnux
britóxun
ṱə́myux
pašmantóxun
lappóxun
pl
##vánan
mušrə́zz
mark̭ánax
##ə́rrə
húr
k̭amxánax
meyd
k̭unṱə́rrax
xviróxun
majyərr
hanagčíyyux
buk̭šóxun
ptílax
marməll
mumməltóxun
gaš
ʾarm
##úytəvət
##ə́nnətun
##rə́tloxun
p̂aṱp̂úṱ
ṱen
sínan
jarímax
čalbiyyánan
##úšux
mašlúm
č̭ungə́rrux
##tét
tə́pyan
k̭ə́č̭yux
maxšəllanóxun
bs
xəzy
k̭riv
##áyuvən
pəlx
pandənnánan
zmic
ráyax
ʾaynóxun
din
mardánax
macsəllánax
sabában
šelánax
ṱš
pallúy
parčínan
##úlivən
k̭armanóxun
bunyóxun
##úxan
cə́lyan
##ə́xtixva
##uréx
mabyətt
búman
xaṱ
xurzə́p
šulgə́ddan
##áṱan
##ī́t
k̭ulínux
camrantóxun
mank̭ášax
k̭urk̭əšš
mammiyyanóxun
zíc
šullúx
šaryántan
ganván
vazv
rep
sonord
k̭addíš
rxiṱ
##úxət
šálux
ʾak̭úb
gállan
ṱanṱúnan
k̭arməṱṱ
bak̭bək̭k̭ánan
xurrag
ṱəby
dílan
##ə́štux
tərt
šádan
də́dv
pšimóxun
šannənnánax
k̭urk̭ə́mmux
šuš
gangəzzanóxun
pallacánux
basmənnánux
##ləš
c̭unc̭ə́ššax
tanxánan
xasxəssánan
surg
zak̭r
c̭urc̭ə́ṱṱ
k̭axk̭úx
tanxánux
nišánk̭ux
bašlantóxun
lcíxux
məptaxór
k̭anúnax
muspə́k̭k̭ax
badəmjan
zín
ʾarabánan
č̭apč̭əpp
den
zambəll
mdurvə́d
xsítax
p̂učc̭ə́nnan
matxánan
mgumb
##daxs
##úyotun
mutpə́ttan
mudvək̭k̭
##úyəvən
caddúd
xurxərr
k̭idóxun
##ə́lyux
mupsə́xxan
##írivax
maxm
muxcam
hamzəmmánax
ʾark̭ánux
ʾasíran
šuxtənn
tópux
səcc
##úlovan
k̭əč̭yóxun
čuk̭čə́k̭k̭ux
mask̭əddánux
p̂armiyyánux
gəppiyyát
hayvún
##əxtéx
našmánax
pəry
šalxánux
nolánux
##írat
šadr
ṱəṱṱóxun
mak̭ṱəpp
##úxtux
heyván
##áxunva
muxyəmm
p̂líṱux
muk̭nə́zzax
ʾarzačiyyóxun
ʾáxtux
cə́tv
musyə́ṱṱ
##úk̭utva
č̭ímax
vádax
də́k̭k̭an
##isóxun
##yántutva
k̭urk̭anóxun
sbir
##dd
xzídax
##étuva
cumr
rxíṱ
nə́h
ʾady
ṱup̂ṱə́p̂
zurzə́xx
##yáttax
##ážž
k̭aṱk̭úṱax
mhád
xarj
rviʾ
mardúytax
zarzánux
šoyánax
tuk̭tə́k̭k̭an
sapk̭ánan
gadyántan
daldənnantóxun
č̭
gužgə́žžux
xmaṱún
šəppə́šc
muk̭ṱəll
rg
##írələ
##éxva
bəxp̂
sə́lk̭
meym
##ə́llun
xmaṱ
##rántin
hamzóxun
ṱanṱəll
xvíš
k̭v
marviyyánux
ṱíx
šak̭óxun
nazl
marjóxun
lámpux
##ə́llotva
zaxman
badlánan
k̭bil
duccančíyyux
gnáhux
juvvá
gupgə́pp
ʾurk̭əll
zarr
cutlə́nn
díyyax
lxímux
cásax
##əxtén
##ublə́b
xaraz
bəcnáš
súpyan
ʾurx
čídux
bə́zyax
bəxmák̭
ʾátux
švik̭
čunxəss
mčíxax
jlíxux
símux
##rítunvalə
šalk̭ánux
gudap
túmmux
k̭ə́rṱax
šlipóxun
sk̭id
mhúdyan
simalyát
npis
črízux
xalsánan
ruyš
dírax
líṱax
lamləmmántan
bə́ggax
txə́s
zaryánax
metan
badúvv
ʾamrántax
murrə́k̭k̭ux
##rəvan
##téxva
muddiyyóxun
sunsəpp
šuvvət
ṱarb
##yátitva
zuyóxun
bósux
mupv
ximóxun
hur
p̂urṱənnóxun
jə́dd
štavhərrántux
bəcyáš
##íyyovət
##láp
##úll
búsran
##lina
radyanóxun
mulvəxx
##átlun
durrə́nn
mansərránux
nemánux
turtərr
k̭aṱrənn
##íruvax
k̭urm
pəcc
muk̭ṱ
##yánəvət
gurgúymux
jrípan
halúc
##gəmm
rəp
sazóxun
k̭ambəčč
p̂uṱp̂ə́ṱṱax
tažbəxx
##azétva
mutlək̭k̭
k̭udš
k̭a
ragg
zríč̭ax
xvíṱan
masliyyanóxun
##əxx
č̭alavá
##ímunnax
sunsə́ppan
xə́zv
xəzzəm
mušməššóxun
k̭uhbə́nnan
zurzə́rrux
##vánux
k̭uṱk̭ə́ṱtan
tublə́bbax
č̭ac̭úr
č̭uzč̭əzzóxun
modúy
mízux
mušməṱṱóxun
ríx
##ə́lləna
čáran
##iyyatóxun
##̄́r
busə́rtax
##ə́rtot
##arúytax
mačrəxx
##arét
bənp
bəbsám
xícan
k̭arusóxun
##yané
mandərrunyát
musməssóxun
gulgólux
bazrúk̭
madriyy
tux
máš
##yátloxun
ʾayb
núby
bəf
beráš
cúman
k̭aral
jarpánux
túlmax
mažǧəšš
zamáran
cavútrux
##unévax
midóxun
ʾadáttux
bəsráy
jarṱanóxun
nəcca
hanaguyát
č
nək̭
##ə́ltu
ṱarsánan
sabránax
ps
pavár
míxux
panyántax
šárax
rud
cap
sájux
##rúk̭
pərsát
bəxtám
mupšíyyux
šalk̭untóxun
heməzm
milaló
mrik̭
švík̭
suss
navvərránux
k̭ə́nyux
tásan
##urvədd
sə́tv
guryóxun
máx
latləttan
macv
bánd
xasóxun
duk̭d
k̭aṱmənnánux
č̭lipóxun
bəjnáv
buk̭árax
púxlux
ʾatírax
##ə́llan
nə́k̭vax
##apétva
ṱumróxun
##itén
cə́tvux
##ántən
xamšo
xám
də́ž
k̭ablánan
təryóxun
##úyəvət
xórux
mummə́llux
nj
gzúr
šlímax
##ə́lluvax
bəxyám
gl
##yā́t
č̭lip
paráx
dlí
##úləvət
##yátin
mtil
k̭apk̭áp
bəgnáy
muxxíyyax
gəss
##ámux
gargərr
masṱap
##bim
ʾald
##və́j
č̭lípan
##iš
##ə́nvalax
tli
šallák̭ux
nummənnóxun
##čiyyóxun
muk̭yə́ppax
guz
móhrux
camróxun
viróxun
šaṱk̭anóxun
taraz
ṱuvvitóxun
šamámux
ʾijaradárux
cóc
juvva
xunx
mummíyyan
##ítunvalə
##ənlux
mak̭k̭asóxun
bə́nyan
##rə́nvalan
yupk̭
sanyanóxun
k̭axk̭ux
mušməšš
č̭arč̭ərranóxun
cutc
cargáran
ʾok̭íb
mbujbəjj
xurxə́ṱṱ
##ə́nn
gáv
ʾídan
srívax
šuclə́cc
daǧǧ
bur
ráyux
xátmux
masyədd
pərk̭úyn
p̂aṱx
gadyánax
šártax
k̭ašóxun
dəlmánj
k̭uk̭íyyax
xəlmat
##əxtét
bədláp
masxiyyánux
##úzux
##únunva
mulə́p
terlánux
širənn
bak̭r
xúmyux
lumlə́mmax
bəšyáp
##ában
mungə́rran
niróxun
##úyr
##ə́mmiva
mašxədd
mutv
hújj
##áruvən
glúl
č̭uc̭bənn
darváz
nšíran
k̭ablántax
brícux
ʾurzənn
##uyátax
murrə́ššax
pasuk̭óxun
casóxun
xašv
darǧóxun
##ə́rr
##alóxun
payṱ
goróxun
lúvv
##ənyóxun
nadránax
bampərr
če
sə́xyax
parsanóxun
##lə
muprə́ṱṱ
mujrəmmóxun
díc
malhúd
jválux
##yátona
šápnax
gxic
hálk̭
ṱardánax
núyan
xiy
##úmotva
pullíyyux
##úlula
musk̭ə́ttan
bəry
táy
mapšiyy
xaltavá
##rə́nvalə
šurpə́k̭k̭ux
xunzə́rran
pundənnóxun
nšírux
nummənn
p̂op̂iyyánux
mutpə́k̭k̭
najvánax
zump
mdamdəmmánux
tuvvúl
baxxilan
galyantóxun
xorúytux
bənz
mugníyy
##uyé
talóxun
ʾík̭
cúyšax
##̄š
prə́c
musy
bəxráv
júvv
sarsərrántax
terlánax
balta
gə́vyax
xoṱánux
xalláttan
bəzyóxun
k̭óšax
ṱamránan
##yátən
ʾava
srik̭
cutcə́ttux
xap̂k̭ánux
mudyəššóxun
xvarnét
##tárux
šəbbəryát
k̭ark̭əmmánan
mup̂lə́š
surṱənnóxun
cpíšax
munṱə́ppax
cumáyax
mussə́mmax
sə́lc
pšík̭ax
šarcánux
čiri
meydánux
carpí
##ə́nnəvat
modiyy
k̭alpántux
mučx
pullíyyan
k̭all
##usóxun
tlíp
tummə́zz
ṱarsántan
ṱunṱ
vasvəss
ʾúrzax
paršənnánan
bulbíyyan
payyánux
mudvə́k̭k̭
rv
caddút
zuc
rə́my
##tovat
ṱup̂úr
xulxə́llux
bulləss
maxš
##ní
tuxmənnóxun
terl
maptəllánan
bla
muxdíyyax
šunnənnóxun
bəcr
súd
lusləssóxun
ǧlíban
č̭upč̭
buxxəll
bəṱš
šnizóxun
##ə́tlax
mubsərr
paršánan
štavhúrax
pánd
##iz
##únivax
mupyə́ššux
balbaṱóxun
páll
muč̭č̭əmm
pultə́šš
ptux
tók̭
rə́k̭tan
punyóxun
k̭undaǧóxun
msazgərrántax
sarrəpp
k̭unṱé
k̭ís
tá
xapṱ
čúyn
bimóxun
maṱmiyyánax
##ə́tloxun
##əmla
raptóxun
##xəbb
musk̭ə́dd
k̭ašk̭əšš
sparə́g
bəgl
##íyyəvət
čírax
##yátit
gannóxun
##ité
##jak̭
rímax
rás
rəd
pšírax
xuč̭xəč̭č̭
margúd
xšívan
mríč̭ax
ʾaxunvay
zam
##yánnux
##ándux
xsíxux
lípan
##axx
bə́nyax
mak̭riyyánux
cpínux
k̭álm
masal
šalk̭antóxun
reš
k̭urk̭ə́ššan
šaṱx
##liyy
##dánux
č̭alp
##uzg
čríx
##ázta
púršax
lúylux
##ixóxun
razz
murrítax
##apcar
muk̭nə́zzux
mak̭rəṱṱánux
gund
gárč
##ə́rtutva
mapšəmmánux
##yánotun
k̭appax
##totun
##ə́mtiva
maptúlax
p̂ump̂əll
ríxax
sandántan
santúrux
hulíyyax
##úytəvax
mubrə́zzux
##áp
##ə́k̭totva
##ulévət
xarup
k̭oyánax
gašš
ríxux
cusiyyát
##əddóxun
xoránan
sri
mansərránan
mix
p̂lášan
cvíč̭ux
lúvvan
xup
rástux
grəštóxun
č̭ac̭bənnánux
cə́x
haramiyy
babəccóxun
šic
sarti
č̭uxč̭ə́xxan
##úlix
márrux
ndírax
nuxnə́xx
##é
zavvəjjánux
zangúylan
də́xyan
##ab
juvvə́ṱṱ
šrə́ṱ
xandák̭ux
ʾarzačíyyan
ṱunṱənnóxun
payyántux
sarsərránax
čublə́z
##ánuna
tavvəbb
zí
mupšiyy
carhənn
xuyravá
ṱímux
nvixóxun
p̂alúšax
##líla
k̭íxax
sə́mmax
xazyánux
šelan
səxyóxun
ṱur
##ə́nnovax
šuk̭šə́k̭k̭
camrántan
hak̭yánan
tarúc
masrəppánan
maṱbiyy
##ə́ntixva
jniv
k̭ṱípan
k̭arras
##ítox
gazm
srivóxun
##ulalóxun
gəbb
məttəlyát
xandák̭an
k̭ulínan
rad
gəvva
fan
mušlə́mmux
saháttax
k̭upšínax
##vala
neríyyux
sulləllóxun
k̭ayt
##úrənva
bəxnáy
k̭as
##ánton
ʾask̭anóxun
prim
saṱl
munšə́k̭k̭an
gurguymóxun
muk̭yənn
mazráy
xarxanóxun
##rə́t
gə́byan
xtím
mušp
xíyyux
zadóxun
c̭ár
##ṱənn
##ə́rrəva
daryántan
júrrux
sil
##ríyyan
gupgəpp
##əvvátva
nasvánux
musnə́nnan
ʾazad
##šaxóxun
xox
mušməṱṱ
bəsráṱ
##ítuvat
čxís
črízax
murgíyyux
pamlánax
pə́šcan
##rivan
##ə́rtuvən
xúp
naxmántan
ʾamlántan
luk̭lək̭k̭
##ila
zmíc
musyə́pp
##álutunva
##yánon
puk̭dánux
zubnóxun
##íy
ʾəzz
dəry
báx
rašpár
##étuvat
raxúyman
##ləpp
ṱuvvítux
vardóxun
dumd
ʾarzačíyy
badlánax
nə́vy
mešačíyyux
##uk̭ét
manzilóxun
lašxor
šxúr
nánan
talk̭ánux
dlípux
los
púnyux
sahdanóxun
hayván
curróxun
bazbək̭k̭ánux
masrupóxun
sabránan
gújan
ráps
nsə́v
bəlyáp
ṱəv
bə́xyux
tpíx
muprəṱṱ
yak̭ub
rədy
ʾull
súpk̭an
xusxə́s
ʾáybux
##up̂p̂
##ərránan
šúbxax
cī́n
##étu
č̭uxč̭ə́xxux
##uṱéva
##íluvat
maxrəmmántan
juss
črítax
vasyattóxun
nším
pə́tv
lak̭
##úytonva
bəxnák̭
ṱanṱ
ʾatm
##ú
čuplə́nn
##úk̭inva
ʾaryánux
##lə́š
rp
garməll
mugrə́š
gumgəmmóxun
bəcpár
ctə́vtux
c̭urc̭ə́ṱṱan
šlə́p
maccəmm
pə́sk̭an
capn
šúyux
rvixóxun
bəssayóxun
k̭anṱ
bún
mutrə́ssan
magd
gurgəštóxun
mučyə́rrux
ʾatlíyyax
nač
tup̂p̂ángux
##ítula
##úštax
mamyəttan
##əltévat
ʾuk̭lə́nn
hudayóxun
sapl
##áronva
hurmát
šudd
ganvánax
k̭uvvə́mman
sk̭íṱ
xošibavá
snun
##árəvax
bláč̭
##ə́rrəvax
muč̭mə́č̭tax
xadránan
mupšə́ṱṱax
##rə
daǧǧənn
k̭alayčíyy
xə́pyan
šún
mapvərránux
ʾávax
zambúlan
parpiyyánax
##íyyula
nuyn
##ák̭k̭
##əxtétva
rudrə́d
críbux
grídan
##úyu
##ə́nnə
##k̭ax
bək̭b
k̭ušk̭ə́ššux
##ántələ
rómux
pulád
mắ
rapyánan
masxaráttan
ʾurk̭ə́llax
primóxun
šagə́rd
muk̭rə́ṱṱux
bəbnáyan
k̭aṱm
baṱn
##tət
##yáninva
k̭ábz
radyánax
muzdiyy
k̭anz
k̭armántax
ṱamyánax
k̭rə́mtan
##̄́m
##varóxun
šúpn
mugníyyux
čək̭k̭
sənják̭an
gungəzzóxun
##bəj
zlípan
ṱlul
mazd
p̂arṱənn
nšim
təbyóxun
##už
čík̭
bəpšáṱ
nammənnánux
saxyánan
k̭ark̭am
##alyátan
ṱís
##op̂
ratrú
bəzláy
ṱoyánux
súyp
tánux
bax
ducdə́cc
ʾalízux
zanyanóxun
##yanéla
##unyóxun
də́k̭k̭ux
xuprəcc
tuk̭tə́k̭k̭ax
k̭ə́nnax
sabáb
dáhn
mucnə́ššan
##írilə
tumtəmmóxun
xərx
šrís
dúbrax
buriyyóxun
šúrv
k̭álpan
šcur
širənlíx
k̭abur
təxx
##tovət
##əštétva
nvix
##ə́nnuna
mxušcə́nnux
pšíman
harr
sedačíyyax
durdə́xxax
šurpə́k̭k̭ax
##áninva
mamáčux
yálan
##arévax
muxyə́mman
tanxánax
ʾelčíyy
k̭im
hurdə́k̭k̭ax
nsírax
xə́dyax
xátm
súysux
maxšəvván
##ánut
xoyánan
mač̭č̭iyy
bagər
k̭áṱṱax
##úcux
bərpáyax
təllis
sə́bb
zeránux
šṱíxax
tamməzzántux
yalyánax
dulábax
mumrəč̭č̭
bánn
xušxəšš
lísax
##ávv
garrəll
##útova
ro
##̄́t
dayk̭ún
cemánux
č̭arč̭ərránux
mummə́k̭k̭an
k̭diš
pliṱ
k̭əsrav
rišóxun
##rə́ttə
srə́p
purpə́llux
scínan
mumrəč̭č̭óxun
p̂áran
č̭am
dvərtóxun
cécux
gád
xərxíyyux
samm
ʾəryóxun
##əttanéva
##ə́lləla
##uryátax
bəbláyux
##əttan
xač̭xəč̭č̭
k̭lik̭
šibánax
mardənnanóxun
bút
máṱṱ
ríṱux
šuršíyyan
lk̭iṱóxun
cusítan
ʾaslánan
mammiyyánan
halávux
druš
mušxəṱṱ
mapšəṱṱánux
tuptə́ppan
##yévalun
marpiyy
bəpráyax
nsíran
palačánux
##únət
lablánux
ṱəztún
##ə́šlax
bərk̭
šmíṱux
##ək̭lan
k̭avvəmmánux
zullə́zzax
patyánan
##mən
taxánax
sə́rp
rúppux
xaríṱan
k̭azaláx
ríšax
nak̭k̭ašcárux
púcran
##əṱtétva
murvíyyan
manzílan
ʾáry
bəsyámax
k̭ulk̭əllóxun
k̭ə́sy
zə́r
##yánən
##ivóxun
##uvvət
bəsp
##ə́rrotunva
##úng
muššə́ššan
rpapóxun
muššiyyóxun
##adén
bulməll
gardan
k̭ə́šy
gdišóxun
maryəss
hačč
mumməll
tardánan
sbíran
marmanóxun
dúry
##iyyéna
mbarxəšš
xaṱúran
janván
xúy
manyánax
ʾusculayóxun
##áx
zvínax
mušyə́ppax
tapanóxun
k̭urk̭əṱṱ
nə́k̭
##uytét
p̂úzux
mujrə́ṱṱux
č̭ə́m
##čiyyévan
##yánotunva
##írəla
dandəcyát
##úlulə
balk̭úṱ
bár
k̭aralúy
p̂alš
mugniyy
mazmúrax
nurnərróxun
švíran
zupzə́pp
lxé
masvúy
mucrə́bban
dvínax
##únən
k̭əṱ
yaṱṱántux
č̭ak̭k̭álux
##antétun
val
čənč̭
mə́lyax
tagbərrántan
##uss
čayp
luzlə́zzux
jalxántux
##úč̭
##útuva
líyyax
xadyánan
muštóxun
##úbb
nadr
šṱíx
yatúyman
ʾek̭
mummiyy
mburxə́šš
bsíman
xunz
##ronva
malh
##lovan
darv
ʾaldiyyánux
čuk̭čə́k̭k̭
zublə́nnax
ʾatróxun
##əllóxun
macs
saplúp
cəlyóxun
šəp̂p̂ə́š
zurbə́nnax
nə́šrux
mak̭rəmm
taxmənn
ṱaymənn
várdux
vajvəjj
dúr
golanóxun
parsənnánan
##rəvat
mussəmm
ramyánan
##ə́mvalux
manzəll
##ə́ltil
zuk̭
dúbran
ṱárpan
##gl
##lílə
jussóxun
##gárux
zuzíyyax
galjánux
yuk̭rə́nnax
malca
p̂amp̂əll
k̭áṱvan
masyánax
##əšša
##adét
bəryámux
munsərtóxun
tuxmə́nnax
ʾurxət
gár
mak̭ṱəll
máp
##ə́rtinva
xap̂x
xuym
búym
šuk̭lək̭k̭
gárdax
cəndúrux
xunzərróxun
jrip
pavvərránan
mumxiyyóxun
šuk̭lə́k̭k̭
taryánan
vádux
totáv
šelanóxun
k̭alk̭
k̭ərránax
mascunóxun
balbəllánan
tuntə́ss
šnízax
bəsrád
##dova
hasiróxun
k̭ab
majgunyát
víyyax
šáprax
mérux
p̂ə́c̭xux
muxz
pašk̭antóxun
pašr
háy
ṱulóxun
##íləl
pušák̭ux
gaxucət
ctav
mcund
gávux
murcəvv
spík̭ux
k̭anjibáǧ
dəccančíyy
xalm
zunbəll
cúrcax
čommáx
##yət
šrik̭
k̭aṱyánux
gangúz
##xəšš
##əmtétva
payyánax
záǧax
##ráxan
ʾavah
xuddəttóxun
k̭ə́lyan
sansúlax
gxícax
##əlyátax
zallúz
zə́nyux
pandámux
tartərránux
xusxəss
mupp
muššə́ššax
durm
##mi
muclíyyan
park̭ánux
ramúvv
brik̭
srívan
##əntévat
č̭ángan
mílan
burcátux
cutcə́t
srə́v
tanyantóxun
k̭umríyyux
bəmnáy
turk̭əllóxun
špíxan
p̂aṱúxax
pasx
##úrotun
muxziyy
mšíx
čəngərr
rux
##rəvət
zak̭ranóxun
ʾasbáb
##ənva
ṱínux
mucríyy
mašxənnánux
vuzvəzz
rak̭k̭iyy
xapyánux
zb
ganvánux
gármux
##ətk̭
pušk̭
zumzə́mman
sak̭k̭ətt
nísan
##yatéla
grič̭
nak̭yánax
dívux
calc
císux
sə́trux
nviróxun
smik̭óxun
xošánux
muplə́xxax
##ə́loxun
ʾabadd
xanzərr
sarádux
zulləzzóxun
##k̭ánax
dabáš
##ə́nnotunva
##yátolə
##únola
zanbəllánux
partəllánan
čungə́llax
lujləjjóxun
šalk̭úntax
##úyona
##ə́mtuva
yulpánux
ʾutíyyux
##áyitva
mač̭miyyánux
šacšəcc
##óš
##ə́ṱṱ
ntiróxun
##čəcc
grič̭óxun
mayyək̭k̭ánux
##únəva
č̭imóxun
mugrə́ššax
sr
cə́rš
tapóxun
bətrás
ṱl
##úytuvan
##lot
mummə́ssax
##lantét
pavv
pašyántax
nsívux
níman
zadyanóxun
xabránux
húdran
##təm
##ə́k̭valux
##zəpp
sázux
mubsəmm
šúny
bəzmáṱ
turə́c
saʾát
duldə́nn
##árit
k̭uzə́d
talmús
muccəssóxun
parxántux
k̭almənnánux
##ánnax
talk̭ántan
luk̭lək̭k̭óxun
bambúyl
mrə́d
xarjánan
##vát
##úxot
prəngáyux
šurrə́ccan
musrə́ppux
zubṱə́nnax
##áxova
k̭ošuy
mumcə́xxax
##úxax
huk̭yóxun
ʾark̭əll
muxbəllóxun
##ə́lun
bašlántan
muxšə́xxan
##ayét
##yánti
prám
##íšan
##rulə
ruzn
jor
baryánan
zalləzz
pursənnóxun
dagáltux
namn
slavá
dalluc
##árilə
mupšəmm
zardačúvv
##úyun
##taʾl
lísux
pavvərránux
majmóxun
saynóxun
##vay
##úləvən
##áttova
ṱanṱənnántux
k̭ə́štax
##rin
radyánan
tartərránax
harrajab
mudyə́nnan
bəbxáy
mazróxun
tagbərránux
harís
mummə́ddan
xrítux
barx
k̭ala
xluyl
##lox
murcə́vvax
##ə́xlun
xarjánax
##úytona
buxróxun
ravay
k̭aralúc
##únovan
zə́vyux
súr
k̭arrás
k̭nə́z
##ántovax
máll
palák̭ax
milalóc
k̭aluyl
giv
lak̭lək̭k̭ántax
jasúsux
k̭ávv
xurzə́ppan
búč̭an
##nux
mudv
šə́ry
bəpláṱ
dəštóxun
sall
rupp
##yántu
##iyyat
##yánətun
mak̭ṱ
xəmk̭
járgux
paydóxun
##ríṱux
p̂arṱəccánux
bəgn
lagl
##ačiyy
##lúp
##ə́ntuvat
xaryánux
brídux
júrban
muṱyə́xxax
racvánan
k̭víran
bəp̂l
ṱuppə́nnax
cərtvá
ʾarabánux
pušp
lutlə́ttax
zúyan
k̭assáb
zə́n
##ə́ltuvan
šanšəllánax
k̭uṱmə́nn
šaryántax
k̭aráv
##ə́xtəvən
k̭i
ʾángax
gxícux
##étunva
bals
macsánan
##árunva
gút
taruk̭
šamx
muntiyyóxun
šall
##yántət
bəbláy
ʾáxtun
##ššək̭k̭
šó
sak̭álax
bək̭ráman
č̭m
cavə́d
č̭unč̭ə́nnan
mesántan
šacránax
grə́č̭
yarx
##ítut
k̭ríp
xanóxun
##ə́xtəna
##s
##itévat
ṱaryn
bsárux
təšm
jrídan
rándux
súm
malyúz
xzúyr
díš
janjərranóxun
č̭uzč̭
rxíšux
ndíran
k̭elank̭úšux
svetárux
bəl
tlixóxun
##ə́ntovan
gardəlyát
dós
yurx
ʾak̭úl
me
##ə́nnunva
calíjan
k̭lip
toróxun
babun
túytux
məll
hálk̭ux
ṱummə́nnax
prí
##úmb
gina
xúrj
tafk̭
##ánotun
##ə́llovət
maṱmuyóxun
k̭aračáyux
glijóxun
k̭ažk̭əžžánux
šriz
zubṱənnóxun
##lívali
k̭amm
##rəš
tay
zík̭
##líx
##məž
##ə́zz
basm
rək̭k̭
múvran
rušnúyg
dvínux
čangálan
nə́k̭bax
##áyivət
búrjux
bulləssóxun
mhadránan
díyyan
psíxux
pəšy
##təvat
##ántunva
paxul
mansúran
durbínan
ʾədmavá
ṱrídux
xasranóxun
muč̭m
ṱux
##ə́ntəx
maxmús
##ək̭la
bəttav
č̭ak̭
mətʾor
húk̭yux
##pim
##íloxun
madanúz
bar
jríṱux
čalbiyyánax
cvíšan
dardus
##árovax
piyy
badənjanóxun
pli
sbírux
mammərránux
##ítunna
zabnanóxun
mublə́ss
ʾaldúy
pritóxun
bagranóxun
##ə́xtitun
xúrman
tuntərr
lípax
sə́myax
bulbə́ll
ctə́v
cavə́dn
búzmux
##ánitunva
ṱízan
tv
sandantóxun
bək̭rámax
čarpíč
sə́vy
mak̭m
gə́dyan
ʾajibuyát
bəzlám
k̭allay
miyyóxun
nə́k̭yax
purpəṱṱóxun
##úyc
k̭axk̭əxxanóxun
##tévət
##lola
šlimún
camcəmmánux
ráz
jalalíyy
k̭aṱaróxun
k̭aṱíyyan
buxxəvvóxun
##lava
blə́
giváy
šanz
##ámm
##ə́ltotunva
basmánax
šmiṱóxun
##ə́nnovət
luslə́ssux
xad
həšyar
parpúran
štuvhə́rtax
k̭úx
muccə́pp
k̭udmóxun
##rə́dd
##úmot
murgə́d
xíyyax
mazúz
mhadranóxun
našr
našúytax
hasílax
ṱuxṱə́xxux
šíbax
##rítunvalun
msazgərranóxun
šə́lyux
ʾík̭an
čublə́zzan
##ávalə
sardanóxun
sansúlan
muprəṱṱóxun
pump
šríṱan
najəx
##ə́lvalun
muxrə́m
rə́pyux
##átuvax
xuyyədd
mardənnánan
xazádux
zuk̭z
k̭urk̭əṱṱóxun
##ə́rrəvət
hayyərranóxun
##ánlun
šlíg
ṱáṱṱ
x
bəntár
jlixóxun
tuvtə́ššax
p̂l
purpərróxun
šuk̭lək̭k̭óxun
šap̂rənn
šár
##yátutun
##ā́n
majjiyyánan
cún
gánnux
semánan
mamúyr
bəṱváyax
marrúš
pšíxax
k̭úk̭
mussəmmóxun
šárx
cuyláš
##ušóxun
sə́k̭yan
##ívux
##yévalax
k̭arač
zr
p̂ump̂ə́llux
xdírux
mec
lumlə́mm
ʾurməžnét
spar
báč̭
se
xurxə́rrux
búṱlux
ṱabyánux
č̭áč̭č̭
mulhədd
sítux
c̭aréṱ
murcə́xxux
bəxr
ʾaǧayát
suráyux
k̭uhb
muxnə́k̭k̭ax
munsə́rrax
k̭ríman
catvan
##ak̭éva
p̂ač̭lánax
málcux
móc
nánn
##ə́nnit
##últax
ricó
spík̭ax
zlímax
muxpə́llux
tapúyax
bárrux
buybárux
##áxtax
babə́ccax
##ípax
xd
jár
talyanóxun
burrənn
gardánux
nuznəzzóxun
xp̂iróxun
##min
surrəpp
míyyux
parz
sarpan
šárxax
măʾə́r
šucšəccóxun
bəšṱáx
##luvən
garván
txínan
múrmux
ʾor
##təvax
cató
##él
##áxtux
paxl
mubrə́zzan
ʾak̭l
k̭urk̭ə́mmax
##éton
dallálan
dálmux
nár
k̭áplux
##rənn
šahzádux
sak̭yánax
##ə́nvalan
xablánax
durdə́žžan
pə́lyan
munk̭əddóxun
##ávən
bəryák̭
maslúyan
gutt
k̭ápux
ṱmiróxun
puršənn
mupšə́ṱṱan
##áluvax
súran
##álo
majjəbbánux
mucvə́č̭č̭ax
##hóxun
munšərróxun
k̭užd
baxt
##íyyul
mab
pult
sə́k̭
hərra
báxt
saralúyg
zak̭zuk̭óxun
##ə́ntutunva
šanšəll
yon
cvíšux
rgidóxun
nabyanóxun
k̭av
mugxə́c
cíp
##léx
gúyan
##únona
p̂ə́č̭lux
zabk̭ánux
zúyux
marcúv
bəxmáyan
k̭aždərránan
yavántax
muxdíyyan
bəssáyan
darmánan
ruk̭
ʾab
gvilóxun
pašṱanóxun
lišanóxun
č̭uč̭iyyóxun
xə́zyax
xurə́j
xabuy
šulləllóxun
halh
ʾurz
k̭rə́xtux
gósux
carázux
##əvv
##rə́ttux
tantərránan
šárš
##val
caləb
səmy
marriyyántax
maṱmiyyántan
mač̭muč̭óxun
təby
cərv
##iloxun
špixóxun
murrə́ššux
maxrəvv
##əllā́n
ṱrípax
bəmz
gamš
carvans
mašxunóxun
pašk̭ánan
prə́stax
ṱízux
mašóxun
busmə́rrax
nášan
##átit
pargár
bábux
čannóxun
##o
##lu
xamk̭ánux
bəsnák̭
suróxun
maššúš
c̭ərṱ
##yálux
##núy
bəxráṱ
##təvtóxun
p̂ṱíxan
yaǧiyy
rə́jb
šadóxun
xáy
laxmačiyyóxun
xurzə́ppax
##ə́ltitun
sannámm
txíran
ṱet
cəc
hanhənn
tálux
gargəššánan
##yánitva
mummə́ddux
tuvtə́šš
zriṱóxun
k̭dim
bə́x
bəbnáyax
nazranóxun
p̂učc̭ənnóxun
msuzgə́rrax
ṱurbə́ṱṱan
bəpráxan
##áruxva
##əbyóxun
xə́dyux
k̭arantúy
dáb
nšírax
surṱənn
sazánd
##ávan
núxm
xk̭íran
yak̭ubáyux
rik̭óxun
šádax
k̭m
šə́nyan
jiy
##əṱtén
gargúšan
tulə
mamyú
č̭unč̭ə́nnax
čambárux
čaypázux
sunk̭ánax
##ro
šúryax
yalyántax
##ántolə
xurxə́ṱ
mčíxan
gurgə́ššax
barrənnánux
mabrək̭k̭
laṱṱənnánax
park̭ánax
tə́pyax
zurdə́nnax
č̭ə́d
k̭úlpux
musmə́k̭k̭ax
torčiyyóxun
capšántan
muṱṱəttóxun
mak̭k̭ášax
ʾarbəṱṱánux
turcáyan
mudríyy
gdíš
valvəll
payx
ris
##ə́rtəl
sávz
čullóxun
jírux
murrítux
maštúyax
k̭árrax
##́
šarpək̭k̭
ṱúšyux
##yántəna
muntərr
mujrə́p
sarsaǧ
dubləbb
xášax
bəgvár
súpran
šuxlə́ppux
šupnín
##unéxva
rujrə́
##riyy
šuršiyy
cúrran
šmáyy
duyk̭
xajlánux
k̭anúnux
xašxánan
čamčúman
muk̭riyy
k̭uhbənnóxun
##étəvət
##ə́nnələ
črí
čubləzzóxun
saṱránax
garvəss
c̭arc̭úṱ
##ə́rtixva
xer
daldənnanóxun
mugxəccóxun
ʾantárax
##k̭ul
túnyan
praš
vusvəss
č̭azč̭əzz
mumríyyax
##ántan
##ə́rto
##áxla
ləbbavá
##ulyátax
tpinóxun
šə́rmux
k̭ávvux
ʾujjə́zzux
nurnə́rrux
zíl
##can
dabbaǧ
bəmx
búk̭ran
##íjux
tə́nyux
yalyánux
##rə́šš
xásan
natəj
núvvax
##ílola
##rántuva
líbux
suxsíyyan
mrál
našránan
banyánax
ṱrə́d
##úniva
vuzvə́ztux
nux
##ublə́
##útəva
tuntə́ssax
mušrúk̭
sridóxun
hud
##álova
##ítivən
margiyyánan
šuttəššóxun
dénax
nullə́nnux
šap̂lánux
garšántax
ṱavv
##úyəva
tfík̭
zurz
##unč̭
dalpánux
busmərróxun
nə́k̭van
manx
##yanéna
k̭etan
yavár
##úloxva
čúynax
##ə́mlun
k̭upšəntóxun
purpə́ṱṱux
bə́ryax
šlə́k̭tan
nargís
cós
muppə́xxux
čaplənn
mugníyyax
##ə́rruvən
k̭úllux
ṱítux
ʾamaráttux
xusxə́ssan
##tut
ršímax
xalp
p̂ap̂r
msazgərrántan
rítan
xlip
san
cə́r
mupríyyax
k̭nízux
##us
k̭úlpan
vulvəll
k̭ečíyyux
tris
dək̭k̭
madmiyyánux
zádan
muk̭vəxx
sənják̭
ʾuyvənn
zón
hábsux
lujlə́jjax
k̭aṱiyyóxun
naxlánux
macsəllánan
ṱuymə́nnan
##álilə
##ánonva
gumg
cə́m
##ík̭ux
##úyton
nomúyr
naṱranóxun
musrə́ppax
pardanóxun
ʾelčiyy
k̭uṱrənnóxun
šúp̂
##ə́ntila
maxvərránan
xalmánan
baluvván
k̭undəxx
##əvy
k̭ərrə́šk̭ux
##əng
nə́dyax
canášux
nəhy
barṱún
muxlíyyax
ʾək̭b
##tiyy
xazd
búnyan
zúl
sə́p̂s
čamčúmax
jrí
##ə́nnəvən
durdə́k̭k̭ax
šurp
č̭ungə́rtux
k̭ark̭aróxun
munṱəppóxun
nuk̭nə́k̭k̭
bak̭búk̭ux
maclúy
šallak̭óxun
##ayát
mak̭k̭ud
bənna
mutxə́nnan
gdílan
dú
cə́xvux
tumbə́llux
murc
zurbənnóxun
č̭arč̭ərrántux
itunva
bustan
sə́mm
k̭ur
túnyux
gilás
bətván
mánux
garvənn
##ə́tvalan
xulámax
jammə́cc
##ítunvalax
yumóxun
##ítotunva
##áxva
zardušt
súyan
ʾáryax
k̭urṱíyyan
majrəṱṱ
mujtayyíd
ṱvitóxun
lak̭lúk̭an
k̭ə́nnan
yals
gupgə́ppan
purpə́rtux
yáv
savúrux
##áyitun
mardunóxun
sk̭úrux
muscə́nnux
šuxrə́nnux
majjəbb
gnívan
sarsərrántux
zul
cacúl
čucčəccóxun
barriyyóxun
k̭aždərranóxun
mugxə́ccux
mejunyát
hav
sálǧ
ṱəlyóxun
yek̭
turtə́bbux
č̭urč̭ərtóxun
##yátvalux
púslan
##lətun
musliyyóxun
bədvaróxun
muk̭k̭ə́ttax
mabbuvvóxun
čullíyyax
xattóxun
##ə́mtonva
núvv
##álutva
žə́dyux
##bar
##əvat
musár
ʾanáman
c̭ac̭c̭
ṱimóxun
maxlanóxun
##átəvan
č̭anč̭ərránax
nsə́vtan
lmísax
tuptə́ppax
##rəva
k̭ayóxun
mdumdə́mman
muptíyyax
##réx
marpiyyánux
péč
gungəzz
k̭alx
mapšiyyánux
yamaníyyux
##lə́ntux
##zam
ʾáll
k̭arṱánax
mucnə́šš
##livən
zmíran
zonántan
p̂uzp̂əzz
šri
ʾordác
č̭ap̂p̂
bəbnayóxun
trisóxun
##yálə
mardúnax
xabrántan
muk̭ṱə́llan
##yántin
##ənyát
mujvə́jj
xak̭ránux
ʾar
xlim
šúnyax
štavh
muk̭k̭əšš
č̭umbə́rrux
nk̭íran
rjimóxun
čarxanóxun
báng
čangəllánax
múxlux
tórb
mujyənn
cutrə́n
##ánəla
badr
čola
puydánux
tapk̭ún
##itét
baxtóxun
lipóxun
cuzárux
##úrula
šlə́ptan
##étivan
šúlxux
štavhərrántan
č̭unč̭ə́rran
baxx
jrid
bəzráy
##ə́nnoxva
havár
ctírux
##ə́ǧ
k̭əssát
tapánux
xrípax
salləll
k̭addiš
putpə́ttux
##əmmanóxun
srə́k̭
napxanóxun
##təštóxun
napl
šl
##úyola
mubrə́zz
musrə́p
jamm
č̭ac̭b
bumbə́č
bəgx
júmm
zə́rč̭
bə́nyux
šxin
zivan
glíjux
sódan
mačíd
##avét
šulgəddóxun
k̭ṱitóxun
liṱóxun
sak̭manóxun
##žg
p̂líšax
gúryax
bayk̭
hummə́nnax
lə́pyax
ʾəstab
ʾárzax
tajóxun
msuzgərróxun
haramíyyan
k̭aryánan
ham
sódax
ʾazlánux
suxsíyyux
zǧídan
cug
xriṱóxun
juvvə́b
##átətunva
mutlə́xxux
muxmə́k̭k̭
##anénva
mašyəllanóxun
scinóxun
xəlṱóxun
p̂ač̭
bat
muk̭k̭
də́myan
xarrašc
##úrunva
danát
##lúy
mtixóxun
márzax
savóxun
jurʾát
múttan
bəč̭
bəlp
zəcca
hunhənn
šamamóxun
gargəššántan
##yánnoxun
črə́x
sullóxun
muctəvv
čayníc̭
##təx
##uk̭én
ʾərbalóxun
munv
cərvíšux
ṱamyánan
rángux
duldəllóxun
k̭nizóxun
gabyántan
marṱanóxun
cəxl
##évali
mašliyy
k̭uruš
šuplə́p
dríšux
muč̭cə́nnax
##ə́rri
##árutun
##áruvət
xjílax
mulvəššóxun
buk̭lóxun
curcóxun
mbujbə́jjax
javúj
jánn
gandəllánux
muslítax
dmíxan
zurzəxxóxun
bəst
cicóxun
ʾary
##ə́rtulə
čoracčíyyux
k̭ahba
daldəllánan
ʾeh
gb
k̭ə́myux
jlíxax
zangúylux
pašránux
mtíxan
muč̭mə́č̭č̭ax
##əpyát
k̭elank̭
mudíyyax
##k̭uva
laccənn
##líyyan
massəmmánux
našránux
##yəmm
k̭míx
čomm
##ánən
k̭əzz
mhudróxun
xazdəggánux
xušxə́šš
čucčə́ccan
##rə́v
guy
##ánvalun
##írəx
rk̭ídux
žədyóxun
šup̂rənn
ʾədd
ṱ
turbənnóxun
k̭urmə́č̭č̭ux
xapṱánan
jrípax
malə́gg
súyb
k̭ulyátan
čiróxun
##úytuvən
láṱṱ
ʾalúlax
hajáttux
##úvvan
lamləmmántax
zárran
nxípan
luṱṱənnóxun
partál
goz
xmaṱóxun
macús
yrə́t
šaxnánux
##ə́tvala
xup̂xə́p̂p̂
surgə́d
grív
bexy
mumməxx
črízan
##rəctóxun
masliyyántan
dandəc
matvənnánux
macm
txírax
maṱbiyyánan
k̭umríyy
tapyantóxun
ʾáynan
šíd
ballóxun
gmúr
npíxux
sávux
bagránux
##yátətva
xlívux
sak̭d
##irén
príṱ
hanhənnánux
rándan
šúdrax
xec
##rítunva
gnə́v
mhadyanóxun
xáttan
šury
garúp
yúpk̭
##čax
bulbə́ssan
tulmə́ssax
zamár
xuyravatóxun
lə́py
blí
marcəxx
lak̭yánux
##gəpp
k̭arnalt
čak̭čák̭ux
##ayévən
xəzyóxun
sắbab
##ə́mvalun
yə́lyux
tapy
mussək̭k̭
k̭arvánan
p̂aṱp̂əṱṱánux
mucliyy
pe
pərmóxun
do
##átvalax
štavhərr
##údax
mădə́b
širənníx
súk̭lan
tavə́rtan
divóxun
muč̭míyyux
mušlə́k̭k̭ux
k̭arúṱax
zak̭zək̭k̭ánux
xtírux
musnə́ddax
čríxan
macməllánux
garús
##ušt
##íruvat
gurv
hujjə́j
bəjmáy
##ílutun
tíyyux
blisóxun
##ban
cə́nšux
čarpúvvax
##ə́švalax
k̭urbánax
##írul
bəṱb
guzgəzzóxun
ʾídux
##ə́mvalə
yat
##pa
šannənnánux
láxm
muxšəllóxun
matrəssánux
##apéva
humzə́mmux
maláxax
č̭urč̭iyy
ʾuṱk̭
badúvvax
massəmmanóxun
hammálax
##lúnux
muppə́xx
dumə́ǧ
dardəxxánux
mušrə́zzux
priṱóxun
gabyánan
##diva
šacləcc
##ánolə
##avóxun
ṱes
k̭š
galj
##ə́ltutun
btúy
bək̭máṱ
durdə́xxux
duk̭də́k̭k̭ux
k̭ídan
yapəšk̭
k̭arpánux
cpišóxun
mask̭ánan
čaydánan
##yantélə
##ə́lto
tarbənn
sursə́rrax
muṱriyyóxun
mumməxxóxun
macxánax
##ə́rruvat
príc
##əcca
maǧǧəbb
mušcə́nnax
ʾapt
tuvvə́bb
mešo
cušcəšš
##úlutun
bdílan
txísax
##ə́rrax
də́xy
šóp
mášux
šalk̭
šuttəšš
k̭anzánux
dlipóxun
muk̭k̭ə́š
k̭ádd
janíman
šícan
lak̭yánax
muxšə́vvan
jə́myax
dublə́bbux
k̭əšláǧ
damǧanóxun
tupt
##ə́xtul
xuč̭xə́č̭č̭
čaydanóxun
many
bəyyák̭ax
bárax
ṱə́byux
muslí
mudyəllóxun
##úytəx
##ránt
##áttuxva
k̭nízan
##ásax
picóxun
busm
ṱimánux
raxmánux
dáyk̭ux
##rə́ṱṱ
p̂urṱəcc
sítan
bətpáyux
muxbə́rrux
šál
##ítuvən
ʾutk̭ə́nnax
lúmb
ʾoráy
psíx
sax
luzlə́
čedánux
xúrm
pak̭dánax
##səll
márjux
racavóxun
pə́šyux
k̭ə́č̭yan
čalləšš
sandúyk̭ux
čamx
##ccóxun
k̭ávan
##əṱ
sosiyyánax
##ə́ntula
vajvúj
ladánux
lasləss
róz
lmísux
mardəxxánux
nucnə́cc
ján
šubbóxun
##ánni
##álotunva
ruyyíyyax
bric
saparčíyyux
muv
##yántənva
yarxánan
##aváx
tantərranóxun
##úluvax
rúyan
mač̭riyyanóxun
##úrun
rappiyyánux
burbərr
##ítəna
##ərrə
sun
munt
##át
##étonva
maxjəllanóxun
bumpə́rran
xaṱuróxun
##k̭əllóxun
tamúz
čumbəll
lux
cvíč̭
dinóxun
muk̭k̭ə́ssan
capnánux
sak̭mánax
dəcc
k̭aryánax
buríyyan
maxdərrántan
ducc
purtəllóxun
yavalta
mušriyy
##úny
murrə́ššan
##álivat
##ə́ntix
curhə́nnux
hə́rs
mehman
pešánax
##órux
sarsəmmánux
ṱamšanóxun
pəryóxun
c̭ap̂p̂
garrəllánux
ṱuláz
masrəxx
##ácc
malliyy
##árivət
mašyəllánan
k̭aždərr
##cəl
šulṱíyyux
simavár
##yátitunva
sə́ṱyux
šəccayát
##álun
mcundə́rran
šṱə́xtan
pac
bne
mútvux
šuyóxun
hosálux
turpún
k̭alyanóxun
súpyax
maláp
p̂əc̭x
gé
šorak̭
č̭arč̭iyyánan
mutx
mup̂rə́mm
ctə́vtan
vujvəjj
##ə́ssax
margiyyánux
grívux
##alúy
##vav
##ə́k̭tot
k̭utíyyax
rišu
šark̭əppánux
ʾuldiyyóxun
musyədd
jlíx
gəš
púnd
majr
##ə́ztux
tarx
muṱbiyy
búj
mhúdy
xrípux
##ə́ntin
##áyəvax
súb
muprə́k̭k̭ux
bél
rax
vusvəssóxun
zvín
donanóxun
xasr
##ə́lyax
zallun
xarv
k̭uč̭áč̭
gdə́p
sállax
taryánax
##ədténva
##ləvət
múyyax
suṱlə́ṱṱan
##əttóxun
tuxxə́bbax
k̭umb
šrízan
##ulóxun
mridóxun
hujjə́jjux
č̭anguryát
šəcván
tartəbb
muššíyyan
tapán
matvan
págan
ṱə́ppax
pacranóxun
járg
našm
muyy
k̭anjib
naxnəxxánux
nanún
rcíxux
mušríyy
pašmánax
gundə́llax
muṱṱ
yatáǧux
suk̭k̭əttóxun
šə́r
ʾurgə́jjan
šuttə́ššax
##úyəvan
raxṱanóxun
pexánux
xójax
xamlánax
rúppax
zmaryát
k̭adalyát
bustíyyax
p̂lə́š
xə́lyux
zarzəč̭č̭
sp̂írax
čəng
xarrašcárux
##iyyétun
čak̭k̭
##yánlun
##úytivan
pundəmm
patyánax
##rəztóxun
##átix
k̭urk̭ərr
harráj
buzbə́k̭k̭ux
ʾata
##ə́ššar
juvvə́bbux
təpy
##totva
##rət
c̭urc̭
tərtúbux
ləpyóxun
máčan
púmlax
riṱ
turcóxun
bəzzaz
məsk̭
səl
zogóxun
mšuršiyy
##runóxun
čím
gzírux
zamránax
p̂límux
jáll
p̂urmíyyux
jm
turxəssóxun
nun
pašmánux
xulaf
janjáran
ṱašyánux
xuddə́ttan
##vánva
damxánux
mupyə́šš
mutlə́xx
ṱmiš
íyyax
##íruvən
##ə́ltəvan
gərdéy
mcandərr
bəsk̭ám
muṱṱə́ssan
muxpə́llan
##átmand
xrə́v
ṱəly
čaplún
dúbrux
saxləxxánux
xoš
mdúbran
##lonva
naṱr
calunyát
gurg
muk̭yəppóxun
laccənnánan
čann
dulábux
##lə́tva
múxux
šarrəcc
pušák̭ax
##ántovat
taríx
ṱup̂ṱəp̂p̂
xim
tə
muṱyə́ppux
č̭emánux
##téna
bəgr
##číyyuva
gvílax
ṱull
zmírax
muccəšš
##ə́štun
mumrə́č̭č̭ux
gósan
##yátli
yə́myan
nak̭úšux
##azyóxun
##lívaloxun
sulák̭
##šux
mantiyyánux
rám
##ayatóxun
čólux
buzbə́z
tummə́mmux
cəsyóxun
ṱardánux
taninóxun
##átlə
bətt
maz
xódan
pə́ry
məsyóxun
mubləss
čoṱc̭
k̭ərṱál
##étotva
##vəjj
gurgə́štan
tpə́t
taxánan
xalyánax
ʾáb
tájux
gambəll
map̂l
k̭utíyyan
mušmə́ṱṱan
k̭ṱírax
ṱrísux
##dóxun
pešcírux
glul
hammam
də́rs
##étən
xušxəššóxun
šak̭iyyát
payy
##rək̭tóxun
##úšk̭
smík̭
mask̭ətt
sarparázux
##árulə
maxrəmmánux
ǧlib
ʾəsticánux
xšívux
balbəssánan
máb
surgádan
##ávala
munsərr
k̭ólan
švík̭an
yúr
##áləvət
sṱíman
xáttux
marviyy
hadár
ši
pə́slax
muryəzz
šarmú
mattan
burǧíyyux
k̭undə́xx
pricóxun
##pət
šíbux
masxaračíyyax
matxánux
čumb
##ruva
##lux
##untétva
ctə́vtax
maryəzzánux
ṱurṱə́mmux
šarrərránux
madvánax
p̂ump̂ə́llax
##álivən
##ántəvax
sotə́c
gažgəžžánux
ʾáyban
zangúl
gurgəššóxun
bəsk̭ád
muzmərróxun
##ova
tínux
tammacar
barrún
mhaslanú
paltəššánux
##ímunnan
puk̭d
saxáyax
xúmyan
sav
turtəxxóxun
##ə́xtitunva
xíman
bəšnáy
saxáyux
##ír
k̭aravá
brix
mak̭rəv
muppíyyan
dalanóxun
k̭ay
k̭arúvv
múxax
##im
dasmálux
muk̭ṱəppóxun
štavhərrántax
šuplə́pp
cašcəššánux
ʾúx
lišanət
##yanévat
gíran
ṱridóxun
šəpt
hurbə́k̭k̭ux
##úyət
muptəll
mactəvv
nvílan
tabák̭ax
sódux
##áxit
matlóxun
##nétva
tlíxan
marrúyax
mə́zyax
dil
barzánux
vatánan
rixóxun
##ayén
ṱā́l
k̭alóxun
măʾə́rv
muzvíyyax
hújjan
gallóxun
xúpṱan
xójan
##árovət
guld
muvvə́ddux
##yánulə
xašxášan
##yátuva
nún
mútv
xzúyrux
dacdəccánux
jáng
matk̭ənn
mupriyyóxun
tummə́zzan
musyəṱṱ
##əṱtéva
xə́ṱ
mascúnux
purčə́nnan
p̂uṱ
cuz
parpəllanóxun
masrəppantóxun
##ə́ntonva
murp
##lúx
munzə́llan
xamk̭ánax
č̭amyánax
hənyóxun
lél
dílax
mak̭ṱəllánux
surgə́ddux
šaxlúp
mušk̭əll
##írutun
saddóxun
dubák̭ux
##eš
gúmšux
ms
rutr
xarṱánan
mátux
curásax
nak̭úš
xjílan
capšantóxun
ʾamlántux
##titunva
sápux
k̭addíšan
šápnan
nak̭n
bəcyám
##f
##urél
##étəx
##ləmm
šaricóxun
##angóxun
##rən
##rə́š
săb
p̂ə́rc̭
burxə́ššux
##žžənn
mašrúz
tark̭anóxun
bəč̭yád
hagyánan
mumm
lə
ʾaptáp
šo
k̭aṱpánan
č̭ə́mč̭
zak̭
lxep
páǧ
gamús
naš
##íluxva
gaddíšux
xvíšux
šurrə́ccux
mumlə́xxux
maštiyyántan
daldənnánax
sannánan
k̭ásrux
k̭alyántan
talk̭antóxun
##uytétunva
mapriyy
lalúytux
buj
vuzvəzzóxun
k̭arməṱṱánux
sababóxun
ʾarb
zargaróxun
turk̭əll
##étitva
sáy
šəxxəryát
##bul
šarp
##ríyyux
k̭əptə́rǧ
bujr
mudyə́ššax
pamp
turtə́xxux
##attén
k̭ablántux
xurj
##x
mansuróxun
tapánan
k̭undəxxóxun
pampəxx
yaxs
našúytux
žadáyux
##úrotva
príšan
turtə́bban
zalyánan
dor
mburxəšš
boc
k̭ə́nyax
##ə́ntənva
k̭arxantóxun
xark̭ánax
musyə́llux
príx
tanic
ʾak̭š
duǧǧə́nnan
bəǧláb
našṱ
yáy
cučlə́nnax
bəgráy
muxrə́ppax
gúzmax
pašxanóxun
mašlúy
murmə́rrax
mšuršiyyóxun
maxrəmmanóxun
##ák̭ax
hujjóxun
cəlliyyát
rexánux
ṱarsánax
majgúntux
carpúy
##áləvən
bastúy
bády
malyánux
ʾayvənn
paxlánan
gáb
tak̭l
##azénva
maprəxx
ʾarák̭
p̂ə́r
##natóxun
##átman
zarzántux
ṱuymənnóxun
txir
bəmyáy
k̭amčíyyux
ha
maṱyəppánux
##ə́rrovax
mucrə́zzax
razzəllánan
##yántixva
k̭isóxun
dešánux
pušángax
##azén
##rə́vv
bgiróxun
##íləvan
búsrux
musyə́ppax
ʾurxačíyyux
šap̂ranóxun
pundə́mmux
šuxxuryát
darə
c̭arc̭əṱṱánux
xap̂xəp̂p̂
tuvtəšš
##əv
royanóxun
muctə́vvux
šušan
mak̭dánux
##xəp̂
meh
ʾaryántax
nullənnóxun
k̭rím
k̭urk̭ə́ššux
##məč̭č̭
##púr
##úzax
malx
k̭axk̭əxx
hayyərránan
mucmə́llan
mot
##əll
zaǧóxun
prísan
surs
##əc
bəspayóxun
loj
ruk̭rə́k̭k̭an
k̭ṱítan
síp
rxə́ṱ
zublə́nnux
halávan
cəšmíš
ʾavá
gazgúzax
k̭arvánax
##bənn
gazmanóxun
mes
məst
mudiyyóxun
jala
cuč
##lə́tvalax
madə́n
##ayélə
jíyyux
məššárax
pé
##tunóxun
tulmə́d
##úrola
k̭ark̭əṱṱ
caml
##aṱén
bak̭bək̭k̭ánax
cutrə́nn
##anévax
ʾuk̭
##áyona
nasv
muštull
dašdəšš
bulm
cavəd
mǧ
tappa
talxánan
cálbux
nor
xurjúyn
mhúdran
puny
hadrantóxun
mujyə́rran
##álad
sapúyan
pasyánan
##íyyivat
maǧǧúb
##úrila
##ə́xx
mdabbaranú
ṱárux
xexə́gg
##əmmánax
musk̭ə́ddax
dak̭ík̭an
davriyyóxun
xmík̭an
muk̭víyyax
pəss
##čiyyétva
dasm
bešy
##ílu
spad
mabsərr
##úynax
xalṱ
p̂uzp̂əzzóxun
##ábux
zodúny
basmánux
gúngux
##əṱtét
mazyánax
ta
##mat
ṱísux
rīš
jə́pn
##ílul
rx
carm
nuk̭
babə́ccan
##úvux
barz
hú
maṱmiyyánux
lajləjjanóxun
dráy
##ítələ
k̭upšənyát
k̭amčíyyan
##ə́ntan
##átən
##úxun
##žbənn
myuk̭
##ímunli
cípux
##írax
##ə́jtax
##íyyuvax
turtə́xxan
plíxax
cullung
šelántan
yask̭ánux
tumməzz
k̭ə́š
##árot
##xək̭k̭
ruzz
baṱúvvux
maṱṱənn
k̭úyax
č̭arč̭iyyánax
dabr
catvánux
k̭urč̭
čabl
šapróxun
gazgəzzánax
rə́c
jumlánux
k̭azzáxax
[CLS]
ṱrídax
mammúlan
cárd
manṱəppánux
njə́v
bəbr
##írivan
##nəxx
##ur
sə́ppat
ʾus
yak̭
k̭uṱk̭
k̭ark̭əmmánux
##vétva
tún
k̭azóxun
ṱúr
k̭umbə́ččux
xadyánux
ʾajjəbb
mušp̂ə́rrux
críx
k̭rə́ṱ
xaṱránan
puspə́ssan
##ándan
gədy
bábax
paṱuryát
p̂aṱp̂əṱṱ
p̂urṱə́nnan
mappiyyánan
##əccóxun
xaráyan
yarxánux
ragdánan
búšrux
ratr
##uk̭d
juróxun
mrád
tapxánan
bərx
ʾij
bəxláp
balbəllántax
lumb
bəgráv
##ə́k̭valan
##úyox
##ə́rroxun
carxánax
##ítuvət
geməšyát
musxiyyóxun
pəndə́k̭k̭
##ə́ntətunva
##átti
mactúv
zelə́cc
člij
bəsmáy
šk̭ípax
mumrəllóxun
##ág
##ə́nnon
bəxyár
##ə́llovan
muccə́p
luṱṱə́nnan
c
##uyélə
tagbərr
tk̭ílux
##ə́ntux
##étutva
muxpə́llax
dévax
sursə́rtan
##xənn
##iyyóxun
gə́syan
yək̭d
##bal
tupítax
k̭uš
pasusóxun
zamránan
##álitun
maxmək̭k̭
##ráxlax
##úntux
##úyotva
ramyánax
##uréxva
príxan
k̭ə́ssax
k̭uṱuryát
##únivən
##ájux
k̭ápax
párč
myuk̭ə́rran
##úyələ
muxníyyan
cutcə́ttax
bándux
##yántuvət
píyyax
ṱvíxan
hulíyyan
gúšk̭an
máj
##yantéxva
yə́my
nə́k̭zux
##átvalux
##urétva
zə́lyax
bayəsc
ʾamd
k̭upk̭ə́ppax
bəbš
gažžənnánux
##uryatóxun
##taxs
muryə́s
dagalóxun
k̭n
##layóxun
mə́ry
cúš
gapgúp
túlmux
turšə́nnux
##rə́k̭k̭an
šmiṱ
##úrəvan
k̭é
sə́k̭yax
parušyátux
##xánan
smúk̭an
pk̭ídax
bríxux
##lévət
muč̭míyyan
##unóxun
zuczə́ccax
rík̭an
##irə́tva
bəzb
xə́p
barbráy
ṱuppə́nnux
crí
sursín
íyyux
xə́ltax
jamyánax
xalúvv
layl
##ángan
bambázy
janjərr
##úytola
##íyyitva
k̭níz
šlím
xəršóxun
##unc̭
xalúntux
xarazánux
gax
saxs
lo
lazlúz
k̭araluc
muk̭yənnóxun
šanšəllánan
túny
tarsánux
hadaryát
##umb
garšánan
##dánan
gadúc
ṱál
##áf
šk̭ílax
bnítax
saxayóxun
dəž
raxúym
zrə́č̭tan
šarzántan
sək̭yóxun
k̭aṱpánax
##yánovax
ducdəccóxun
šlígan
bəčláj
##únila
bəsyámux
puspə́ss
yav
ʾeləc
šupnínan
xəzz
bəb
muk̭rə́vvax
##ə́štətva
mámux
##mún
##írəvat
dacdəcc
##rə́tvali
xusxə́ssux
gabyánax
nṱípan
malyánan
č̭ač̭č̭
##ə́ltona
gamičíyyux
lagla
mísux
ʾašpaz
šamágux
xúrgux
ṱamšántax
xabrantóxun
zarzərránux
rcixóxun
hášy
šattəššánux
tlik̭
šunšəllóxun
xašx
##aváy
##yántəvax
xumxəmmóxun
dorántan
k̭lik̭óxun
gxicóxun
laxmóxun
tanicárux
lulə
mbajb
calbat
masx
k̭alyántax
xasinóxun
##áṱax
##duva
čilóxun
k̭u
ptə́ltax
##álinva
rcív
zalimóxun
ʾé
##úž
##ə́rrul
ʾavanóxun
##tonva
pyáy
bəč̭y
ṱérux
šadránax
xyúṱ
##írova
k̭uč̭
k̭umbə́č
zríṱux
catránan
zak̭árax
mabbúvvan
k̭alam
mamləxxánux
šlə́ptux
gašk̭ánux
ʾamác
madməxx
##áttax
##yy
bəsrápux
sursərr
##̄́x
##usétva
čatun
nálax
mašxánan
##rədd
bím
##rovət
ṱə́l
ʾalulyát
pším
macsəllánux
guššə́k̭k̭an
báxtux
ruprə́ppax
##áyix
ball
##étuvət
##ítin
maṱl
zurzə́č̭
nórux
ʾə́z
##aṱtóxun
marrúyux
šúdran
munzə́llax
##ə́k̭tun
camut
muṱrə́s
##ək̭tén
deróxun
##vəš
k̭asídax
čubləzz
k̭ullay
júllan
lúǧn
##íron
nšípux
##ṱəxx
gejak̭úš
mup̂rəmmóxun
##urtóxun
javvúṱ
##abóxun
guldíyyax
##ə́nnəna
##ə́rtuvan
##ríloxun
munxəssóxun
dəmyóxun
xull
zalm
##yánəxva
baṱil
mcíx
ṱulləzzóxun
xubb
##ənna
zərr
xaṱránux
zamb
ṱup
cím
silóxun
##ə́rrut
st
##allóxun
ʾoym
cutrənn
xərxə́rrux
macúy
snídux
zadyánax
##ə́ntəvən
natə́j
##mac
k̭avvəllanóxun
tamməzzánan
ʾəšg
##iyyétunva
madvánan
ʾarzənnánax
##tévat
mujjə́b
##ét
mašmúṱ
mulyə́zzan
xə́š
mušríyyan
sadd
maštiyyántux
mamy
šanyánux
bastiyy
míxan
##íx
gávan
gurrə́llux
xusx
##ə́ntələ
gazmánan
šoránax
ṱp̂
ʾak̭lənnánux
##anúytəva
pasyántux
ṱalb
tarsántax
k̭araǧ
##ə́bbax
gandul
masnənnánan
xíp
mupyə́xxan
munyə́xxux
našk̭ánan
šlim
k̭olun
##íləvax
xípan
ṱup̂
##árina
k̭ahb
sapúyux
xbírax
nk̭iš
dúrd
##úluvən
k̭annəšyát
lešánux
šaršúṱ
##yántonva
bənnáv
mč̭urč̭iyy
##yántila
zullə́z
bəṱváy
ṱrísax
yarr
lcizóxun
##ə́k̭tuva
sardántan
zunbəllóxun
tə́ryux
gargúšax
##úby
##ə́dd
pərdés
šariṱóxun
k̭urməṱṱóxun
##tutva
##ə́xvala
##əttun
budróxun
ganjáp
pass
bump
##lə́ptax
##íyyovax
šurk̭íyyux
cúp
zúbnax
vasyáttan
xtir
mucrə́
təryác
zalímax
rk̭idóxun
čarpúvvan
mumcəxx
##íliva
mak̭k̭əss
##ləptóxun
k̭aplánax
mulyəssóxun
bəčyád
dak̭r
##ə́šlan
k̭ənnóxun
mašax
sp̂is
bərk̭óxun
balú
##či
##ənlax
muššiyy
pašpúš
halím
jə́ddan
##náyan
gə́rv
garúmux
gužgə́žžan
sapləppánux
k̭əṱṱa
k̭óšan
mušlíyyux
##ə́ltunva
najván
dúryan
muč̭rí
mazr
max
badə́njan
ʾux
##mitva
dussák̭
muzliyyóxun
sə́ly
k̭umbaróxun
čunčə́llan
trísax
mgužžə́nnan
šṱík̭ax
davlatmand
syivóxun
##alétva
k̭ər
dyú
masmək̭k̭ánux
k̭urbanóxun
##lə́tvalun
##ənxóxun
xaryántan
##tó
c̭ap̂p̂i
##áxlax
##rila
bəgváx
casxánux
##íləvən
##yáli
##itévən
súk̭lux
bəjráy
lak̭ṱánax
sars
##ə́rrilə
luc
suṱlə́ṱṱax
ṱuxṱəxxóxun
šíšax
raxṱánux
júmmax
məššaróxun
dall
prás
##rántəna
cə́ršan
šíban
deš
hassáb
sursə́rtux
k̭arantúyux
tažb
tánan
səvyóxun
pumm
tax
##yátvalun
nagr
mujjə́bb
májmux
##udr
ʾuravá
mupšəṱṱóxun
##žž
bəp̂č̭
dallácux
sayvánax
##əmlax
dabl
malliyyánux
suṱlə́ṱ
xrízux
yək̭
hayyərránux
bəryám
xcímux
malpiyy
noniyyánux
barxántux
k̭urpə́xx
ruy
xmáṱux
ʾurk̭əllóxun
šanyántux
psitóxun
##úlut
k̭az
ṱanṱunóxun
bəsh
šurk̭əppóxun
xmáṱax
masrəpp
mudmə́xx
##ílətunva
##úvvux
c̭urc̭ə́rrux
mammiyyánax
##zə
##ulélə
tanúyr
##əvván
xáznux
##óran
k̭eybát
buk̭bə́k̭
maṱṱəttánux
##úšy
ʾáx
sult
srə́ptan
haramíyyux
lítux
##yánula
##ə́lluxva
k̭aṱk̭əṱṱántan
mš
tursiyy
carxanóxun
ʾart
mazbətt
##əna
tarsánan
hdírux
##átəva
golánax
caš
##átivət
muṱyə́ppax
pšixóxun
səṱy
##ántinva
xəlyát
malpántux
máy
pəšc
margəlyát
hulhə́llax
šalxántux
prídux
##ep
xašvánux
##rə́nnan
raxúm
mamməss
ziyar
##amétva
bək̭ṱáp
nə́nx
##uṱétva
sarádan
cúban
xur
jə́pnux
xəvy
k̭aytánux
šabbíb
xaryántux
k̭míxan
dʾ
mazliyyánux
k̭ápp
muk̭d
num
caryánax
ṱanṱənn
culcə́llan
šnízan
cúyr
rak̭ádux
matn
mujvə́jjux
dúc
k̭attóxun
prík̭
šulg
##ə́štonva
maxmiyy
k̭asróxun
k̭áplan
zublə́nn
saranóxun
bərš
bəsn
pšíṱ
yúvvan
k̭lípax
##íyyut
marmánan
pat
##ə́štit
##áyut
##révən
hab
jiyáz
k̭lípan
mažǧəššánux
cúrrux
číman
muṱmítux
rúmxux
##íj
yatáǧan
blísax
bəmxáy
musyəpp
tak̭nək̭k̭
hadranóxun
##úrivan
##únulə
##and
xabránax
##ə́k̭va
njivóxun
##ala
##áləl
##ravatóxun
basmanóxun
nudr
##uyg
zarzánax
vurvərróxun
bənváy
parpəssánux
garp
bətrád
məlxávux
##ə́ltola
##əčč
k̭úč̭č̭ux
haṱṱárux
mucvə́č̭č̭an
##onva
##ráx
suxlə́xxan
##úylə
paxlanóxun
ʾayn
palṱánax
ləp
halhəllanóxun
ton
##əyy
sník̭ax
vujvəjjóxun
zəryóxun
##ítitunva
##ə́v
gəxc
jasús
k̭amṱánux
##íyyuvət
##áloxun
muzmərr
murdə́rrux
k̭ulún
pašpəššánax
láppan
masaryát
mak̭rəxx
məṱyóxun
daryánux
bək̭náz
k̭asyanóxun
šív
hurhə́mm
bəbl
mak̭k̭əttan
rajmánax
savvənn
zalp
ʾaz
ʾamag
ʾaván
k̭díš
čár
marr
pus
##íronva
rxik̭óxun
bayisóxun
mumy
dvin
nk̭írux
sk̭ílax
##íləx
xablánux
cníšax
tumb
xaṱyánux
##uytélə
bak̭l
gungə́z
mardənnántax
k̭arṱa
p̂učc̭
ʾáǧ
k̭urmə́ṱṱax
sak̭mánux
salyántan
murríyyan
aǧ
##rítunvalan
párk̭
ʾisák̭
xəzmay
taptanóxun
maxnək̭k̭
muštíyyax
masv
múyr
šadlánux
##yátovət
map̂rəmmánux
xarzəppánux
ṱoyánan
šurk̭íyyax
nxíman
xallənn
##ítuna
zublənnóxun
sabábax
palxanóxun
##ap
murdə́nnax
suyóxun
búrjax
##əxloxun
p̂č̭úyran
##áyan
sunsə́llux
mdarvədd
##ə́mtotva
bəlmás
tə́lyax
##aziyy
zúyax
musk̭óxun
muč̭mə́č̭č̭ux
práxax
šuxləpp
xurbə́s
p̂aróxun
šay
gr
pašpəššanóxun
navə́gg
mutvə́nnux
šaryánux
maxz
vey
##di
cállax
semantóxun
gann
pušpəštóxun
šúnyux
gumm
putpə́t
gúdyux
pk̭ád
##ə́ltuna
bərráš
bašránan
##árut
k̭əč̭
šamáman
##úlovən
ʾaǧal
púšmux
lus
muvvə́ddax
k̭itóxun
purpíyyax
hul
də́myux
xurə́g
gubyóxun
vašvəšš
zlim
##lantén
nəzván
matpəttan
##nva
##ántuvət
##vətva
##ə́llovat
tulk̭
gazg
galand
ʾamranóxun
bṱínux
munvə́rrax
tarxəss
k̭admanóxun
tlíx
gə́lyax
xacmánux
šáprux
dúllax
gadlánax
tírax
ʾən
havúy
mudd
curhənnóxun
šaṱyánux
hammalóxun
šark̭iyyanóxun
nə́šv
zubb
garumóxun
gúng
##ək̭k̭
šúlpax
čučum
ṱám
tahárux
##yánivən
palúṱ
##ə́llax
muč̭míyyax
garupóxun
talə́s
bazyánux
map̂ṱəxxánux
paryantóxun
duldə́nnux
šamṱ
ṱə́š
zvin
dílux
bəsna
ruppóxun
tanúyrux
k̭olánux
##ənnóxun
šuvvə́ttux
ʾurə́dx
nuvvə́rran
cé
##stóxun
marrəšš
zapzəppánux
míyyax
jáb
sayád
nvíx
ṱuyatóxun
ram
##gax
šligóxun
##íyyola
mcundərr
švík̭ax
zaráyan
šalyanóxun
##áyux
čugg
šarə́c
k̭ubbuxyát
xəs
bəjr
xayy
šíp
##uyla
ṱár
k̭umbárax
##úyl
garúgux
mutríyy
čumčə́mtux
k̭adm
muddíyyan
hajjəjj
##úyan
lumlə́mtan
šamš
mak̭
##írin
šlíxux
##úyot
##ílivət
nó
mutlək̭k̭óxun
nxə́ptux
márjan
mupləxx
ṱesánux
##ítətva
k̭aṱṱ
sumbuyl
zullə́zz
musk̭ə́d
cárp
mupšə́rran
rpitóxun
šalk̭ántax
bərvánax
cuytánux
bgíran
mutləxxóxun
k̭uly
lacx
manšərr
##dúy
baxxəll
muslíyyan
cušt
varídux
##ə́ṱtax
##áyəla
tálm
##ənnánax
##ə́rrəna
##ičóxun
k̭óš
daryánan
panj
túrk̭
##lanén
šəccay
bəč̭č̭
##ə́lan
##ivət
xəšc
durdəxxóxun
basmaxánux
mil
ták̭ax
##ə́rtunva
suxv
##yanét
ṱavviyyanóxun
##ə́ntuna
cə́stax
k̭áttax
mušmə́šš
durbənn
##yát
k̭arǧ
##yánona
bənjáv
##unténva
pund
hajj
p̂ə́č̭
č̭angúran
curmə́xxax
dlə́p
bá
xurbəss
mamrəllánux
sunk̭
nak̭rúz
mabbiyyanóxun
bádlax
jalláx
ʾuncə́rrax
mušlə́mmax
k̭emánux
muxyə́mmax
##úytəvat
nxim
hurm
pešváz
mušxə́nnux
maxl
canš
semanóxun
parpiyyánux
ctávax
xasxánan
hajjúj
mummə́zzan
xatranóxun
deranóxun
yarmánan
##ə́ny
ngírax
bənš
ʾurgəjjóxun
c̭arc̭
##tun
##úlunva
k̭adúš
k̭až
##úr
dəlmán
zull
zupzəpp
bəggóxun
mgužžənn
rapyántux
masyəvvánux
muxlə́p
k̭aṱrún
mucrə́bbux
muzzə́zzux
susíyyax
mač̭č̭əmmánan
k̭uč̭óxun
sap̂ránan
##ítix
zuxmə́nnan
##yánvaloxun
mašxúṱ
mušxə́nnan
muštíyyan
##ləna
mazl
háš
tark̭əllánux
##gəjj
gmírux
k̭amxanóxun
šaṱxántax
bajr
ʾatvá
zírux
čanč
##úrivət
##rántəvət
k̭užk̭
pašxánan
yálmux
k̭ark̭ərránax
sansúlux
murmə́llan
##k̭ət
##ə́nnutun
vusvə́ssax
načl
mugvəll
šaṱk̭
šelántux
jə́m
ʾorušl
##ə́xtəx
yask̭
judóxun
párdux
park̭ánan
sín
nšás
buṱrənnóxun
##dənn
pandámax
nímux
ṱə́r
gamičíyy
lə́pyux
jussəss
k̭uyṱ
talmúd
##tim
šuk̭šək̭k̭
bək̭r
bəsp̂
k̭áddux
durdə́xx
muṱṱəssóxun
camárux
plíxux
##úləx
macnúš
##úytuva
rajmánux
susiyyát
##ílon
napsanóxun
ʾəšt
##yátuna
tulmə́dd
yálux
mušp̂ə́rran
k̭alát
šamágan
cánax
##ítunvali
##bab
##bək̭k̭
##̄́y
taptəppánax
ṱalášux
k̭admantóxun
crəstiyy
##axs
##úmon
xə́ṱy
zarzántan
ṱarpánan
bəsláb
k̭ark̭
ʾurzagágux
##onóxun
zark̭ánux
slíbux
mull
šarícux
##aya
muk̭ríyyax
ṱup̂ṱəp̂p̂óxun
gald
mušníyy
##əltóxun
sedanóxun
sarṱánan
tublə́bb
##téla
##paxóxun
##lanénva
lad
čxisóxun
muššíyyax
bardánan
nə́
sk̭iṱ
##unéva
vazvúzan
##yánnax
bəžd
mač̭məč̭č̭ánan
mažǧúš
k̭aṱmún
##anéx
janjaróxun
davulóxun
maprək̭k̭
mušxə́ṱṱux
##yánuvət
##irétva
matlánux
smalóxun
šap̂lanóxun
rík̭ax
júrb
##ək̭tóxun
muzzə́zzan
mušyəllóxun
dox
rə́d
ṱúmš
mcundə́rrax
##ə́ntəna
durb
mupl
k̭uvvə́mmux
sahd
darvəddánux
suzgərr
yó
matpək̭k̭ánux
mašxúnux
šə́ryax
muxlí
ʾutk̭ə́nnux
bib
ṱavyanóxun
xíṱ
mazmúṱ
nóš
k̭ríṱ
##ə́xtən
búč̭
k̭ríṱan
bənsáv
maxzərr
##úytəla
č̭unč̭
maby
bəžǧ
baṱrún
zk̭íran
clílan
##átivan
mačy
##ə́k̭k̭ux
##ačiyyéva
nxímax
k̭ən
##sən
cpín
##əpp
com
##van
muxšəxxóxun
mráṱ
camút
xazz
marrək̭k̭ánux
##ṱuxóxun
sullə́llan
multan
##ánuvat
mamməllánux
múyyux
xə́zy
čunčəllóxun
pavóxun
##zəmm
yur
palyánan
k̭avvóxun
šəppúlax
garvəssánux
manc
mardúnux
pən
súp̂p̂an
cərṱó
šlə́k̭
k̭aṱárux
sarráp
sak̭k̭att
xuzd
ṱvítux
zrízan
##ántutun
marg
p̂ap̂rúsux
murvíyyax
k̭arṱiyy
macvúč̭
mšur
húcmax
xurxə́č̭č̭an
durdə́k̭k̭ux
šə́ryux
yac̭c̭ánux
bl
baṱlánux
c̭ó
span
##yántivət
púšṱax
##árən
yúvvux
bambəččánux
masayát
prícux
##rastúy
šurṱ
tand
tublə́bban
míxax
cə́ršux
xs
pak̭danóxun
lajl
mamməzz
sáh
##áruva
k̭ark̭úṱ
##áṱṱ
##ítitva
##íyyitun
murxə́ššux
hurbə́k̭k̭an
bəjrád
k̭alayčíyyux
šumx
cuyš
##ədd
gargəmmánan
muxlóxun
čamadánux
mask̭anóxun
hurhə́rrax
k̭umbə́čč
nucnə́c
maxləṱṱ
xard
saxsiyy
k̭ə́s
##ə́ntiva
tuxxəbb
##nattóxun
bulbíyyux
lampárux
bában
šaxin
nazírax
##unyátax
murdənnóxun
muslítan
k̭ráyan
carvánux
k̭ušk̭ə́ššan
ṱanóxun
zk̭iróxun
k̭ə́ssux
ʾúr
mə́nyax
č̭ux
##ə́bb
maláx
muk̭rə́ṱṱ
šartóxun
##̄́z
##ə́ltutva
p̂ə́c̭
bak̭k̭álux
k̭asíd
ʾamlántax
maptəllánax
najvánan
šmayy
zər
də́cc
##uyx
bné
sunsə́llan
mucnə́ššax
gxícan
masálux
maxləppánux
čánnax
júrux
cəsy
nuvv
húk̭
##úrolə
calyanóxun
##yánəvat
rušn
pec
púd
maxlánax
nak̭úšan
lóby
zád
mummə́s
##muxóxun
numnəmmóxun
bərra
##áyula
mrilóxun
gad
pállax
k̭uṱrə́nn
xuvvav
raj
dájax
maptúy
mamún
rə́ṱ
k̭əvyóxun
hurárux
xóxux
xnik̭
mutta
cíc
sak̭yánux
mún
xdət
mulpíyyan
p̂č̭ílux
gállax
čak̭k̭unyát
##lə́ṱ
##métva
btúl
mumlə́xxax
jag
##gárax
##róxun
##ə́rritunva
mútvan
líyyux
xviṱóxun
yatúymax
##úyuxva
##úyn
xalləll
nišan
zak̭z
mayátax
šup̂
zak̭zək̭k̭antóxun
xélan
k̭laps
gulgəllóxun
##vərróxun
doróxun
k̭eš
šaṱk̭ánan
nsə́vtax
##úlivət
polí
šuxtə́nnax
k̭ə́pyux
ʾatóxun
č̭ulb
vasv
gx
duldə́llax
maxšəvv
šavv
ʾústux
súrg
mamməxxánux
surrəppóxun
pšíx
##yánvalux
gózux
nak̭ranóxun
purtəll
##áyəvən
čannə́c
##yanté
ʾaxlanóxun
ʾəll
##úytutun
k̭anaǧ
##írun
tuptə́pp
tə́ctan
laxləxxánux
ʾóy
muxbə́llax
jamaʾát
bnítux
ráyan
bašránux
k̭urrəssóxun
šarṱánax
šaṱyanóxun
murrə́k̭k̭ax
šalləll
rujrə́j
##úytələ
musyəllóxun
musrə́ptan
cə́ptax
tor
##ayátax
čambəllánux
mburrə́n
šrícax
məry
mumrə́č̭č̭
##ánd
sannám
gə́vy
mubrə́xxax
##ə́rtəva
##ə́šš
##yána
k̭ávrax
##ulél
##ṱə́
snə́k̭
nšík̭an
muntə́rran
pasúsax
muxrə́ppan
muzyərr
##áyola
##ətunva
##áruna
rə́dy
mank̭əddánux
muk̭ṱəllóxun
p̂líšan
múdvax
##íva
múčxan
ītva
mansərrantóxun
ṱullə́zzax
ʾak̭r
k̭rí
muxləpp
tím
ʾarzənnánux
čančúyr
parčənnánan
xónux
mubxíyyux
##ánivax
k̭atírax
č̭uč̭íyyux
ṱuppənnóxun
bəsyáp
mulxə́mman
gas
##b
##ə́č̭č̭
k̭dálax
saxb
##unlun
xayaṱóxun
sídax
ǧlíbux
púrk̭an
dál
xərṱ
rayyiyyánux
cúmrux
šelánan
gdalóxun
gazgúzux
dúxyux
##ə́štənva
dólax
búk̭šax
##ánix
xulm
givá
músk̭
pəndə́k̭k̭ux
##rétunva
lúblax
xuč̭xəč̭č̭óxun
l
suvvə́nnux
cvič̭
məšməššóxun
munxəppóxun
ʾánva
jullúx
k̭ark̭ərránux
xzid
masyəvvanóxun
gózax
tfík̭ux
k̭əmy
vánax
vəs
p̂alṱ
gúr
cə́c
xeṱánax
parm
##ə́bbux
##yánuxva
šab
bulk̭əṱṱ
gayy
xə́dyan
k̭arbənn
##c̭c̭óxun
terlánan
k̭ṱílax
labləbbánux
##yántovan
##ə́lləvan
mšuršíyyan
ʾalúc
##ázux
rodánax
suns
šup
malíc
##álina
xač̭xəč̭č̭ánux
šítux
k̭allóxun
šəppə́šcux
štuvhə́rrux
xri
k̭amčíyyax
gurgəšš
bək̭lák̭
##úrul
maxrəmm
gúby
parc
curmə́xxan
bəxráyan
peš
huyv
##úxinva
lullə́nnax
##irə́nva
báš
múyran
##áləna
dalla
murcə́xxan
humzəmmóxun
k̭opas
##čiyyétun
bərvánan
sálax
ʾəsculayóxun
##ráxlux
##əglóxun
##áxli
mubs
bəpšák̭
muk̭rə́ssux
čríz
tuxrúny
k̭əšy
mucrə́zz
harhəmmánux
talmánax
##yatétun
cúmran
čamčəmm
btul
rudrə́ddax
##ítil
namnəmm
mulyə́zz
##atévan
tartəxx
šəccayáttux
mejánux
##ə́ntəvan
mubyə́nnax
súpk̭ax
##garóxun
##ə́k̭lax
də́ryan
mak̭ṱəllanóxun
bak̭lánux
jvijóxun
dúm
purpərtóxun
##ə́rrətunva
šapl
xník̭ax
bašlántax
zurzərr
bəxráz
k̭yúd
dak̭ík̭ax
k̭uṱk̭əṱtóxun
pəsyóxun
malpántan
m
k̭uxk̭ə́xtax
muk̭viyy
##várax
xurbə́ssux
ric
jul
p̂č̭úyr
##iyyénva
purxúy
##úlol
sacc
muntíyyux
mullíyyax
níz
xlúylan
nucnəccóxun
zív
##lə́pp
muṱríyy
mapyəxx
masyəvván
##yánovət
##ánuva
lə́k̭yax
xamyánux
juvvəṱ
##ávalux
šuvvəttóxun
ṱalášan
##rak̭
ṱánux
čaljánux
panyánux
p̂ərṱ
mantúy
meš
##vanén
p̂č̭uyróxun
ʾurzənnóxun
durrənn
k̭alyántux
##gáran
mundíyyan
mak̭k̭ásax
nadídan
mudvərr
jə́r
##umóxun
gáš
maháll
pasxánax
##úk̭ətva
tupy
ʾəsk̭
ṱanṱəllánux
munšə́k̭k̭ax
##ílolə
##árat
caráxax
júnux
taxránan
maštúyux
mamač
šiyyóxun
k̭ark̭əmm
bambúylux
##ə́rtona
təp
##úytətun
mak̭k̭əmm
našp
zə́vy
luhləhhóxun
k̭ij
##xəcc
ləbb
guvaróxun
##yánotva
k̭uṱk̭ə́ṱṱan
palab
mxašc
munxə́llan
tk̭úl
k̭íd
clílux
##xanóxun
zuxmənnóxun
k̭unyóxun
tantəss
muzmə́rrux
xáttax
bəprák̭
bəspáyux
k̭arabat
##íbax
purš
mabxiyyánux
zap̂p̂
##íyyulə
xazdánax
turc
p̂op̂iyyánan
##úluva
bəšcár
búč̭ux
xurbə́ssan
##ə́tlun
masús
##tévan
mbuj
zarb
##ə́lla
čullə́ššax
bəpraxóxun
mak̭k̭ásan
py
mak̭yənnánux
paršənn
mubrək̭k̭óxun
saxyánax
mabxúy
##útax
##rəb
paxaróxun
naj
vus
malxəmm
čangaluš
šavvətt
gin
##úrtux
xamyántan
húd
šíyyux
zavv
rusvay
gdiš
##unétunva
##oxun
##ílivan
nuk̭nə́k̭k̭ux
k̭upšən
č̭ax
cutcə́ttan
líṱan
manxəllánux
sannanóxun
bək̭yáš
rším
murgíyyax
zurbə́nnux
xumxə́mmux
cúmrax
čim
šaxl
ʾadát
musmə́k̭
p̂uṱp̂ə́ṱṱ
pasl
maṱṱənnánux
gamránax
šunnə́nnan
xurmóxun
sapóxun
čucčə́ccux
rəvy
mummə́llax
sərsə́rrux
k̭urránan
zídan
xazadóxun
garmón
gummə́ss
##opóxun
saxə́t
tulmóxun
tužb
##ə́ltutunva
han
##rə́dtax
mutt
ʾidát
xasránux
mutyə́vvax
šúyan
bun
bazərg
p̂ərc̭
##ə́ltova
k̭ušíyyux
##attéva
šorak̭áttux
xzúr
xarx
mšaršiyy
barxánax
bətláy
mupt
mučyə́rran
ya
tarxús
##azóxun
dušdəšš
##ə́nnət
píšax
malyús
##étux
bəjyár
gundəll
rísax
xatr
mak̭k̭ərránux
k̭arməč̭č̭
hadrántan
bəbrád
šp̂il
xamlánan
̭
p̂áp̂p̂
##rəvən
xabúyšux
sárgax
##árola
laml
bəshád
č̭arč̭iyyanóxun
huri
púšk̭
nəsb
##áyinva
k̭ulk̭əll
cə́vyax
nisánan
##etétva
##ə́rrovan
##uygóxun
##ə́rrovat
gə́dšux
raxṱánan
##lovat
xuzdəggóxun
túrk̭ax
##úlətunva
hasl
čalbiyyanóxun
les
gurgə́šš
bərváx
mudyə́nnux
gazgəzzántax
pušpə́štan
balbəllantóxun
tup̂p̂ang
ʾalul
##álotun
liz
trí
##ráxlun
šərmát
mə́šy
k̭utiyyóxun
##rotun
muxpíyyax
xolóxun
macsəll
daviyy
k̭ə́myan
bəšt
xurbəssóxun
šámman
##əttét
##mtóxun
bumbúylan
ṱanṱənnántan
spitóxun
xípax
xamúy
nuznə́zz
k̭avvəmmanóxun
##təna
marriyyánux
mucrəzz
balavčiyy
bulbíyyax
##xəp̂p̂
##áv
zál
cnúš
lámux
ivan
##úyitva
remánux
ṱəšy
muzzə́zz
curpə́ššux
bəlk̭
pullác
mujrəṱṱ
ʾašp
##yátətun
záǧan
##ə́b
puslóxun
šris
##ə́vyan
mə́ṱyax
glulyát
ʾanamóxun
šrízux
##uténva
zóg
p̂li
turxəss
muxjə́llux
xurbə́š
ruxrə́xxax
mulvə́ššux
lxim
hon
manv
##ak̭énva
šúlxax
majv
damyánux
mucsə́llux
məlyóxun
masxiyy
ṱaxṱəxxánux
xamúytax
##əmlun
šúllax
gummə́ssan
mamməll
pašpəššánux
bnitóxun
luk̭k̭
##rast
muclíyyax
mup̂rə́mmax
##ə́ntivan
čull
ṱə́ṱṱax
batl
##ə́nnila
camcəmmanóxun
č̭alč̭iyyánux
panjárux
##ə́llil
duglóxun
p̂k̭
ba
maṱyəxxánux
masyəppanóxun
tarvá
laglág
dag
##əzzóxun
šulə́p
hdíran
##mén
de
top
##ímunnux
bəxmáyux
ṱə́lyan
##əc̭
srí
sk̭ílux
##ác
rš
gurrə́
##db
šəbb
maxbərránux
k̭arpəxxánux
##ánəna
##áxun
badənj
ʾabrí
xeṱantóxun
lk̭iṱ
hújjux
səs
ʾak̭lún
bazza
hudróxun
xəl
##átovax
mapl
##ádova
márgux
k̭dílax
k̭allaband
paršántan
pəspə́ss
bunpərr
bazərx
##lə́nnax
masalčíyy
##rəbb
ṱalab
##úk̭uva
zapr
xuldiyyóxun
vacəl
##žóxun
mašniyy
laxmánux
nuvvə́rrax
k̭íṱ
guzgə́zzan
##mát
cv
##ulévən
muxrə́v
nak̭k̭
k̭urk̭ə́mman
##yátilə
k̭apyánax
ṱmíran
saṱr
matrapul
k̭mə́ṱ
muk̭və́xx
##ə́xtin
##ə́nnivax
##əstéva
##yátvalax
maṱmúyax
luhlə́hh
k̭or
šurk̭iyyóxun
č̭upč̭ə́pp
c̭ə́rṱux
bənyás
muxxiyy
pas
lamləmmánax
šíyyax
muxməssóxun
mubbiyyóxun
##téx
##rə́xtan
##anúytax
k̭uṱmə́nnax
gríšan
mgurvə́s
sə́t
catr
xé
zark̭ánan
nəpr
č̭alpánux
##uyté
tecánux
tuybərr
gadágux
naxíran
xrik̭
##ə́nloxun
muvr
bašlánax
haram
təvv
k̭ávax
rə́vyax
saxsiyyánax
##úštan
badyánax
ʾix
k̭asyánax
xazdánan
##únun
trís
muprí
jal
##yávalax
zungə́rrux
##uyéla
žd
jama
ruk̭rə́k̭
ʾúmlux
sarpanóxun
res
mă
##lívala
##íluvan
purpətt
##árox
ruprə́ppan
mašnúy
##əttén
taxn
taxranóxun
##íṱux
xámpax
##íyyunva
##ə́rtəvən
cə́tvan
lósux
štuvhə́rtan
musyə́rran
##yax
xarzánux
búšk̭ax
ʾəd
matləxx
##əgl
mašxəṱṱ
sabáx
xuyyə́ddan
##ánivən
muk̭k̭ə́ddan
muryə́xxan
purčú
cešánux
buzbə́zzux
##ə́ltina
madyəllanóxun
k̭ərṱ
##íruva
murd
ṱab
##úrutva
nk̭ízax
ʾazanóxun
ló
catcətt
##ə́xtivət
zurzə́rrax
buk̭bək̭k̭óxun
ʾurbəṱṱóxun
##ə́k̭lun
babə́ccux
##áduva
puršənnóxun
ṱaróxun
masxərranóxun
mgužž
parxántax
və́s
gud
##aréx
##ə́mvaloxun
##məs
šī́r
múššan
ʾəšcát
##əppóxun
šk̭ípux
lajləjjánux
##yánix
##yéva
navvərr
##̄́d
##ləc
šup̂rə́nn
##ə́rron
yavántux
sarg
durašóxun
vídux
šabxánan
maxúsax
xabúyš
bəčyár
jvíjux
č̭líp
##rə́mm
zuxm
##áyəx
guč
mušríyyux
ṱlaniyyát
xabr
##rəg
mšuršíyyux
purziyyóxun
sómux
ʾajjəzzánux
xə́ryax
məscár
##ə́ltulə
xarxəč̭č̭
pícan
mudy
bulgánux
##pəšš
##áyuva
nəsnáy
gəddíš
gəz
mupvərróxun
marlánan
tummə́zzux
##únux
mumlə́xxan
muč̭č̭íyyan
ripóxun
##évalə
zár
bášš
##anúytiva
balbiyyanóxun
šaršərránax
habáb
##bázan
xriṱ
##ə́rtivat
xasx
cay
k̭əsyóxun
mujyə́rrux
p̂ač̭p̂
##ayévax
##yátunva
##rántətunva
salləllánux
purč
muǧǧəbb
yri
xrivóxun
capš
##ílan
##ǧ
scin
bəxzád
marṱ
mumxíyyan
pak̭d
xərṱúmux
dacdúc
šad
čəlt
bd
bz
ʾamarát
dabránan
gurgə́štux
zumzə́mmux
gállux
##árotva
k̭alyantóxun
paslánan
ʾəʾ
##ə́nnola
mullíyyan
mašp
ʾazánax
##íyyuvən
##ítixva
##únə
mak̭rəvvánux
bəšṱ
č̭angərrántan
luk̭lə́k̭k̭ax
purt
##ləj
suvváǧ
gužžə́nnux
mdabbar
ršíman
muxbə́llan
ruj
mətt
##ák̭iva
našmánux
k̭arútux
pašṱ
k̭árran
muštə́k̭k̭
dvə́rtax
xšivóxun
maṱyánux
##uyét
gadagóxun
##ritóxun
##ovan
ʾidóxun
ʾalah
balbəss
##əxy
##ayénva
bráz
jer
bulbə́ltux
rujrə́jjax
##ímunlan
zídux
pax
ʾə́r
##lúm
janv
bəṱráp
č̭ərṱə́cc
##ə́tvali
mak̭r
p̂ə́rṱ
k̭aṱlánax
k̭əlyóxun
##k̭
mak̭rəṱṱánan
tarcánux
##ə́šli
##ə́ltol
##vaz
mutxənn
##ə́ppan
mampírux
júnan
rangóxun
dárbax
muvvə́dd
dussák̭an
čiriyyavá
musyəddóxun
mumlə́xx
gáran
tuxmə́nn
ʾamricáyux
ʾaváh
nasyát
nadəd
dullə́llan
maṱliyyánux
savə́ltax
xayyúd
yap
tvínux
latl
našpánan
parxantóxun
xə́my
##číyyux
xarpánan
xušxə́ššux
ʾúmlan
##uvv
##ítəvax
barxantóxun
mumriyyóxun
##déva
čílan
##ətk̭óxun
ctávux
jungə́nnux
##č̭
mrič̭
k̭uṱrənn
##lanévan
k̭ṱílux
balxám
calyánax
šlí
##úyutva
məly
súk̭
hadd
dri
ríman
dáǧ
##yərr
darmánax
sandəllánan
vuk̭və́k̭k̭
raváy
jard
bumbəčč
##anétunva
yarix
maddərránux
maxxəyy
bəsp̂ás
##yánova
súp̂p̂ux
hílux
##mutva
##yávalux
šacr
yavántan
k̭alpánux
muráp
vuk̭
pašyánux
mbujbə́j
muk̭k̭ə́mm
##mán
bulk̭ə́ṱ
zvá
##ə́xxux
pušə́ṱ
murdə́xxan
xurxəč̭č̭óxun
muč̭məč̭č̭óxun
musyə́d
##yántunva
lvəšyát
##pətt
bəxmayóxun
šamšəmmanóxun
durmác
cpínax
##úymux
mup
báṱ
hanagčíyy
buk̭bə́k̭k̭ux
ṱə́ryax
bəšrázan
paxlánux
bəndáy
k̭urnəzzóxun
dúl
mohcam
##úlovət
mcarm
bəsráp
basúr
mášax
gúrz
##uvən
šeš
bumbúylux
ʾəstáb
##ixva
p̂ṱíxux
xlé
##úlətva
xoravay
mujj
mdub
č̭ulbə́xxux
šucšəcc
p̂aṱúx
tra
bak̭
baxxəllánux
šagə́rdux
bətf
magxəccánux
tantərránux
duyk̭ənnóxun
čixótc̭
ṱvítan
cəcc
múk̭dan
##álac
burván
xarṱánax
ṱíz
##livət
k̭ark̭úz
k̭ahbənnánux
##ə́rrəx
k̭aṱk̭əṱṱántax
šuh
marxúš
##avétva
túnxax
##ílixva
k̭ap
mə́s
k̭arp
tašš
##úč̭ax
črə́p
čangálux
grə́d
nšə́p
xk̭írux
bəp̂
##elan
layy
bəṱmóxun
parčənnánax
##yəpp
##árix
šubx
číran
člíjax
xuyróxun
##učóxun
lój
məstóxun
sólax
##cər
hursə́nnux
č̭ambərranóxun
munṱə́p
##úrilə
šrəztóxun
shə́d
varák̭
k̭arrə́ccux
márran
ʾəstif
naxiróxun
##əvvát
p̂lí
##máy
ṱaláš
ʾəm
##ammóxun
##ə́vy
sṱir
mamunva
patl
xapr
sayv
##yánuva
##ílən
##zərr
bətvá
rez
maccúp
##ə́ppat
yuvv
##áruvan
##ərra
mač̭riyyánux
zlímux
##áxvaloxun
ʾə
xuprə́ccan
dardək̭k̭
hə́r
čárxax
##úytitun
gobalác
##tix
čak̭mák̭
bəryáš
pultəšš
vusvə́ssux
##áləvat
##yátta
##riyyóxun
muṱmítax
xandák̭ax
xašvánan
hacc
k̭armúṱ
bujbəjjóxun
gúb
mg
razzəll
cučlə́nnux
mux
sank̭anóxun
##totunva
xamb
šaríc
##ə́lvali
prímux
##rantéva
##ə́nvalə
##úč̭ux
čunxə́s
##ár
javvúb
šanš
mak̭rəssánux
##líloxun
burə́xtax
ʾúry
baxčan
xúrjux
gə́l
palóxun
xanxək̭k̭
murviyyóxun
mark̭əll
háčč
zivánux
berašván
múlax
bəmč
mcandərránux
mubsə́mmax
lahləhhánux
ták̭ux
##tévən
cumc
humzə́mm
muk̭rəmmóxun
zarṱ
duxy
xn
píc
dávv
k̭əpp
burbə́zzan
tr
cupšóxun
candálan
šark̭anóxun
k̭rayóxun
mark̭ánan
pə́rman
ʾazyát
čunx
k̭úny
ṱúyux
##úpan
p̂ə́rd
maryánux
rus
k̭arrə́cc
mupvərr
##rəltóxun
tpínan
tumməmmóxun
xúmčux
našṱánan
muzdíyyux
bák̭lan
bəcs
cərxóxun
##rítunvalux
sapyánux
gaxúc
zríz
tamməzzánux
##ə́xtovan
mubrə́k̭k̭ax
dagál
xarxəṱṱánux
##ə́štitva
sark̭anóxun
ʾuld
yúmax
nuyóxun
masyánux
k̭ášk̭
čək̭k̭a
##ləltóxun
##vénva
##én
dak̭
šə́tlux
šupnóxun
bəsláy
jī́l
##íyyix
mubrə́k̭k̭
nasranóxun
durdək̭k̭óxun
gubbáz
mupríyyan
gmíran
##átux
##ántin
k̭dalóxun
##ránta
ʾə́ṱ
nk̭íšux
##ayúytux
k̭anyánux
šəl
c̭ur
bašr
##yánton
šotapú
mhadránax
ʾoymát
yam
muk̭k̭ərróxun
burvánan
xaráyux
piš
mup̂k̭iyyóxun
k̭esóxun
mug
##ránton
carh
##ə́llot
tút
sríxux
tard
gridóxun
bak̭bək̭k̭antóxun
magxəcc
tálax
##əxté
máyan
mánš
tursíyyan
muk̭ṱəpp
##laṱóxun
tapyán
ʾuj
ʾə́rx
##bə́j
macsəcnáyux
táǧan
durbənnóxun
yúvv
gulyóxun
##itóxun
k̭ránan
bambuylóxun
k̭ərrə́šk̭
zk̭írax
mabbúvvax
gašk̭anóxun
xišóxun
xamk̭anóxun
##ántix
maccəšš
##ačíyyan
##tax
nšiṱ
xp̂írax
##ítunli
čóṱc̭
mamáč
tóz
sáddux
gup
šalg
pšik̭
pšíxux
##úmət
gdil
šup̂rə́n
šanšəllánux
šviróxun
muby
pšik̭óxun
culpát
šəty
bəzráz
tuvvəbb
##úš
pállan
##cáran
tə́x
marriyy
##ləvax
múk̭
sód
ʾəšváṱ
##lélə
k̭lípux
blíč̭an
##ə́rrola
##úlixva
bəč̭máč̭
duldəntóxun
turb
gunah
hunhə́nnax
ʾabaróxun
buxtánux
mucsəll
bənxám
surgə́nnan
púsyux
gadd
##ubóxun
##íroxva
cənd
tapxántax
rabiyyát
ragyánax
lamsánux
xašl
##ə́tvaloxun
gíyyux
psíxan
k̭adxánan
mayavá
cúrc
##áltax
ṱúšyax
šk̭ipóxun
čullíyyan
šumxənnóxun
xabrántax
naplánax
daláp
##úvvax
buny
čarpúvvux
lap̂aṱ
##úyinva
magx
lm
resánux
zárb
##áxinva
cúsyax
malúp
núynan
puspə́ssax
xaddú
tazb
##úlot
may
bəzrák̭
tuxmə́nnux
lišánux
mátlax
##əltéva
goyánux
##úlutunva
nxəptóxun
taxs
pə́š
bəp̂ṱ
vuk̭vək̭tóxun
muč̭č̭ə́mmux
ʾujjə́zzax
dok̭ántux
parṱ
múvrux
dóran
k̭ulyát
mač̭múč̭ax
žadáyan
zabbənn
cəly
durdəxx
xə́lṱux
rgíd
##úytuxva
čalbiyy
šap̂lánan
partəllanóxun
betan
##otva
maṱy
rúyš
k̭ambúč
zlik̭óxun
muzdíyyan
mamṱiyyánax
##ə́ltivət
dald
mačyərránux
namm
bəṱrád
salyanóxun
##anéla
halhəllánan
##ə́ntəvat
##yántuvax
palliyy
saralúc
xətn
harsənnánan
bənn
##úytənva
##rántiva
ragdánux
gumgə́mmax
zungərr
ʾáng
camc
cri
yax
mak̭šiyyánux
sépax
k̭am
##əpyóxun
šuk̭lə́k̭k̭an
múyyan
muk̭rə́mmux
##rə́k̭k̭ax
xaluvvóxun
sullə́llax
cul
muhníyyux
gzírax
yík̭
rak̭rək̭k̭ánux
naxn
##álətun
gricáyux
bəmláy
xamúytux
ṱamr
trík̭
bricóxun
##əčtóxun
k̭arpánax
xrix
zv
marran
##atét
xlípan
č̭amyanóxun
bumb
jússan
tapm
šáns
mrídan
##úytit
##raj
čináyux
pašk̭
vuzvə́zzax
jnívux
masxar
dónjux
##ə́mman
##rivat
xoranóxun
mak̭riyy
mummə́xx
nak̭k̭ašóxun
jáblux
##ṱóxun
zuxmə́nnux
turbə́nnux
xšilóxun
mburrənn
##íyyuvan
cásux
ṱrídan
šak̭rək̭k̭ánux
ṱalyanóxun
pašṱántax
galyántan
ǧlíb
pə́šcax
nčílux
muxzíyyax
muxniyyóxun
cvič̭óxun
##ud
manṱ
hunn
carb
hak̭
##ə́xtuvət
mušxə́dd
zuk̭zək̭k̭óxun
##ímun
p̂ač̭p̂əč̭č̭ánux
zannáyan
##átuvan
buk̭bə́k̭tax
mídux
##olavá
munxəll
##íyyu
bəhd
k̭ark̭əpyát
xeṱanóxun
langənnánux
##rə́nvalax
bə́zz
##úyil
sarayóxun
##šiyy
##k̭énva
lób
##yánun
maptəll
bulbə́s
xuláman
šuxtə́nnan
pušpə́ššux
##úyovan
zanpərr
stúmcux
ṱuyátan
##ráxloxun
č̭ulbəxx
ʾább
cícux
##yánivax
zuczəcc
saṱlúṱ
mak̭viyyánux
pasp
luk̭lə́k̭
tapyánax
##írəna
##lulə
##áss
##vəṱ
##úk̭unva
##ávux
ʾərb
crəs
mdurvə́ddan
##alévən
##úlila
saccunyát
##ə́ptan
xəzm
ṱánax
p̂uč̭p̂
ʾoyun
##árin
nazlanóxun
xvarnáyan
k̭urnə́zzan
bəš
č̭angərrántax
##car
snid
gúran
ṱarṱəmmánax
##úytin
ʾok̭
ganvánan
##úvvətva
dévux
rak̭ádan
manzəllánan
pasúk̭
ʾak̭ər
##əss
xulx
##ə́rroxva
lk̭íṱax
p̂ačc̭ənnánan
purd
k̭ávux
##ləla
##nayéva
gummə́ssax
balk̭unóxun
cmílan
sac
sarsúrax
ʾaba
##ulét
xabúš
mužǧə́ššan
##lajóxun
##č̭x
##ə́rtəx
##ə́rtivət
párčan
lubləbbóxun
##rəč̭
xvarnáyux
yamúysux
sriv
harraṱík̭ux
tlík̭ux
č̭amb
lam
vazvúz
ivax
məšmə́šš
sak̭ṱanóxun
ʾə́ddux
ṱamšánax
mučxóxun
##úruvax
mamṱiyya
##ácan
zarbənnánux
lungə́nnax
##ántəla
lay
scínux
blə́č̭
##úluna
sohbatčíyyux
muč̭č̭ə́mm
túmmax
xup̂xəp̂p̂óxun
pagóxun
##eran
##ṱəp̂p̂
valv
surṱ
##anúytova
smúk̭ux
bəsc
rəgyóxun
xurzəppóxun
məššáran
##rə́ptux
búny
dárdux
maprəṱṱánux
hadrántux
mahúd
##sər
dardəžžánux
ṱlíbax
##ítəx
##yánlan
##ləštóxun
sarvanóxun
##úrox
čumčə́mm
ngir
##ántoxva
##árəvən
njívux
barəxmáyux
masrúpux
k̭urd
muk̭və́xxux
##lílux
##tot
k̭urrə́s
šurk̭ə́pp
murcəvvóxun
dúxy
mutyə́vvan
líbax
balab
mudyə́llax
majy
##íyyovən
naratúytux
búsmax
racx
p̂armiyy
riyyóxun
nišánk̭
maṱmiyyántux
zrík̭
žə́dy
dok̭ánax
nazlánux
##lé
gupgə́ppux
curásux
munpəssóxun
##mərr
šaxt
grə́v
##ánula
##aṱéva
ʾelə́c
##aj
mrid
k̭alk̭ánux
miróxun
susitóxun
mixult
zarzəxx
bám
sávax
xvíran
mǧalyát
ʾərbačíyyax
k̭ark̭əṱṱánux
júrbax
xəšš
curs
dvík̭ax
ʾarəmnét
múk̭dux
badəmjanta
##úyova
p̂c̭ix
##ə́rtovən
##vét
patxánux
č̭angərranóxun
##áyivan
##úyovax
najvanóxun
jállax
huzz
bṱ
šuk̭šə́k̭k̭ax
xamyánan
##iyyévat
lalúy
gəlyóxun
rək̭tóxun
buxtancar
maṱriyyánux
dol
ʾak̭ə́ldar
park̭
comác
txínux
murgədd
muscə́nn
mappiyyánax
čanxəss
k̭ašk̭əššánux
##rimun
capšánan
parpús
sríṱax
##ravá
masliyyánax
yavan
véylux
##álotva
xalúvvan
p̂urmíyyax
##náyux
##otun
rəš
##úytulə
mappiyy
xelan
##úrəla
macrəzzanóxun
xaṱṱáyux
mə́nnax
sk̭úran
pašṱántan
jəpnóxun
purpəss
p̂alšánux
zargár
p̂c̭íxan
báran
geč
mádan
layyánux
críbax
parsənn
##unlan
sak̭álux
k̭ə́syux
k̭uzz
##ári
mummə́ltax
čullə́ššux
##ántuvan
##ə́rtila
búk̭š
##yántəla
huliyyóxun
síran
cak̭rak̭
k̭óč̭č̭
súll
##yátox
turt
paryántux
nzírax
ʾuncərr
##úro
bəzyár
##ətt
k̭ešánux
muxrəppóxun
gadlánan
gəly
gə́rvux
p̂ač̭p̂úč̭
##ə́ggax
muṱṱənn
brísəm
murdə́xxux
čin
šák̭
k̭undáran
mgar
muxpəll
k̭ix
mutrə́ssux
##ótan
lumləmtóxun
dáh
##ati
k̭on
bak̭k̭
k̭r
mušxə́d
murcə́xx
##íxax
duš
##úrut
ʾidavá
blíč̭ux
k̭urbə́nnan
gziróxun
##et
sk̭ə́ṱ
##urét
xríṱux
pác
##čóxun
vasílan
lamləmm
##árovan
horí
sargúd
k̭ím
lalab
patxanóxun
##étəvən
šríṱux
mup̂ləšš
##ə́nnutunva
gəbbúntux
ʾapəsk̭úpux
mazyánan
marríyy
xurdiyyóxun
čixót
##anb
##ə́llova
ʾulaym
šp̂íran
dəccan
ʾuk̭lə́nnux
p̂uč̭p̂ə́č̭č̭ux
ʾarg
cə́sy
##ayéx
sursəmm
k̭ram
##ə́rtutun
##yatét
bak̭bək̭k̭
pišóxun
najv
jummiyyóxun
gugíyyan
grə́štan
canašóxun
muxdíyyux
pəs
##áyuvat
##əvvantóxun
baṱrənnánux
hurdək̭k̭
tícux
##ə́ltuva
sə́xyux
hə́nyux
ʾajjáz
##ílotva
##rítunvali
ʾustólux
k̭áš
pšiṱóxun
šuxtənnóxun
bəblayóxun
xuč̭x
muxləṱṱóxun
mšíxax
k̭alpánax
mulpíyyux
##əltén
mázrux
muxxíyyux
k̭íyyax
šalṱ
tulm
##otóxun
gurvənn
cə́syux
bak̭lánax
magdəllanóxun
bulk̭ə́ṱṱ
šulṱ
##áluxva
xmiš
k̭urnə́zzax
##úran
bəm
##yántux
lvəštóxun
##avatóxun
muzyə́rran
turxə́ssan
mašyúp
margədd
##rəxva
##ápax
luk̭lə́k̭k̭
sannánux
bulbə́llan
k̭armántux
pacránan
búṱlax
maravá
##mova
ballús
##livat
haslanóxun
xat
k̭rə́mtux
taptánax
##šéva
##əvvanóxun
ṱalləzzánux
##yén
taxránax
bulbəss
mk̭uṱk̭əṱṱóxun
k̭ə́p
##étova
lip
muk̭víyyux
gárax
mup̂k̭íyyux
k̭əny
xə́vyan
mešóg
##rivət
##vax
sálm
zlím
purdənnóxun
masrəppánux
mgu
nurnə́rran
pšíṱax
ʾurgə́jj
bsərtóxun
susíyyan
ʾurməž
k̭umarbáz
balbalúyk̭ux
bŭ́n
jə́ryan
ṱízax
xamx
ʾarvadbáz
mummə́xxux
zabk̭
##úyivax
yúman
luǧ
k̭urumsaǧ
matvənn
muk̭rəvv
##anévən
gurb
##rətun
daǧǧənnánax
xjilóxun
rudrə́dd
cín
ptílux
maslúyux
##aryát
xəlm
##étətunva
cačal
rəǧ
yalpánux
k̭íran
ṱoxánux
goyánax
##úmit
##yánu
sə́c
p̂ač̭lánux
##úrəl
ʾə́rbux
cúpšax
##ítunvaloxun
balad
##únina
ʾaryiyyát
šunšəll
hu
##el
masyantóxun
gánnan
k̭rívux
gogiyyanóxun
mascənnánax
##təbb
##ə́lə
míx
##várux
gabyánux
k̭úlp
noniyy
k̭admánan
naxmanóxun
##úlivax
hrəmm
##ə́mtut
sak̭yanóxun
ləzz
mč̭urč̭íyyan
##íləvat
daldənnántax
xalsa
xícux
ríṱ
cánux
##alévax
##ə́nnixva
p̂almánax
cár
##ne
tlik̭óxun
csíxan
##ísux
##rotva
muṱmərr
##ítəl
ʾaširát
##íl
zonánux
nisánax
##gan
ptil
laglagóxun
k̭adšánux
šamám
mak̭dánax
romóxun
##əǧǧ
duyk̭ə́nnax
##únutva
vak̭vək̭k̭ánan
gazránax
##yánvalan
##átotva
nuxnəxx
mak̭k̭ás
##ṱaxóxun
##ə́k̭titva
huyyə́rrux
búšrax
sk̭up
mapš
turcáyax
maya
yatum
lib
brád
márg
pundóxun
maxšəllánan
sə́pyax
k̭azánj
##uytéx
spítux
šli
talmədd
xark̭anóxun
maxvərránux
xaṱyánan
manšərranóxun
yavánux
ʾəz
masp
muxšə́llan
šaṱ
šun
marlánux
gumbə́llax
vuzvə́zzux
bnátux
##ánətunva
##vóxun
zulə́z
č̭ung
č̭ulč̭íyyan
garus
barríyy
##ə́xvalun
nak̭šóxun
xurxə́č̭
savv
##ux
##úləna
p̂urṱə́nnax
lezánux
gúrax
xalx
pundə́nnan
##ə́xtəvat
k̭arróxun
xiróxun
##ə́ttun
musxíyyan
##ə́llin
manzílux
žǧuš
##yaténva
k̭ənnátan
pay
mardanóxun
##ávand
garyanóxun
bárux
mə́nyux
muṱríyyan
xlə́m
tanapčíyy
žaǧ
narnərránux
rk̭ídax
táǧax
##ə́llovən
bəṱy
##úk̭iva
mak̭k̭
xírax
##litva
xač̭x
šuršə́rran
##mak̭
šlip
gard
táb
##rə́tva
rek̭ánux
mugxə́cc
batvá
bəždáy
prícan
dúmǧan
##yántula
c̭aráṱṱ
dárban
zúyz
máran
mešavá
##átivax
k̭míxux
duk̭də́k̭k̭an
mugrə́šš
̆
maprúš
yasr
##ágan
pašabánd
tamtəmmánan
purp
mesánux
##rántən
mupy
maǧázyux
gardán
prə́m
saradóxun
busmə́nnux
mbaj
##ə́valax
srə́d
maštiyyantóxun
daldəll
k̭almóxun
šorak̭át
maryús
sayádux
púcrux
k̭uk̭k̭ún
##aryátux
cutlə́nnux
napúsax
lumlə́m
maprək̭k̭ánux
bəml
tanuyróxun
##rit
dəžmín
##ántətun
vak̭vúk̭ax
##ə́mtəva
mayanóxun
napsánux
č̭arč̭ərr
báh
xdát
ʾurgə́jjux
sə́ntax
rə́š
##utt
k̭áyax
bəcpáš
rjímax
calamóxun
bambúylan
##iyyévax
damǧánux
myak̭ərránax
##xəss
marṱánan
sapyeg
##mut
tyám
bulbəltóxun
bíman
##lə́nvaloxun
##ímunla
carpičóxun
maǧázy
zúbn
páǧrux
malyanóxun
rek̭anóxun
gadš
šáb
k̭ut
muk̭k̭ətt
mšíxan
##úlovax
manvúr
mučyərróxun
ṱullə́z
##vv
##ə́mmux
xlívax
aǧás
##ə́llu
bumbəllóxun
talyánax
nk̭ə́z
sak̭dánux
maxyəmmánux
##ə́rrot
šlik̭
bəxváṱ
ʾélux
manšiyyánax
pusl
vušvə́šš
bazər
muṱr
zabnánan
mups
##ilóxun
tak̭lanóxun
dussáǧan
cúb
##úliva
##ə́ntot
šuk̭š
##úyixva
sídan
čídax
k̭ár
gubb
##alén
muccə́ššan
muzb
ršimóxun
gamiyyóxun
##ə́rtin
##ə́mva
jigarə
sə́prux
muxpíyyux
vazvəzzanóxun
bəṱmáy
rudrə́ddux
zə́ryax
gars
dubak̭óxun
##piyy
ʾatyánan
##̄́l
doránax
ʾujjə́bbax
suplə́p
muč̭č̭iyyóxun
čartánux
nummə́nnax
baluṱóxun
##áxvalun
##ə́ṱṱux
##áləs
lənyát
ṱarṱəmmánan
mardúytux
gríš
##álovən
gmišóxun
šóṱux
táǧ
##ənx
##étəxva
k̭niz
##úmətva
##dərr
##čan
##lə́c
##úytivət
bəsbár
lilán
nuvvə́rrux
čarčúvvux
dorántax
muk̭rə́m
gardóxun
k̭axk̭úxan
xamlánux
jojánux
mazmúrux
luṱṱənn
xámpux
tuym
##étinva
masyántan
mušx
sul
gəry
syív
tmin
pundə́mman
##rač̭
tah
gvílan
delánux
buxtancárux
xeṱ
tə́lyan
bəpráxax
badl
mup̂ṱə́xx
čak̭k̭álan
bəzd
##yánuvan
##álax
maxliyyánux
matlək̭k̭
xj
macliyyánux
cepánax
k̭áng
bək̭ráy
lamlúman
də́my
məl
cəpp
sə́nd
zalləzzánux
bəsrápax
##níyy
saryánan
k̭azánčux
šamṱánux
gambəllánux
##únivan
mubyə́nnan
##yáti
vuk̭vək̭k̭
mapšərr
xalmánux
bəgválax
##ítivət
ṱetan
zrík̭ux
zə́nyan
šlík̭ux
čúx
péčux
čullə́ššan
##c̭
##anč̭
čən
k̭ə́ṱy
šamašóxun
k̭ark̭árax
ʾə́ryan
baruxóxun
masxaróxun
mubxiyyóxun
##ítotva
xaryánax
čriz
macl
pušángan
k̭avróxun
guly
##anténa
bazə́cc
ʾuncə́rrux
##óx
cə́p
ʾə́ddax
k̭urumsáǧux
mulyəzz
xvírax
tap
ṱlíban
šatyánux
vazz
tugb
ʾəʾtubár
k̭urk̭ə́ṱṱux
məzyóxun
carti
baxč
bəzmác
gazgəzzántux
##yanóxun
mcixóxun
balləss
mgundə́llax
k̭ázax
##írot
murxə́ššax
xaddəttan
gúllan
sə́mtax
damǧánax
muxzíyyux
čak̭k̭ál
beraš
ʾusculáyux
túr
mušyəpp
ʾurzág
pə́lyux
črítan
##rəd
burbəzz
##ayévan
muk̭k̭ə́s
##tik̭
taxánux
saṱránan
bə́rc
k̭alíban
c̭unc̭əšš
xasxús
sayvánux
davúlux
mugrəšš
šak̭ulóxun
šalx
rxik̭
bəyyak̭óxun
zargárux
vusvə́ssan
púrk̭ax
p̂ačc̭ənnanóxun
matlább
luk̭
##rə́ntux
k̭aṱk̭əṱṱánax
mupríyyux
pállux
##itétun
ṱúlan
sp̂ísan
hir
bəxla
k̭assabóxun
guzgə́ztax
k̭ərzə́nk̭ux
mappiyyanóxun
gurgə́ššux
matxánax
##əmlux
buǧúmux
muccə́ss
talmidóxun
ʾat
tuxxə́bbux
##únotun
##írə
níxux
raxmúytux
c̭unc̭ə́šš
k̭í
muryəzzóxun
##ərtétva
ṱemánux
barab
ʾə́ddan
maṱyánan
mak̭d
##átulə
mungə́rrax
bənk̭áz
yə́k̭
šuddə́nnan
##uxéva
tlípan
čalš
##únovat
##ítul
dabánux
zupzəppóxun
cər
taybərr
c̭ac̭
ruzzəll
purpə́rrux
k̭əssóxun
jungə́nnan
pašmántax
popáx
##ə́rtix
##anúy
bəstan
p̂aṱuxyát
mačídax
##ə́my
##cárax
msazgərránan
šalm
##rajóxun
##xəš
xarrác
k̭arrəssánux
##ašétva
sállux
##úxən
maṱmúyux
balbəllánux
sarsəmm
##rə́ṱtux
čup
p̂č̭ílan
mayátan
##úym
sonordág
mušrə́zzax
naṱpánax
##áli
dəmm
púršan
ʾijáz
parxanóxun
##vətun
mupsə́xxux
##nun
ʾəstic
##úšuva
mašyánux
mumrə́llux
bətpák̭
yə́myax
nák̭
harsənnánux
##tván
mdabránan
táx
bagr
bív
##rə́pp
mbujbəjjóxun
parúx
muxrəvvóxun
##ə́mmax
čálm
nṱ
nab
marriyyánax
##ə́mtinva
jarbánux
taptan
čarč
##úyuvax
dabləbb
saháttux
k̭appáx
gab
xriv
yamuy
curhə́nnax
##čiyy
čəčč
bulməllóxun
txínax
##ap̂
mucs
xaluv
##ápan
##rəṱ
tuntənn
ʾáran
zak̭zək̭k̭
pliṱóxun
k̭ošóxun
təžbúx
carduvaróxun
lvíxux
mupšíyyax
##yántivax
##ə́nnitunva
baṱlántax
čaydánux
marcəvvan
ṱašyántan
caman
bandárux
ʾad
vuj
k̭urbə́nnux
mušlíyy
jaryanóxun
nzílan
juvvəbb
muryə́zz
mabrúz
zuk̭zə́k̭
vak̭vək̭k̭ánux
palyánux
gím
##írutunva
sarxanóxun
ṱə́ṱṱan
luləg
goyanóxun
šulp
ruxrə́x
mussə́k̭k̭ux
súllan
šúdlan
muxrə́vvux
toxmák̭
gulgə́llux
musyərr
xərd
habb
mód
xíšax
k̭adálan
##ə́lloxva
gə́dyux
natíj
bəbrác
##átitva
xasxəssánax
##áš
sə́ptux
zenánux
bárrax
##ə́tvan
č̭unč̭ərr
dk̭iróxun
musyə́p
ṱarpánux
muzyə́rrux
##yánax
##únətva
maddərr
bəlyáz
xə́ṱyax
dávax
p̂aṱux
k̭app
góz
najəbb
muk̭rə́xxux
mušp̂ərróxun
sapmóxun
k̭atírux
tanápux
##yáva
mudyə́ššan
muṱrə́ss
k̭appás
jarpanóxun
##ánəvan
manyəxx
dozmar
##áz
harrajabaz
##étətva
barxánan
txinóxun
rabíyyux
púš
šə́rm
rapsóxun
sanyánux
##átlax
dila
rutrə́ttux
tiyyóxun
tabák̭
##ə́rtiva
cúbax
bṱílax
##rox
šaršiyy
búzm
šapš
paltəšš
čəll
nannóxun
guby
nacnúc
gən
##ténva
mubyə́t
k̭araǧájux
núbyax
xaṱr
##avat
##rə́m
##rívalə
mk̭aṱ
mumləxx
hak̭yáttan
##ṱánan
zamṱ
ruxs
tašmúš
##əxxóxun
yálm
radrəddánux
zarč̭ánux
muryə́ssan
##monva
##úylax
jáš
##írovən
bris
dáx
šulgə́ddux
mudyə́llan
muššóxun
cəxlan
maxyəmm
##ə́byux
tumtə́mman
##yántan
č̭oč̭
mazrák̭ux
dardóxun
cílax
muṱb
yasm
##ánin
lak̭lák̭
jammiyyánax
mak̭rús
davlat
##lánan
c̭učc̭
dəbbát
mámax
nəh
líman
mísax
##ítovan
k̭undaxsáz
bəj
muṱbiyyóxun
mašləmmanóxun
##ánlux
tuxx
súysan
čəz
sandəllanóxun
šucšə́cc
mupríyy
naštár
surṱə́nnux
delan
čamčəmmántax
cə́s
matvántux
k̭urk̭ə́zzux
nəprúzux
halák̭
gazguzóxun
čunxə́ssan
##újux
mudmiyyóxun
njívan
pudr
lot
sin
mušvíyyan
baxyánax
cə́nš
lə́ṱ
tapk̭
k̭əss
balyanóxun
ptəlyát
jəmy
munṱəpp
k̭unṱopóxun
##íti
##mét
sarr
k̭apk̭úp
##əp
xasra
muṱríyyax
##ə́llovax
##áyixva
##valux
barxəššánux
##úytovax
buk̭račíyy
xarbəssánux
čaxsánux
purpə́ṱṱax
mup̂k̭íyyax
nsivá
buzx
mak̭rəss
##váran
zaráyux
sparə́glux
##netóxun
dónj
k̭ázux
dardək̭k̭ánux
##tək̭k̭
gargəššántux
rə́j
##yátvaloxun
muǧǧəbbóxun
npix
čard
nazr
rezínux
##lovət
hamzəmmánan
də́xyax
magr
lampár
##ə́xtəxva
maṱliyy
č̭ak̭úrk̭ux
darz
balbúlax
xarxánax
xəmyóxun
susín
humzə́mman
##yátutunva
č̭ənč̭ín
zunpərr
pandəmmanóxun
magdəll
siṱóxun
maptəllánux
nvilóxun
map̂k̭iyyánux
bəzk̭
k̭urranóxun
litóxun
xánan
məṱ
c̭ə́rṱ
rúpp
šuxrə́nnax
##čux
málc
har
muk̭rəṱṱ
##úyulə
xark̭ánux
hajjəjjánux
camrántux
pənyóxun
gəndəmm
##néva
ṱlə́btux
čumbə́llan
mupyə́ššax
muyyək̭k̭óxun
šərm
pašmántan
júrbux
záyux
sira
xatránux
nat
k̭alay
##úbux
xun
k̭ə́d
##ə́k̭tonva
yahún
ʾortíc
šuxrə́n
##ád
burxəšš
##únan
sapúy
bəp
rak̭dánux
gvíx
čr
##íyyox
mač̭m
yamin
##ə́nnat
šullə́llux
mdamd
bəzráč̭
k̭ir
zədy
callóxun
xzíran
ʾoruš
paríyyan
##ík̭ax
##ávaloxun
mašṱáx
yay
číd
##ə́rtan
mav
##ə́k̭tinva
gurrəllóxun
##baz
k̭aṱl
dussaǧx
mb
hušyar
##ənté
narahat
##áyun
munṱə́ppan
##anc̭
lximóxun
##átinva
ʾutk̭ənnóxun
k̭vir
láxmux
masxaračíyy
saǧ
jassəssánux
bəxz
mulxə́mm
##ántuvat
##álivət
zambúlux
sə́ṱyan
##ə́ššux
madmiyy
barbərránux
k̭amčiyyóxun
č̭ulbə́xx
k̭apk̭əppánux
k̭upk̭ə́ppan
tímux
nírax
k̭ə́r
jú
##ni
k̭ablánux
##yátotva
gúj
č̭alpánan
šíl
nisanóxun
galandíyyux
šlíman
##amóxun
##ántəvan
sarṱ
macúc
k̭avvəmm
ṱris
galg
zurbə́nnan
ṱuymə́nnux
##úluxva
##ulétun
bə́dyux
mazmúran
##étulə
mulvə́ššan
galíšan
bəxn
k̭urpəxx
ruzzə́llan
racávux
šúllux
čuk̭čək̭k̭óxun
buxxə́llan
gə́byax
ʾúm
xə́t
xímax
##vún
mesanóxun
mumxíyyax
buxčóxun
zə́ny
##ašc
jarṱánax
šark̭ánux
k̭əvraǧ
##číyy
huyyərr
dárz
hámz
##éloxun
gušk̭
##ə́mvalax
rcíx
mušk̭əllóxun
k̭uvvát
xan
k̭ə́šyux
zéh
blás
zak̭zək̭k̭ántan
mak̭rəssánax
múlc
bəxx
timóxun
čacúž
zənn
##írolə
gališóxun
muštə́k̭k̭ux
páydux
bəbsáran
jənnák̭ux
mujvəjjóxun
gahóxun
mublə́s
sosiyyánan
pəccírux
##ə́rrivat
marcəvvánux
##bat
nic
dabanóxun
šiván
##raxóxun
natránux
čunxə́ssax
mank̭ašóxun
##yantétunva
babóxun
slíb
cxilóxun
xaṱṱ
k̭urməč̭č̭óxun
##ə́xtax
##úlinva
zə́ndux
xašxašóxun
ʾúryax
ʾajəbbuyát
mudməxx
k̭urbənn
palxánux
xarpanóxun
xṱírux
k̭azan
k̭azz
xub
##yátlan
lvə́štux
mumcə́xxux
bəzzázux
laj
k̭ulk̭ə́llan
##lívalax
##en
##úyuna
malyəzz
raxmúytax
##rotunva
muslíyyux
mabr
muxnə́k̭k̭an
xúpṱax
mǧál
púlṱan
xund
xmík̭
##ə́lləvax
xambášux
k̭ək̭k̭áš
ṱars
##úyix
xbíran
##úk̭
sarúg
k̭anṱərránax
sənyóxun
muxvə́rrax
ganátan
musnə́nnux
##étəla
gə́rvan
##ə́tlux
bəšp
basúrux
##ə́rrətun
k̭atíran
k̭asyánan
šok̭ánan
##ə́dtux
##írotunva
k̭íz
muṱrə́ssax
manšiyyánan
šaxləpp
júdd
varídan
##niyy
dášux
srə́x
pálg
pk̭id
búlux
culp
##úyutun
maṱlúy
lcíxax
šə́blux
##ilə
šupninóxun
mumrə́ll
čək̭k̭úr
pə́šy
pušangóxun
čaluvván
xlimóxun
bə́ry
hílan
zalíman
mbarxəššánux
k̭ənnó
k̭ušíyyan
ṱlíbux
glíj
mazz
muxrəv
baytálux
zuczəccóxun
ṱabb
k̭urnə́z
parpəṱṱ
štik̭
muzyədd
mášan
tajírux
vaz
ṱap̂xanóxun
k̭úṱrux
malliyyánax
##ə́nna
švir
mə́ltux
gəby
shid
masyərranóxun
k̭undaróxun
##ə́tvalux
##urétun
ṱax
sargánux
galgəll
č̭alč̭iyyánax
pašx
##ílut
##ə́rvaloxun
jállux
##yánovan
pəny
mujrə́mm
##ə́xtit
##tuvən
xapṱánux
gránd
šuv
##ə́mla
č̭umb
junjərróxun
xamyántux
laxmanóxun
mə́ṱyan
luǧáz
duldə́nnax
masxáran
talísax
k̭ə́šyan
##yánixva
##írit
rə́sk̭
sarítux
ṱuxṱ
batís
póxux
##əmtén
##ə́llotunva
muk̭rə́ṱ
mujyə́nnux
##ə́rrəvan
xaz
##étəvat
sy
zamc
surrə́ppux
muvróxun
k̭əntóxun
pašranóxun
muddə́rran
gašn
tpitóxun
salbánan
šalpánux
sursə́rtax
mrík̭an
dəžmnay
palačíyyan
brə́x
##uvat
rə́gyan
cə́ryan
##ərrántax
maddiyyánax
##ə́xtulə
buk̭bə́k̭k̭an
pallóxun
ʾelčíyyux
xecánux
##ənnatóxun
##tilə
mujtayy
ʾaslanóxun
tark̭ánax
ʾatyanóxun
malum
##ánnoxun
tug
lcix
də́x
péš
čam
č̭urč̭íyyax
balk̭únax
səlyóxun
maxšəvvánux
taxnanóxun
mč̭arč̭iyy
ber
nak̭úšax
ʾaxunvá
k̭lík̭
xlep
lal
k̭umbárux
sunsə́pp
ʾarxóxun
šúllan
xuddətt
gadpanóxun
čak̭k̭álax
##əšk̭óxun
k̭ačaxóxun
curás
də́štax
šaddənn
##bún
mač̭məč̭č̭anóxun
sádux
patpəttánux
yarránax
##íyyəla
dár
huyyə́rran
sp̂ísux
čarác
husl
bəct
yaṱṱánax
zoz
##ə́jtan
k̭ál
nvíxan
mapr
naxmánax
burṱənn
##əxlax
p̂ak̭yánux
paršóxun
šalgánan
rk̭id
gnívax
k̭əry
casyánan
gangəzz
túl
ʾis
šə́nz
múrm
k̭ušk̭ə́ššax
blíč̭
##toxun
ṱə́ppux
##rux
ṱúyan
šúyšan
muxmə́k̭k̭an
jriṱóxun
čayníc̭ux
k̭urr
nəzza
luləgg
##írixva
dák̭k̭ux
mardənnántux
ʾoránux
mulyəzzóxun
##úxitva
zangərránax
pəllún
sark̭áll
məsyóy
mardənn
na
črə́t
gadšánux
##íyyovan
davóxun
mamyəttánux
muppəxxóxun
sahát
zelúcc
##ə́mvala
bəzy
balbiyy
lak̭lək̭k̭antóxun
bəryámax
##áyuvan
nasránan
xə́ry
p̂aṱúxan
murritóxun
##ípan
sohbatčíyy
napas
zak̭ránax
zak̭zúk̭ux
rəšvat
##ílot
daldənnánux
répax
##aléxva
šípux
mabbiyyánux
##šóxun
pešvá
##únin
təxxúb
tak̭t
camárax
zé
radr
bəsmák̭
šudlóxun
db
matrús
sə́vyax
píxan
mxašcənn
mardún
ṱamránux
zabnánax
k̭lík̭ux
##rívala
pušák̭
##árova
##ə́xtiva
šaṱxánux
##anúytət
gazgúzan
marlánax
sə́m
##úytivax
crə́b
vázax
čumčə́m
hem
laxmánan
semántux
lotiyy
bəxmáyax
mupsə́xxax
lahləhh
k̭uxk̭ə́xx
xiyyóxun
ṱúmšax
##ə́nnonva
bajujóxun
k̭udm
mugd
##avén
madr
darrənn
luslə́ssan
zelu
sarp
p̂uṱp̂əṱṱ
turxə́s
masyúd
nuxám
##télə
##ə́ztax
mi
##ə́nnənva
hammamčíyy
##álələ
##cən
jv
yalpúc
p̂urṱəccóxun
sak̭k̭ávan
č̭ac̭úrc̭ux
##ántonva
ʾujjəbb
nuc
##ə́š
yalyanóxun
##ərténva
ʾalíz
prə́stux
##íyyotunva
zrə́č̭tux
daldənnánan
dullóxun
sə́xy
##ə́nnəva
čubbúx
k̭eyrát
r
dap
zumzə́mm
dalp
##šan
lapyánux
##létun
##ə́švalə
xamyántax
bəgd
nšiṱóxun
zamṱánux
lúblan
##culayóxun
durrənnóxun
nisár
pšíran
##č̭iyy
xurd
riṱóxun
##ánutva
sansəppánux
mubyənnóxun
##uk̭étva
##éx
gə́r
barr
muṱyəxx
##yántotva
myak̭ərr
sán
túxmux
šurpək̭k̭óxun
munzə́llux
zúrz
maddərránan
masyərr
paríyyux
prəs
doš
##álutun
##ərrux
xrip
práxux
hujj
láh
##əšš
puršóxun
##úmux
bərm
zanbəll
níran
muyyə́k̭k̭ux
badlanóxun
raxúšax
maxšəllánax
##ə́nnən
hudáyan
pə́šyan
junóxun
xsítux
mulp
ṱar
##álənva
##írola
ʾašir
ʾurk̭ə́llan
mačidóxun
túxm
tal
##tvanóxun
##rətva
sád
ṱárp
dəv
##ítəva
bastiyyánux
nk̭ízan
xušxə́ššan
mulyə́ssax
k̭úzd
##mit
sarpántux
nanóxun
xapyánan
##əṱṱ
duldə́ntux
goxánux
marxək̭k̭ánux
ʾahval
muč̭mə́č̭
xaym
##uk̭énva
bazk̭ánan
purčənn
k̭ulmə́nnan
səpvá
šc
ṱə́lyux
##itéx
mušmíyyux
##ə́gg
curáxax
bívux
šəx
č̭albəxx
##bár
jə́ryux
##úlivan
##íyyəxva
catcú
šlám
túymux
xaṱúrax
ziróxun
tulmə́s
##lə́nvalux
bustíyyan
mtilóxun
c̭ap̂p̂í
mbarrənnánux
tugbərr
šəcvánux
raxk̭ánux
##uč
lumləmm
##únixva
purziyy
mumyə́ttux
##ə́rtola
##ə́nnivan
##ranéxva
##étula
##rova
mucn
darmənn
badlóxun
##tula
bəxl
č̭míč̭an
juvváb
góran
k̭arnəzzánux
##alyátux
gúllax
div
mə́syan
jripóxun
muplə́ṱṱan
mburxə́ššax
tart
šk̭ál
##ə́ltəvax
##úluvan
sursərtóxun
mgurvə́ssax
##jóxun
##at
##aléla
nṱípux
vazzírux
murgiyyóxun
mup̂ṱə́xxax
zbik̭óxun
sak̭ṱánax
čalúvvax
šadd
mixúl
sahdánux
##əxróxun
##hb
##ə́nnivat
rúk̭
bújrux
bəbla
munxə́ppax
cə́t
suxlə́x
##əlyatóxun
mə́d
nánax
nuxnəxxóxun
péy
ǧám
purzíyyax
gurməll
torčíyyan
mubyə́ttax
dúny
šumš
marzan
yamyánux
ʾél
hayvánux
mansúrux
vuk̭və́k̭tux
gáj
##úytinva
##ruvan
čarpúvv
p̂ulṱə́c̭
mušmiyyóxun
lc
lápp
rusx
##yánit
##pənn
yuk̭rə́n
čayd
mašp̂
ṱetánux
mxašcənnánux
musk̭əllóxun
dum
vurvə́rrax
muṱṱə́ttux
jridóxun
tájax
zə́dyan
lava
tlík̭
##úyotunva
##úyrux
la
naxmántax
massək̭k̭ánux
##uyévax
gandəllanóxun
šešánux
búk̭šux
mujrəppóxun
##tavá
mgamb
mgargúš
vazyát
rxíšax
bušlóxun
mašk̭
baš
núyṱ
nurnərr
basmántax
čublə́zzax
šrísux
mhúdrux
gəmma
purčənnóxun
mugxə́ccax
##rítax
dó
suylák̭
honúytux
##úxəva
torb
máč̭č̭
k̭avóxun
##vén
xurzəpp
carúzan
k̭ərránan
pandənn
muprəšš
##rántəvən
muč̭ríyy
šir
##ə́rtət
jardánan
masala
k̭aláttux
##ántotva
yaxsir
cučlənn
tf
garč̭
ʾahvá
xašvánax
zrə́č̭tax
##təva
šulṱíyyax
gabb
ṱríp
čaǧóxun
##méva
čacč
##án
gurvə́nnax
tul
cə́xv
matyəvvánux
daglanóxun
pacr
núyax
dárdax
mgambəll
čunčəll
né
mhúdrax
muk̭yə́p
nisóxun
##ánila
núd
humzəmm
##áʾat
mucrí
##ə́llixva
čunxə́ssux
musrə́xxux
janjərránan
sápax
##ə́llit
##yaté
k̭ondaxs
##úmitva
tagbərránax
mabrək̭k̭ánux
cim
##zəcc
murpiyyóxun
həš
k̭údman
##ánn
##dac
bəsrapóxun
golántan
masnúd
xúrmux
murcəxx
dəl
čx
paryanóxun
nšímax
tfík̭ax
dak̭dək̭k̭
##úyula
k̭úb
##ə́mtunva
xadranóxun
##ə́rtəvax
búšlan
myuk̭ərtóxun
##yánənva
curməxx
xvíṱux
cərtvar
murdənn
##ə́k̭tux
k̭adšánan
tók̭an
bəpr
##úronva
rayyiyy
mašrúk̭
##yántivan
bəmrád
sólux
##yét
yáhlux
tpix
purpə́s
hass
múlp
supləppóxun
čídan
búrxan
mcand
##ə́štot
##əztéva
dk̭
sník̭ux
hasírax
tríd
turšənnóxun
tuk̭nə́k̭k̭
sarparáz
mamóxun
č̭umbə́rrax
ʾarməlyát
bumbəččóxun
pt
k̭ázman
čulliyyóxun
tem
bəxš
xapran
##únoxva
gə́ldux
##ə́llutunva
balbús
ʾarətmat
lungənnóxun
##n
sák̭an
##ə́rtuva
##ərtétun
##vət
nummə́nnux
##átəla
calíj
meróxun
##itévət
darmánux
k̭ulk̭ə́llux
naṱ
zmíṱ
naxup
k̭urk̭ə́ṱṱan
magxúc
bəbgár
bək̭ráxan
patxántax
naṱrat
mač̭č̭iyyánan
##álot
šəxx
janj
šarrúc
ho
##əg
buk̭bə́k̭k̭
šuddənn
cartíǧ
ʾəzzat
##uméva
humm
k̭əžža
šób
p̂c̭ixóxun
##rívalux
raxṱánax
k̭árṱ
malápan
##uv
tulməssóxun
ʾuk̭lənnóxun
k̭is
##əryóxun
líz
##átina
ʾodánax
maxmiyyánux
##nat
##ántina
xvarz
xnə́k̭
##únolə
nasván
xlis
##unna
cás
##íyyan
heməzmánux
jnív
xaddəttánux
záǧux
##usénva
ríp
xalpánan
garda
bulk̭ə́nnan
##lə́j
gužg
k̭rívan
puml
k̭úly
hadránan
súllax
suríyyan
súly
##əxtélə
maslah
xzuryát
č̭áng
ṱlóx
šapxánax
ṱamm
zanp
šotapuyát
munšə́rrax
musk̭
##ə́d
mujrə́mman
xilóxun
##íyyətunva
hurs
mzíd
##rítux
mušmə́ṱṱax
xarzánax
lutlətt
ʾuyvə́nnan
zəvy
magvərr
críxan
psixóxun
šalxánax
búnyax
dəžmənnay
ʾəngləznét
rángax
məsc
mamliyy
lən
mdabránux
##álon
##yanétun
##andóxun
də́mmax
##ru
k̭upšə́ntux
hurbək̭k̭óxun
xi
catcəttánux
##əltévax
mrík̭ux
k̭vírax
givíyyux
šamyánux
mamm
ruprəpp
čumxə́mman
ṱem
mupyə́xxux
##úyəx
masrəppánax
parax
##úlətun
zúrzux
k̭urpə́xxax
##es
də́ny
matláb
bəṱr
ʾaváz
purpə́llax
xəžb
dabránax
##ítunlun
tark̭əll
k̭ə́pyax
č̭əlpóxun
c̭urc̭əṱṱ
šaddún
cesánux
leṱánux
k̭umar
k̭árrux
rəg
šalyánan
##dək̭k̭
##ə́llut
macxanóxun
cád
##id
čacmitóxun
rə́mtax
mancərránux
sṱimóxun
##úytən
bríxan
hujjəjjóxun
zárrux
##úllux
mó
rvíxax
xurxə́rrax
murgiyy
camlánax
k̭rə́v
sípan
hurdə́k̭k̭
garčác
##ə́xtuxva
##tulə
səc
muk̭k̭əššóxun
ganyanóxun
##ayéxva
civiyy
xə́syan
##ízax
bək̭m
macsánax
ʾatyánux
č̭arč̭ərrántan
##ə́ltox
bəzzóxun
mašxát
muccə́ppax
buxáx
iva
bəxrák̭
xuv
##yévaloxun
šlámux
dalánan
č̭anguróxun
xamyánax
cumóxun
masč
##antévax
##álivax
##ájax
purpə́ṱṱ
šə́xnux
k̭apl
jam
rašm
bítux
turx
muk̭k̭ə́ttan
šə́mx
mupatíšux
##ílilə
ṱallúz
p̂uzp̂ə́z
k̭amṱanóxun
hiv
čurət
##yántəxva
haját
k̭úz
camránan
##áh
ṱúmran
jummíyyan
duk̭də́k̭k̭ax
hanyánan
gadpánax
linóxun
sargənnánax
##áyuna
##yátlun
múmm
##yánlə
c̭účc̭ux
zabṱənnánux
člə́j
k̭upk̭ə́pp
rujrə́jjux
zə́nd
##əmm
púll
šók̭
patpəttan
##énva
k̭əmsóxun
vaccílux
maṱmiyyantóxun
ʾurə́d
##lon
dəmy
musyəvv
yed
k̭ulpóxun
muxbə́rran
bulk̭ə́ṱṱux
k̭áyux
mərṱa
búsman
##xánux
##ájəb
púršux
##j
bəṱm
##luxóxun
casux
jrə́p
##ántəvən
bardánax
šarrərranóxun
##rétun
báǧ
##uyévan
tuyb
sák̭ux
sarsuróxun
parpiyyanóxun
murríyyux
##átəxva
rápsux
culcəllóxun
##ərtévət
muǧǧə́bbax
bəps
mugvə́llax
##ə́rvalun
maspyəppánux
##ž
##íyyuva
##əptóxun
húg
rapyántax
mudyə́nnax
pág
k̭arx
baxánax
k̭álb
č̭uc̭bə́nnan
##úxətva
##hbənn
##lixóxun
mak̭núz
##laǧóxun
carxánan
rk̭ídan
šúlx
##azét
jəry
nullə́nnax
tarš
šuršərróxun
##úli
##íǧ
k̭aṱúlan
gíyyan
naxó
hug
xṱíran
túp
##ranéx
carməxxánux
mapləxxánux
mušk̭ə́llux
##ə́xtotunva
husen
mumləxxóxun
##utétva
carxan
mudyənn
musxə́rrax
maxxiyyánux
mušyə́p
##ítəvət
halálan
##ə́nto
vak̭vuk̭óxun
gumbəxxóxun
múyrax
tuxm
čúvv
zi
pə́c
##upóxun
ʾidátux
rázan
maxdiyy
talmíd
lvíxan
xus
tánt
k̭amxánux
xlivóxun
##əntén
pr
gvəltóxun
lvixóxun
mak̭k̭ərránan
šumxə́nnax
##ítuva
cúsy
muxvə́rrux
marruyóxun
našpanóxun
j
xa
##cux
saxv
məšy
k̭díšan
##átutva
šúrrux
pundəmmóxun
mejanóxun
tapav
hujjə́jj
márax
##írətunva
gangəzzánux
šaṱxánax
maprəšš
márzan
čárux
xə́nyan
##əptéva
gurj
murxək̭k̭
bədmáy
šalk̭úntux
gə́vyan
marmərránux
bumbúylax
xank̭
xúllax
maxrəpp
##uycóxun
hák̭
ptə́ltux
rak̭ád
jəllə́tk̭ux
munvərr
le
čumčə́mmax
ruk̭rə́k̭k̭
čarúyx
ʾišar
npíxan
tinóxun
spítan
##úlan
txís
##uléla
k̭ubbúx
ṱíxux
totávux
mulvə́šš
##ə́ltəvat
##əmtét
casxanóxun
tə́byux
yak̭dánux
k̭ark̭əmmanóxun
sabunčíyyux
santim
pšáṱ
##rə́l
daldəllánux
mušyə́ppux
mujrəpp
súpy
mtíxux
##ə́nlan
nčil
sarv
##lapóxun
dbíšax
##írivət
##tə
##íyyuvat
purpə́ssax
##učc̭
k̭ublóxun
záləm
garyánax
catlənn
zumbəll
ʾəng
lúṱ
húš
pasúl
dól
##ə́llon
k̭alyánan
tív
mavvəddánux
##yánola
mulxə́mmax
k̭azdánax
bnátax
balzám
mašṱaxóxun
gúm
k̭ṱiróxun
muzv
məšmə́ššux
xáltax
pis
munxə́ssan
k̭ápan
turtə́xx
rabíyyan
mhadyánax
##yátlə
ʾujjə́bban
##íyyixva
dayk̭ənn
buzb
nem
##čiyyélə
mušš
##rántan
##ənnéva
dux
k̭ṱilóxun
gob
č̭alč̭iyy
pərdé
sapk̭ánux
xuyóxun
sap̂ránax
darg
mamrəč̭č̭
musyə́v
##rén
čxis
bənšám
k̭ə́myax
mutníyyan
##ántivat
##úp
##ə́ntitunva
šp
šivóxun
##ítunnux
č̭appóxun
cə́vyan
k̭bilóxun
gargəmmánux
bsáran
##ušétva
balsánux
bas
baruz
sund
##anévan
šor
vir
tapánax
##ítunnan
mdarvəddánux
masṱárux
hasan
bəyy
p̂ərc̭á
pəsk̭óxun
sapy
mumyə́ttax
##iróxun
cotác
##yanéva
budr
mujyə́nnax
šr
həndúš
gašk̭ánan
muprə́ššax
cepánan
císan
mutlə́k̭k̭ux
ʾurbə́ṱṱan
solóxun
majjiyyanóxun
čə́zv
##úni
dbíš
balbáṱax
gúmš
gurgə́rrax
##átloxun
tulmə́ssan
##írətun
bayy
xṱiyyát
darš
camaróxun
##ə́
##yátlux
dara
balyánax
ner
xmítux
muccəmmóxun
##ícux
jarúp
##ton
tuk̭n
##ə́rrivax
##úrəvax
sunsə́ltan
##étuvən
rajmanóxun
šurpək̭k̭
##ə́ntunva
nák̭šax
lulə́gg
##ən
rpápax
xamm
gečitóxun
bəbláč̭
psapp
mila
čarúx
k̭úč̭ux
mašyəll
mixul
majg
##ə́nnətunva
dok̭ánux
págux
rcívux
xalmanóxun
k̭azán
čritóxun
taršənn
##ək̭tétva
čulb
k̭eṱavá
ʾə́čc
búšlax
šalpánax
muṱyəpp
ʾáǧux
##ə́lloxun
xaznačíyy
viyyóxun
k̭uvvə́mm
##ə́llələ
gargəmmánax
lahóxun
##yántot
##úk̭un
durášax
k̭íš
##valun
macrúb
davríyyax
ṱan
sak̭k̭ú
muzlíyyan
##̭ṱ
ʾavadanú
purdənn
sardántax
##úšun
cus
mrič̭óxun
mugxə́ccan
šip
muṱyə́p
xúbrax
##ánot
nuníyyux
zay
p̂ək̭
##ántəvət
čommax
šamšəmmánax
máṱ
dak̭k̭
šərš
tašállux
mč̭anč̭ənn
k̭əṱṱáṱ
maryánax
šamyanóxun
madə́nx
lák̭
p̂ə́rṱux
səmmóxun
p̂aṱxanóxun
ʾazlánan
pə́t
yáysux
mcar
ʾáp
štuvhərróxun
##ánit
##ə́nvaloxun
galíšax
búg
gudyóxun
##lanéxva
gubgəbb
durrə́n
líšux
ṱanṱənnantóxun
ʾit
p̂ə́k̭y
##imóxun
k̭ubb
bak̭lóxun
gazgəzzántan
mad
súlyax
mutləxx
rítax
zak̭aróxun
##ánvali
##itélə
k̭arxántan
nak̭ránan
šlánk̭
zark̭anóxun
šxún
bədyalóxun
xayvún
suxvə́nnan
gúydux
šap̂
tuk̭
##úytovat
ruyyiyyóxun
##nə
laǧ
margiyyanóxun
k̭əšl
mə́ryan
k̭ášk̭ux
xank̭ánax
sarpar
##írət
ctáv
bulbiyy
grə́štax
magrəšš
##ə́mlə
##ə́ntətva
##ə́rrina
xərṱúm
púk̭d
##lovax
čuplə́nnux
cutrə́nnux
pallacántux
##ə́rtil
pə́tlux
mut
##ubbóxun
č̭azč̭úz
šx
xapyánax
k̭əšša
##úyivat
mayyantóxun
čung
##əsc
maxdúy
ʾurusnét
tarsántux
ramyánux
cargár
mah
varv
túx
myak̭
ʾatk̭ənnánux
lulə́g
rə́vyux
k̭užk̭ə́žžux
xrívax
ʾarzənnánan
nt
tálan
maxbəll
ctívan
##ə́xtovət
talmánux
lublə́bb
narnərránan
gváy
búy
yaṱṱánux
k̭əṱṱ
##mand
##əryátan
čək̭k̭uryát
sardántux
ṱušyóxun
cúxvux
sə́my
panyántan
puyd
k̭uzzədd
garúm
##ṱən
xuyyə́dd
dvik̭óxun
barrənn
##rilə
##ə́nvala
garšanóxun
##úyivan
k̭undáǧ
k̭ə́msan
lxíp
xódux
golantóxun
jumm
##əllánux
č̭uč̭ún
sənják̭ux
##ə́ltət
##ánč
ʾabúk̭rux
šípax
##əztóxun
zəlyóxun
ruzzə́llax
bəṱṱám
musmək̭k̭óxun
##ək̭
tašməšš
muṱmiyyóxun
bazáran
čak̭čək̭k̭
musyə́ṱṱan
tuvvúll
purtə́llax
garóxun
dumdəmm
zd
k̭əsy
xaltóxun
mbujbə́jj
##rəpp
mis
muṱṱə́ss
mucvə́č̭
mújux
k̭əržálux
čimánux
ʾaryantóxun
zúlz
šuxləppóxun
k̭uč̭č̭ún
##ə́rrəvat
sargənnanóxun
šuk̭šə́k̭k̭an
##óp
bəgdáp
##ívalə
xajl
mactəv
cak̭rak̭úšux
tursóxun
mup̂rə́m
šlík̭ax
dandə́c
munpə́llux
ṱuymə́nnax
mušmə́ṱṱux
xcím
mulvəxxóxun
curásan
nṱípax
šídax
bulč̭ún
bəh
ʾaryántan
k̭əryóxun
##átila
maṱbuyóxun
búxran
##alénva
marmánux
xab
yr
marzóxun
nazránan
mušrí
##ərrun
ʾə́rb
bayísux
tpik̭
tartəbbánux
čubbúxux
##yuxóxun
šárxux
pamlánan
##ə́ntuva
catrənnánux
grívan
mutpə́ttax
paspəssantóxun
críxax
sənnúyr
matyəvvanóxun
ruš
gardanóxun
malápux
ʾantár
badəm
gdípux
tumməmm
tuymóxun
šə́ltan
bəṱp̂
##manóxun
k̭ərranóxun
ʾamr
puspə́s
hulíyyux
##izóxun
k̭arava
šak̭l
##rək̭k̭
tafk̭ánux
líšax
ṱaym
ṱlúx
čučág
mardúnan
mapšərranóxun
##ā́
##cax
##ané
lallənn
péyd
saccúntux
ṱúmšux
meymún
sápmux
tpíxan
muryəssóxun
muxmə́k̭k̭ux
ṱín
xícax
##dan
čungəllóxun
šorat
surə́g
ṱínan
muml
cúsyux
##ámiva
##ə́ltuvat
təcyát
čallúš
srə́ptax
pə́tyan
##ə́štova
məšmə́ššax
bəlm
##ilét
sríp
mušmə́ṱ
##yánloxun
ʾəscul
dəndək̭
xallún
gapgəpp
dak̭dək̭k̭ánux
parpiyyánan
nə́x
##mánax
xarxərránan
ʾurxačíyyan
##ə́k̭tax
junjərr
də́ltan
spík̭an
čacmóxun
santimə́t
k̭ály
k̭áv
bgírax
saxvún
paršənnanóxun
malliyyánan
ʾə́d
p̂urṱə́ccux
##nacóxun
búr
gul
##átətun
tapxánux
mxušcə́nnax
ṱuyr
rə́k̭tax
royánux
k̭aṱlántax
durv
jəll
k̭arávv
##áxux
bak̭búk̭an
mašmiyy
xamur
cúy
jám
luslə́ssax
xlísax
čančəllánux
narat
##írona
##tétunva
šrísan
ver
k̭árk̭
sursəmmóxun
mrax
muprə́k̭k̭
ʾamdánux
sak̭
ṱmir
č̭upč̭ə́ppax
##álovət
paxárax
##lix
zríč̭
dón
muzdiyyóxun
##k̭iva
yalsúvv
mub
##rə́xtax
ráx
ʾusto
pšiṱ
bəṱváx
##yux
##xánax
sarx
##ak̭étva
šk̭ílan
músk̭ux
zuk̭zə́k̭k̭ux
cavə́dnux
č̭ídax
xažbənnánux
yavar
xil
##səm
mujyə́rrax
##yántətva
bə́zzan
gárux
nə́k̭ban
##ə́ltula
##əstén
mušmə́ššan
pašmanóxun
##úrutun
##úlonva
šrík̭an
manyánux
zunbə́llux
šapxánan
##aréla
ʾort
##árixva
gečáyux
##ánivat
muk̭v
maṱyəxx
xṱítax
semánux
##vəna
nipux
##k
čánnux
##uctóxun
cíšax
lut
č̭ərra
smúk̭
##čiyyéva
##yátovan
k̭abánux
gap
bəšrázax
ʾutiyyóxun
mumx
mšíxux
##ápux
##əlyát
mumxiyy
máp̂
##úytitunva
vatánux
muzviyyóxun
šláman
payyánan
##ávalun
##yantévət
púk̭dan
ʾád
##ā́r
gazand
##átitunva
##luxtóxun
muk̭k̭ədd
dvírux
##əltélə
##rantéx
bəšlák̭
xvarnayóxun
k̭viróxun
##úrə
bəpšáyan
##san
šupn
lak̭yánan
mazmərr
janvánax
mgurgə́ššax
sarxánux
xúrmax
č̭uč̭anóxun
nəprúz
sv
k̭aṱ
##ámta
zallún
xlép
##ayúytax
šax
musyə́ddux
šuk̭lə́k̭k̭ux
k̭armánan
surgə́nnux
##ə́ntuxva
muk̭rə́x
xaluvvátux
parpəll
##rántut
šaṱxánan
xubr
k̭arant
tə́py
manpəss
darrənnánux
xluylóxun
##ə́tvalax
šópax
mucrə́z
k̭ok̭iyyánux
məsr
ʾa
mard
jənn
črə́z
xá
badyánan
burǧ
nəx
bəx
xašxánux
šaršəṱṱánux
paríz
mǧuš
##ərṱ
##ə́p
##rívalun
xex
juvvəṱṱ
tušnák̭
sávzux
xəpy
##ántax
pk̭íd
xúlm
##munva
mask̭úd
bəzdáy
gósax
prəng
langəll
##ṱan
tapúyan
tásax
##tén
xə́rdan
nəz
ṱúlux
gə́dš
matpəttánux
šurpə́k̭k̭an
##lova
comacčíyyux
lviš
xasyánux
munšiyyóxun
záb
zak̭ár
paspəssántan
k̭árǧax
##arévan
mabyú
cífux
gabgəbb
bsiróxun
tugbə́rran
bəsm
##áman
p̂ulṱ
sə́ntan
xardiyy
xuvvóxun
suspén
##ədtén
xasxanóxun
##yánila
ʾaxun
##átətva
##aróxun
carúz
sarádax
muryə́xxux
##ə́nta
sandánux
nə́nva
##únax
žǧíšan
mup̂k̭iyy
šrizóxun
bádlux
k̭ərk̭ə́p
##ə́k̭la
janim
##əppa
šəppə́š
mcurm
##íyyinva
##úšan
##lək̭
##ə́nnitun
báxyan
##lunva
pars
č̭edánux
mšuršíyyax
mazviyy
xúbrux
masxərránax
zavvúj
xarjánux
##áxonva
p̂c̭
##vúr
k̭ul
rk̭
zlúm
munvə́rran
raxk̭ánax
xarxərránax
k̭alóš
sad
ʾaxm
č̭ac̭bún
bumbə́ččax
p̂ač̭úc̭
manšiyyanóxun
xlíṱ
yatvan
lúyl
surṱə́nnax
masrəxxánux
lx
šəry
##avár
mubyə́ttan
mčixóxun
píl
##úxtan
səmm
pašránan
tavərtóxun
sp̂íran
muptə́llan
prik̭óxun
nasr
šəlgə́mm
prád
suk̭
##əž
##úmən
p̂ṱix
mlí
sak̭lántux
hursənnóxun
hár
č̭upč̭əppóxun
šúrrax
zább
xərp
bək̭yár
k̭aplanóxun
maríf
ʾə́n
suríyyux
k̭uzzə́d
mucliyyóxun
mublə́ssux
ntírux
mamṱiyyánan
putp
##yátətunva
##ə́bban
##átovət
k̭urk̭əššóxun
bazə́r
gox
p̂limóxun
došécux
k̭op̂alyát
baṱlántux
zuczə́c
sarrúp
pary
mərč̭a
sā́r
ʾəṱmát
k̭aṱpanóxun
##ə́rtux
maṱṱús
šuxlə́ppan
šíšan
k̭alámax
mazlúy
muṱṱə́ssax
zinóxun
k̭aṱpántux
təflíyy
lxípax
lublə́b
##yanténva
šə́myan
tənyóxun
cəlp
šul
basrántax
lamóxun
##pux
čer
##antétva
ʾargəjj
##amén
ṱúyr
šrík̭ux
ruprəppóxun
##átu
k̭avránux
már
##̄́š
bark̭ánax
bu
##əzm
##ítoxva
šu
p̂určág
cadd
##ərr
c̭unc̭əššóxun
tanápax
yalyantóxun
mhúdyux
##ə́rrit
##avál
k̭uyóxun
mušníyyax
##yánəvan
balbalúyk̭
č̭angúrax
ʾuk̭lə́n
##ə́rtovan
##č̭ax
nzilóxun
k̭už
muzvíyyan
sarrájux
k̭up
pk̭ídan
ríyyan
bəzz
mašcənn
mrə́k̭
yalp
mumíyyan
teranóxun
##nam
pərp
ʾamróxun
xúrr
##əlli
janjərránax
##yántut
muk̭rəv
xšíxan
mal
xayyáṱ
ṱrúb
darrún
dvíxux
bənk̭
k̭ərṱálan
k̭arxántax
##əvtóxun
##yánəna
ṱəry
hulhə́llan
paršənnánux
##urétunva
burn
p̂uzóxun
bab
šuclə́ccan
bardánux
manz
ršim
map̂ləššánux
šak̭úlux
xatmánux
lapp
púmm
ríxan
psítux
muxpəllóxun
spə́k̭
mupləṱṱ
##əttéva
tuytóxun
maccəss
manšək̭k̭
nk̭íš
zurzə́xxax
##taxóxun
maddərranóxun
muntə́rrax
nə́xp
tim
buránax
garpanóxun
##évaloxun
ṱap̂ṱəp̂p̂ánux
čunč
il
##éna
ṱr
gužgə́ž
napárux
duk̭dək̭k̭óxun
nəp
šalxántan
mák̭k̭
cúndux
šúk̭ux
##ə́k̭k̭an
##tl
səp
zabnánux
sún
junjə́rran
xulxəllóxun
ctiva
muṱbítan
##titun
dorantóxun
k̭ursúl
ṱerət
ʾalam
ṱamšánan
čám
##únənva
maṱriyyánan
tappac
cutlənnóxun
bəxva
k̭áṱṱux
capšánux
munxəllóxun
čulbíyyux
sínax
čəngelušt
mucpənnóxun
bəjj
liyy
bənsávax
xuš
mšaršiyyánux
gáhux
##ə́ntovən
##ánun
curpə́ššax
šann
tuxxə́bban
ʾabaddún
múd
##yatén
ʾuk̭lə́nnax
p̂lášux
ʾatmab
ʾabriš
##yóxun
fc
barəxm
cel
##ə́nla
mgund
munšiyy
##áxəva
zmár
##yántona
pardánux
yritóxun
šamámax
súp̂p̂
tabák̭an
šupš
##álovat
##itunva
murmə́rran
mammək̭k̭ánux
ʾutíyyax
balk̭
##ə́k̭tən
bángax
jang
##ántə
šə́lyax
##tola
tulmə́ddan
xažb
xaddətt
xušxə́ššax
zardušté
mup̂ləššóxun
ricávux
muvvə́ddan
sux
bəšlám
zunpə́rrux
k̭arítax
bəbb
našóxun
rítux
bənnav
k̭áh
k̭ə́ssan
basuróxun
muk̭və́xxan
##ánovən
gazaryát
cand
luzlə́zzan
bətnáy
varák̭an
sulyóxun
p̂ač̭lánan
pumpəxx
mušxəṱṱóxun
sarbáz
cimóxun
muxšə́llax
p̂op̂iyyanóxun
xə́m
vatanóxun
durmə́nnux
##yánta
k̭ónčux
mact
ruznamačíyy
p̂amp̂əllánan
mangərr
bulbə́llax
raxúš
puc
bətráy
tarsiyyanóxun
dviróxun
##uvan
šanyanóxun
carməxx
margəddánux
ʾapəsk̭úp
k̭aṱlantóxun
vazyáttax
##rə́ntax
hi
gozóxun
ṱuvvíyyux
musxə́rrux
k̭ánd
parčín
burjóxun
buṱrə́nnux
məšyóxun
curdb
cušc
bəzǧ
šuk̭rə́k̭k̭
dúglux
k̭ávran
máč̭
##nétax
ʾaxl
məṱy
čangalušyát
bərxák̭
k̭rə́x
xunxə́k̭k̭
báll
tuxmə́nnan
múrman
##ə́lli
##ə́xton
búdrux
##k̭ə́ṱṱ
garúg
baxušyát
muxlə́ṱṱax
xum
šaṱyánax
dmixóxun
yah
babəcc
bən
vulv
bədyálux
buk̭áran
sarṱanóxun
poli
yul
bajújux
ʾaybóxun
mašləmmantóxun
šahzát
##áč̭ax
gávax
lačiyyát
ṱašyántux
ṱmíšax
bəryás
##uyétunva
##ə́k̭təva
##zək̭k̭
dívax
marrúyan
gargušóxun
bəsṱám
vušv
##antévat
rvíx
k̭urk̭əzz
čašn
k̭uṱk̭əṱṱóxun
parpəllánux
mašn
ṱə́myax
##k̭k̭iyy
ʾujj
čamčəmmántan
čun
nadyánax
##roxva
suráyax
##ə́ltila
matlanóxun
##əntévax
nísux
balabánux
supítux
tamməzzantóxun
##ítətun
majvəjjánux
##ə́ntutun
##ə́llə
##lotunva
xáltan
dív
déran
ʾark̭anóxun
mutpə́t
k̭ránux
##ərrántux
##iyyévət
bəc
gənyóxun
jamah
k̭aṱún
zlum
zel
tuvvəbbóxun
čáǧax
mank̭álax
teránux
loṱc̭
bak̭bək̭k̭ánux
ṱəryóxun
rə́pyax
nád
sənnárux
##ayétun
mbujbə́jjan
šúbxux
myuk̭ərróxun
##ʾáttan
č̭al
##íruna
turšə́nnan
k̭emanóxun
##ə́rrən
p̂
xunxə́k̭k̭ax
p̂uṱp̂
jaj
dbiš
xoṱ
pundə́mm
k̭in
capár
mburrənnóxun
mašniyyánux
čabləzzánux
hasílan
##aménva
ptəltóxun
##yáy
##yántəva
muhníyyax
cis
zum
ʾujjə́bbux
maxdərránan
k̭urbay
bívax
##ášax
člíjux
rxík̭ux
xə́zyan
bəgvalóxun
xəbl
ʾarbábux
č̭ərṱ
muspək̭k̭
laccənnanóxun
č̭ímux
tušmə́ššux
barbərranóxun
musyəll
č̭unč̭ənnóxun
##únonva
rup
##úyətun
sundəll
k̭unṱə́rrux
púcrax
bsímux
bújrax
##ánotva
núvvux
muk̭k̭əmmóxun
##ə́ltovan
čamčumóxun
ʾustóxun
cutrə́nnan
##írotva
juvvábux
xonóxun
##alétunva
##ə́vyux
##úrin
cpírax
##unṱ
javvəṱṱánux
marč̭
xyar
xatmanóxun
xužbənnóxun
##itéla
maxdərrántux
muxv
##aruytóxun
der
##lap
taləs
muṱbitóxun
vul
šlípux
balabančíyy
ṱúm
məššənn
baxərr
##írovat
map̂č̭əllánax
mudriyy
məsráyux
žadyanóxun
muzdíyyax
basmantóxun
radrədd
xalvánan
náš
ʾərván
gərvóxun
p̂ər
##ili
tunx
##ə́xtolə
raxš
šáran
murpiyy
ndírux
k̭azánč
zmiṱóxun
muxmə́ss
dvíx
bívan
##étva
cərvíš
švávux
k̭undə́xxan
məndiyy
gə́ly
##uyr
##dénva
talpanóxun
##ítivax
bal
búgmux
mə́ṱ
šn
capr
šapxanóxun
šúdrux
mə́nyan
muncərróxun
##ujóxun
ʾicram
sáb
cutrə́nnax
zodún
lamlúm
zlə́p
##ánilə
##yova
pšə́ṱ
basrantóxun
napás
k̭urbənnóxun
paršənnánax
##áyivax
búč̭ax
##yavan
mušrək̭k̭óxun
xayan
muccə́ššux
cot
##ivax
patlánux
lišóxun
ṱarbəṱṱ
bəznáy
jvíjax
máh
maxn
xáč
##unét
muštiyyóxun
ə
majjúb
##ə́rtul
##ánvalə
nahak̭
##ívənva
píšux
cartágux
macnəšš
ʾóm
mugrə́ššux
šuršə́ṱṱux
txisóxun
##arévən
k̭anyánax
##ə́btux
́
janvánan
dínux
məp
habas
tə́byan
gurm
xoyánax
vurv
nasyáttax
##vál
líb
dráyux
##ə́ttax
mak̭danóxun
burə́xtan
xuldiyy
bətxás
zəlpóxun
jaríman
vat
muč̭məč̭č̭
##e
##ríṱan
hóg
k̭upšínan
muč̭mə́č̭č̭an
ṱup̂ṱə́p̂p̂ax
lisóxun
vajib
##yánivat
lullənn
fcírax
čiriyy
mucríyyax
bg
muṱbíyyax
##úlət
baxyánan
jə́ryax
múlan
k̭yámux
muzməṱṱóxun
##yátu
túlm
šítan
savə́cc
šápn
gvə́ltux
##úrovax
##laš
k̭unṱərr
mujjiyy
cušcə́ššax
pašcáš
mutríyyan
zárz
gólč
sə́ndux
##rə́ṱtan
xázn
##ləbtóxun
məjj
muk̭rə́xxax
ʾidam
##ruvən
čall
ʾəšgílux
príšax
##lo
čurə́tm
k̭ə́ry
bəspák̭
pər
##rəjj
rímux
##əšyát
k̭ob
məlxáv
zunpə́rran
balúṱax
príxux
mənd
puvvə́rran
sedačíyyux
ṱúmšan
xumxə́mman
zanyánan
munsə́rtan
baǧóxun
munšə́k̭k̭ux
k̭urk̭ə́z
mučyə́rrax
naṱpanóxun
sp̂iróxun
##úšax
tark̭ánan
bəcvá
murk̭ə́llax
xədyóxun
xólux
ʾazánan
murád
xunxək̭k̭
tambúr
##tiva
##úrovən
č̭unč̭ə́nnux
daǧǧənnánux
sázan
k̭údm
##jux
xp̂ák̭
bəryóxun
##úlovat
##évalun
mak̭k̭ətt
šə́b
xáyyan
badanóxun
ʾanámax
rxiš
bəmr
##ə́jj
raxšántax
maxziyy
nur
k̭ulmənn
##rəgg
##ríla
##gár
jarp
lámṱux
zonántux
k̭avvəll
sarbázax
buzbək̭k̭
cát
loṱc̭ačíyy
k̭aralúctux
dorántux
bdílux
##ə́rrəl
gəžž
mujrəṱṱóxun
zuvvə́jjux
čámč
musk̭əttóxun
muplə́ṱṱax
zabbun
##xoš
másy
carpúyč
murm
símax
ʾancərránux
zílan
hamm
yalpanóxun
##aslan
marz
##yántətun
##yátvali
jalxántax
balyantóxun
xp̂íran
ʾápsux
hos
##ə́ntən
dabránux
##líli
bək̭máy
ciš
paršántux
sid
šílax
##ər
musyə́dd
k̭ásrax
mč̭anč̭ənnánux
xuyvənnóxun
malvəššánux
yalmóxun
##ə́xtona
šahíyyax
ʾascar
gozlí
##úlənva
ginó
nṱə́p
##vúy
də́k̭nux
##ə́rritun
bəxlás
nə́k̭yux
masmús
sə́lyan
ʾiṱalyánux
##upén
šarṱánux
bəprám
sedánax
mdubr
xáš
##úynan
bəxváy
##rə́tvalan
paršánux
lublə́bbux
gúyax
##yátux
gulgəll
briš
nuniyyóxun
##ucéva
##uyv
crə́x
##lə́n
p̂ač̭p̂əč̭č̭
ʾarvadb
zablənn
šílan
s
xšívax
caraxóxun
ʾujjə́bb
##yántuxva
rcívan
saṱmanóxun
xtim
ṱxin
##aṱóxun
##ə́ltəx
táv
tvin
##ləšš
gogiyyánax
xunxə́k̭k̭ux
ʾala
dalləllánux
línux
ʾunc
šə́tk̭
šuršəṱṱóxun
sli
muk̭ṱə́ppax
daryánax
xuldíyyan
bust
čart
mač̭č̭iyyánax
k̭upšə́ntan
dallácan
##ágax
pag
##číyyiva
raxšánan
parxánan
bəcyás
ṱixóxun
tulmə́ssux
sacnánux
parpú
corc
somóxun
parúšux
čullə́šš
##ə́xtətva
##rə́s
húdrax
təc
##rə́tti
k̭alk̭ánax
zaxám
harraṱík̭
huyvə́nnan
##úk̭əva
ʾak̭ə́rvux
mə́šx
luzləzzóxun
curasóxun
ʾard
##ə́šlun
ṱrid
##bək̭
toz
xurrác
šallák̭
##yánvali
ʾalízax
mup̂rə́mmux
xadxíz
tasm
##ax
mummə́k̭k̭
pəsp
capranóxun
rap
mhud
maslúy
spadiyyát
búymux
baravá
xalyánan
yasránux
hrí
ʾun
purpiyy
šəly
##ič
mašxəddánan
lxépan
mapvúr
##tona
##áya
k̭ṱílan
šulxóxun
xrə́k̭
mašxúd
##ə́rtuvət
dvixóxun
šváv
hudáyux
múxlax
ṱəm
mucríyyan
ducdə́ccan
jvál
šamášux
##évalan
gazár
##árivan
sə́lk̭ux
gúd
##af
daglánux
xaj
k̭ušk̭əššóxun
muxšəxx
ṱupp
##ə́xtəl
##əl
rxík̭ax
##sóxun
ṱā
k̭ərṱóxun
gardánan
čamčəmmantóxun
##nəcc
k̭úzdax
ʾoránax
rut
##irítunva
##ə́ntuvən
xúpṱ
šlápc̭
scín
bəbnáy
k̭addišóxun
##tin
mərṱ
mrə́l
barríyyan
rajrəjj
bulóxun
xəšša
yáx
bədl
maxləpp
##ítovat
bəšy
bəgg
gizárux
k̭urk̭ánan
ṱvíx
čumxəmm
galgəllánan
ṱmišóxun
sarsərranóxun
talísan
xarxəč̭č̭ánux
##yánn
nuznə́z
##úk̭ova
sə́ntux
xušx
mar
parpərrántan
##ápta
##ímunnə
##ə́lton
bəxṱ
bərpayóxun
dabš
tápux
saralúy
sedačíyy
šark̭úp
##məxx
c̭arc̭ərránax
rušnúg
sesóxun
liṱ
ʾárx
šuršə́rrux
ṱarṱəmmanóxun
k̭urṱ
##ulévax
cúč
##ísax
gə́dy
baxránux
štuvhə́rrax
##aṱ
##ə́rta
búdran
p̂urm
k̭úzdan
murviyy
##réva
gar
##íyyəvax
##yátotunva
p̂uzp̂ə́zzan
##əgtóxun
činəs
hílax
k̭aṱk̭úṱ
p̂úzan
ʾadáttax
badyánux
súrax
##ə́ššan
míjax
ʾaryántux
šúlk̭ux
ʾaxlánax
muk̭rəxxóxun
xrik̭óxun
bəlvá
ránd
musaf
##ta
##avátax
k̭id
##rə́k̭
sansəllánax
dúxyan
šalmánax
mujy
##ə́llox
k̭aṱóxun
muštar
xuddə́ttax
cuyl
xk̭iróxun
rij
munc
sabun
čacúč
mócux
gurgúymax
málux
##urk̭
xodóxun
##úrivən
c̭
map̂k̭iyy
čarpuvvóxun
mčix
ʾabur
##avéva
mum
laxmačíyyux
madvək̭k̭ánux
##unloxun
turbə́nnan
k̭anún
xaník̭
haji
xriz
zabṱ
zulz
del
xarz
##rə́k̭k̭ux
##əryátax
baryanóxun
##ump
bavá
##uym
juvvə́bb
báxtan
luhlə́hhax
##tək̭tóxun
p̂líšux
laxmačíyy
##uyóxun
ctív
rayóxun
k̭oxóxun
##ə́nnan
##úxut
šum
##íta
k̭ə́ṱṱ
žadayóxun
ty
turs
##ítuxva
##uc̭
príš
šišəlyát
mupyə́xxax
burx
##əvax
k̭azal
guna
núyn
##ríva
brák̭
puče
k̭urk̭ə́ṱṱax
rxík̭an
##ártux
daglánax
k̭díxux
##əvət
muṱṱə́t
bim
##uzóxun
musmə́ssax
mulx
xaryanóxun
musk̭əddóxun
##əllánax
##úrinva
##ílotunva
xe
žə́dyan
mə́rṱ
raxšántux
lap̂áṱk̭
##ə́ntovat
gambəxxánux
bumbə́llax
mamyətt
šxúyn
muryəxxóxun
gadágan
jarimóxun
maxzərránux
rip
##əxtóxun
pušpə́ššax
k̭ə́šyax
boṱ
šəmy
##únotva
k̭əvy
ʾup
burb
narn
vajv
suplə́ppax
maxšəvvan
jung
##ə́nniva
bəgm
xaník̭ux
##áxlan
tabák̭ux
mumliyy
dubləbbóxun
sapar
ruppíyyux
cílan
##yánonva
ganatóxun
rxímux
##átli
tužbəxx
bədm
##iváx
bál
k̭araǧáj
črixóxun
muntíyyax
tabləbb
tə́ctux
tóran
cilóxun
malcóxun
tark̭ántax
tásux
##əžž
bəprás
##tən
gzir
puspəssóxun
cusy
ṱanṱənnanóxun
tagbərránan
##yála
mašm
sanyánax
##bazóxun
sṱímax
zunp
šxínux
k̭uždərr
##áltux
púlṱax
garb
ṱúvv
taršənnanóxun
šunšə́llux
lah
camáran
k̭esánux
ʾavayú
bajbəjjánux
gə́g
##tétun
muṱyə́xx
sp̂ís
ruxrəxxóxun
muk̭rəmm
pərs
trə́k̭
sk̭ímux
tapyántax
mucnəššóxun
suyb
mubrə́z
##vim
murrə́š
muššəššóxun
mušy
tanga
capšanóxun
sər
##ivən
malax
ctulyát
cə́ptux
dəšša
ptə́ltan
tpítan
taxmún
##nim
##ə́mtan
muprə́k̭k̭an
##áxvali
nuk̭nə́k̭k̭ax
##ləjj
madyəššánux
túpxux
muscə́ntux
bəbsárux
##ərtévən
róm
durrə́nnux
##úyto
pandamóxun
##úyina
mapšəmm
ʾabuk̭
##ə́ltəxva
mablús
xálv
c̭ac̭ún
##ə́ggux
bəlyáš
hanyánax
musmə́ssan
##áhat
basúrax
šudl
basuruyát
xšil
##ram
k̭urmə́č̭č̭ax
##étutunva
xašúlan
k̭arús
nák̭šan
##xám
parṱánan
ctúl
##əxtétun
p̂c̭íxux
dayy
xə́s
sp̂
dastúy
##átut
##yávalə
##lamóxun
goravá
##əxtétunva
rəm
mugvə́llan
muscə́ntax
malyəzzánux
##úyi
p̂ə́rṱan
rxišóxun
##ántola
dok̭ánan
##ánvalan
##uyél
č̭ərč̭
bunp
##vəjtóxun
hayvánax
calb
k̭axk̭əxxánax
mudvə́k̭k̭an
##ántovan
mubbíyyan
xúlmux
sah
xórax
manšərránax
niš
prə́x
##rutva
##lanéla
##úrəna
mdamdəmm
parpáš
##áxlun
tunj
ṱoyanóxun
##acarúy
musxərróxun
šúlxan
zarzəč̭č̭ánux
##írəvət
k̭əssáttux
##oǧ
nub
pšík̭
balk̭ənn
tapxántan
šuvvə́ttan
šén
munxə́ss
ʾuldíyyax
bərráyan
saráyux
##yánut
zétux
xzir
k̭es
srídan
mešačiyyóxun
mílux
##úy
zərzam
##əz
čuč
xarxərránux
čunčə́llax
nagránux
##ulénva
purpə́ṱṱan
mudríyyax
cúyš
suxbərróxun
táš
xayyədd
##íra
xmilóxun
mač̭č̭
zádux
xmisóxun
tic
##ík̭an
maṱbayát
rav
mapləxx
grí
mušmiyy
ṱanṱənnánux
grís
mušrə́k̭k̭ax
snínan
šoránux
gvírux
xmís
##ánəx
##ə́k̭lux
xríxux
durášux
vuk̭və́k̭k̭ax
k̭ímax
ina
##úriva
č̭lí
sádan
sə́cc
muxšə́xxux
maxúsan
sənjiyyóxun
##áran
##útan
xə́dy
##ə́nnəxva
mašx
purk̭úny
##ə́llətva
##yatévat
##íyyutunva
túytax
maddərránax
manṱúp
maptiyy
dardəžž
yamúys
k̭uk̭k̭
mujvəjj
myak̭ərránux
ter
##úyəl
bə́ṱm
mayatóxun
xupṱ
##yantét
##rutunva
č̭arč̭iyy
ʾó
surgád
##únix
##túb
pušróxun
xúrjan
vírax
mugn
##ə́xtila
tə́nyax
bəšláy
xíš
raps
sapyántax
gríč̭ax
xuzdác
mṱ
##ítəvan
bə́lyan
darrənnánan
##ráy
k̭aṱulóxun
xṱítux
##únitunva
lág
tark̭ántan
bany
nuznə́zzax
ʾə́zz
curmə́xxux
šúryux
sə́lyax
bəmmád
limóxun
xušávux
##lə́ṱṱ
dacd
k̭aṱyánan
capránan
k̭umbəčč
mak̭k̭ášan
tlípax
bəpráyan
##ítunva
##ləxx
sak̭lánan
mə́lyux
k̭dílux
cumcəmmóxun
##úrot
mašləmmánax
bṱílan
##itétunva
sandánax
##untéva
síyyan
##úmm
##ántixva
sárax
##átvaloxun
map̂č̭əllanóxun
k̭úč̭č̭
##ed
##yáttux
šipóxun
šalúp
lacc
paytax
múč
ʾəns
xunzə́rrux
čacmačíyyan
k̭apk̭
críban
gužgəžž
šuplə́ppan
xarp
##úrivax
masrəppántan
calámax
pudradčíyyux
k̭urmə́ṱṱan
##ə́nnina
##rəmtóxun
##lánux
xəzmavá
luṱṱə́nnux
raxuymóxun
gə́š
##rə́nnux
pix
magə́s
čacčúc
zacz
jarṱánux
##úlux
dur
##ə́xxax
##áyələ
ʾuk̭lənn
č̭appárux
##ə́nnut
mər
##yátan
massəmmánan
guzgə́z
sapk̭ántan
naštárax
gadyánux
mubx
pa
##úytəna
ndir
č̭o
ratrəttánux
sansəllántan
murríyy
k̭ərzə́n
ʾanv
##úytəvən
musyə́rrux
##íman
balməllánux
mušk̭
mazv
rpáp
bəčráz
mucrə́bb
sarrəppánux
muryə́xx
mašləmmánan
ruyyíyyan
báǧax
nšíṱ
rə́k̭dux
taypóxun
part
šamšəmm
tuptə́p
ʾáslan
##livax
žadyánux
mušlí
sn
šabb
murxə́k̭k̭ux
múlpan
nzil
bərc
xav
##əlla
masxárux
##ovən
šupnínux
zmíṱan
marduytóxun
tuntə́ssan
pš
##ə́xtan
šóṱ
balk̭əṱṱ
manxúp
tužbə́xxux
mabləssánux
raxmánax
ʾarəm
maxyanóxun
surgə́ddan
##ə́s
zonánax
ʾərbálux
munxə́ppux
pumpə́xxax
varvúr
lcízux
##ə́rtuxva
pri
bríx
p̂uṱp̂ə́ṱṱux
##k̭ét
xríz
haramiyyóxun
cudrát
rək̭k̭iyy
##unli
tabak̭
badúš
muxlə́ppux
príz
dlíp
##éy
##lənva
mutrəgg
zuxmə́nnax
mudíyyan
mappiyyánux
blič̭óxun
zax
naxúp
lox
nak̭r
##bəjj
cərr
mummə́ssux
##ə́lləvat
gózan
simavárux
sak̭úyr
##yátəvan
gamíyyan
k̭ənnátax
lamlumóxun
##yántotun
k̭uždə́rrux
p̂uz
párran
də́mmux
bəbláyan
xandácan
pušpə́šš
xalva
dull
bəgmáš
##ə́štən
talk̭ánan
p̂ump̂əllóxun
basrántan
durrə́nnan
##úlit
davríyyan
##rə́tvalə
ʾamdánan
daxyántax
ruyyiyy
sk̭ídax
tar
čat
k̭álp
yatáǧ
nasvánax
savə́ltan
xárj
šuvv
daldún
mak̭y
mgandəll
k̭undə́xxux
hak̭yanóxun
zalk̭anóxun
mašxənnánax
##íṱax
murmóxun
##irénva
zétan
xatmánan
yaman
mulyə́z
##rəstóxun
##yévalə
xtíman
yuk̭rənnóxun
damd
šur
láxman
bazk̭
nə́k̭y
ī
k̭ídax
cə́ryux
barxanóxun
ṱəš
súy
nurnə́rrax
mullíyyux
parxa
k̭ə́nnux
xlépax
tlík̭an
##xax
sás
##tunva
k̭urk̭ə́rrux
šúpnan
##írənva
musrə́xxax
k̭uhbə́nnax
xurxəč̭č̭
suxvənnóxun
tup
vatánax
bazərxánux
##ə́rruxva
##áxuva
k̭alattóxun
##ə́rrixva
súllux
láxpux
naštaróxun
šelántax
muzmə́ṱṱux
purpə́rtan
suxsíyyax
##ívalax
yarxánax
dərrang
##ítutunva
šəššəlyát
##əntéxva
sahdánan
cracéš
zbík̭ax
mgandəllánux
paltúš
xeṱántax
k̭andəxxánux
xak̭
bṱín
##vənnóxun
xalyanóxun
prə́z
čangəllanóxun
macxánan
čina
mucmə́llux
muššə́ššux
muk̭yə́nnax
jríd
marriyyantóxun
bəsráv
k̭užk̭ə́žžax
##ə́vv
su
##étənva
lizóxun
yíran
húslax
##əlyátan
k̭aš
pasy
farsáyux
bulk̭ə́ṱṱax
gə́sy
cté
mugvə́llux
##uytóxun
dargúš
slíbax
mubsə́rrux
ragdanóxun
vanóxun
sámmux
##ó
rayət
bə́dy
##étəvax
muradóxun
žǧúšy
tuxmənn
balč̭
banyanóxun
k̭ə́mč̭
bənyánux
xṱitóxun
xripóxun
garč̭ánux
xušávan
mc
lap
##yánnə
razzəllánux
gvírax
racxánax
##ə́xla
duldə́llan
púllan
mšəlm
##arč̭
buráxux
muštək̭k̭óxun
##ak̭
mušp̂ə́rrax
k̭axk̭əxxánux
##íyyol
práx
bəgxác
buzk̭óxun
##lítan
tut
ṱínax
xulləllóxun
brídan
##anévət
##ə́ṱ
##áyon
trə́d
yáyan
bak̭lanóxun
##áyit
plíṱan
mág
tablúb
pašyantóxun
tə́ny
tummə́z
də́pn
múb
##ánli
pašpəšš
šənt
tamməmmanóxun
nísax
muctə́v
mask̭
muṱyə́xxux
nšipóxun
xunxək̭k̭óxun
pərṱ
##áloxva
c̭arc̭əṱṱ
tapn
xalsún
ʾurg
xeránux
ʾarva
##ártan
ú
munpə́ssux
suxl
##ə́rrula
mak̭rəṱṱ
psítan
vak̭vúk̭an
##ánəvən
tammúz
##úvax
##ə́rrox
##úyitun
##ə́mtən
##yánux
myúk̭
malpánux
garsánux
##mim
k̭b
sítax
mrídax
##ítunla
mummə́ll
naps
xəry
šagər
buxxə́vvux
k̭aravášux
k̭alyánax
munšíyyan
ʾapsóxun
bazərgánux
xalúvvax
zm
xcímax
zak̭zək̭k̭ánax
barbúz
zlíman
gáhax
k̭aṱpánux
maṱbúyan
xojóxun
##ayéva
ləpy
das
burrə́n
tuntə́rrax
pak̭ud
c̭unc̭
k̭ə́ṱyax
##álunva
nahyánux
ṱb
bándan
lačə́c
xaryantóxun
##yátuvən
bəprác
casyánax
ʾuldíyyan
##ímux
lítan
nak̭danóxun
b
##úritva
cúbb
##yaxóxun
##ánutun
prítax
##révat
##xəll
šepánux
##rəxtóxun
tpíxax
maláxan
musyə́ṱ
čor
xarvánan
c̭urc̭ə́ṱṱax
racv
yik̭
matal
zil
##ṱṱ
muxzərr
k̭bílux
táǧux
##vanét
##góxun
p̂urṱənn
xurbə́šš
šibanóxun
smík̭ax
lvix
cəstóxun
pešc
gurmə́llan
zə́ry
itun
k̭arnúz
xə́lyax
dérux
mač̭məč̭č̭ántax
ivən
ʾarzənnanóxun
šuxrə́nnan
##ə́rrulə
xašúl
k̭éṱ
tuybərróxun
mummə́k̭k̭ux
jrídux
k̭óč̭ux
cr
šupšə́pp
##úytila
búzk̭ax
ṱlə́btax
dún
pálax
k̭and
ʾik̭
muṱyə́ppan
k̭urk̭uš
myak̭ərránan
ʾastrel
xarpánax
šap̂ránax
maláng
##yánəla
muzyərróxun
burcát
masnənnánax
blič̭
sak̭lántax
muxdərr
mubrək̭k̭
##ərróxun
ʾúrvux
k̭urk̭ánax
masr
mriṱóxun
##líyyux
laxl
##ə́nnuvan
##inóxun
##ə́nyux
marm
sark̭ánux
yek̭ánux
##ánina
##lunóxun
jeyránux
sə́myan
xríx
yalənk̭óxun
luxlə́xx
##jax
šrí
mgarv
##̆
muxšə́llux
grə́p
saránan
xayáṱax
##əltéx
##ə́štotva
##yanévən
##ə́štinva
ptixóxun
yrit
xk̭írax
##lítux
júlxax
gə́by
##ə́k̭vala
šamášax
plíx
žad
lazləzzánux
##tova
##állan
mesántux
sacn
lcə́z
črípux
surgóxun
sazgərránux
modóxun
cpíš
lə́bbux
bušróxun
sarvánan
ǧalb
##yáno
p̂ṱixóxun
ʾujjəzz
##xúy
##mətva
síyyax
sohbát
##ə́rrət
##úytox
ʾár
madd
nex
##unélə
##əltétun
sup̂p̂óxun
ṱá
sapuyóxun
mašvúy
zádax
mayánax
hammən
mušvíyyax
darrənnántax
mujrə́ṱṱax
mujrəmm
k̭upšə́ntax
ṱam
##untóxun
##pərróxun
##úmunva
k̭upk̭əppóxun
balk̭ún
xuzdə́ggux
suvv
xandácux
suzg
##ántəx
##astúy
##ə́ntovət
##ssab
gárdux
k̭at
purpə́llan
maptúlan
matpək̭k̭
matíc
muzyə́rrax
ʾarp̂o
mašləmmántax
munsə́rrux
k̭óšux
šal
##tutun
xánd
dastag
##əryatóxun
zmə́ṱ
lvíšux
##ítət
xlə́p
mašṱáxux
k̭adxanóxun
mamrəll
dak̭ík̭
k̭alk̭əll
čumx
ṱúyax
k̭urrə́ssan
təllisím
ptíx
šuy
manpəll
níx
k̭urk̭ə́zz
##ráxli
šec
matt
buzxánax
##mar
širən
##áluvat
sə́srux
tutt
k̭ar
##ə́xtilə
##áxvalax
tár
##úlina
hurhə́mman
xiš
maddiyyánux
##ərj
šaddənnánax
##áxloxun
##iyyánax
##əxla
zurd
##yuxva
ṱalyánax
zǧídux
saritóxun
parčinóxun
lk̭
mríč̭
tanap
##ərtélə
##rə́xva
nvil
janavar
ʾálm
mazbú
mšəlman
tuk̭tə́k̭k̭
hardək̭k̭
gulgə́llax
##uróxun
##uč̭
cúx
##álix
maxyánax
šucl
suxlə́xx
nak̭id
šurk̭ə́ppux
masyəṱṱánux
tulmə́ddux
bajránux
##atévat
##acén
zo
munyə́xx
##ínux
##pəll
suysóxun
sumurk̭
načlánan
mk̭uṱk̭
masyəllánan
murri
brat
šp̂ílax
ṱaš
marxək̭k̭
turtəbb
č̭ungə́rran
muxmiyy
##ántəva
##əntél
maprəxxánux
muk̭k̭ə́šš
munk̭ə́dd
ṱəvyóxun
cumáyan
##ə́xto
ganátux
zey
##úron
k̭azala
##uk̭
túyr
sk̭ílan
k̭míč̭ux
musmə́s
crəstiyyánux
k̭apyanóxun
šə́tyan
xažbənn
maṱbiyyánax
muprəššóxun
xə́ršan
sm
##átox
muryə́zzax
ṱappún
k̭almak̭
šxinóxun
mummə́ddax
##əry
lujlə́jj
nal
mašaxáṱ
k̭aṱk̭
##ə́mvali
yapyánux
súysax
##ič̭óxun
##ítutva
mixác
k̭urk̭ərróxun
lcixóxun
k̭ráyax
xər
tapxanóxun
xə́py
candərránux
##luvan
vazóxun
mandiyy
talk̭anóxun
##ašén
k̭apk̭ápax
bə́zyan
žǧúšyux
drə́š
čublə́zzux
šak̭šək̭k̭ánux
bak̭bək̭k̭ántax
k̭ə́t
tužbə́xxan
k̭ulmə́nnux
mank̭
mutniyyóxun
lúǧ
dálm
ptúx
təlyóxun
zəny
##írina
šənyóxun
puk̭dóxun
nucnə́ccax
##ə́ntinva
nargísux
čác
mgurg
ráng
##úyivət
k̭ulə́p
maǧǧ
##tuxóxun
laǧím
##ə́nvali
##úrax
nsív
mugxəcc
k̭əč̭y
k̭d
##ílovax
zanyánux
##átovan
mšar
dr
ʾass
juvvəbbóxun
salbanóxun
šušánn
munk̭ə́ddux
gmir
bətrák̭
sə́tvax
ṱamáṱan
šláddux
k̭ri
xrík̭an
c̭əm
mč̭unč̭ə́nnax
caráxux
čacčəcc
##ulén
xúvv
jnívan
cvíč̭ax
tantərr
gún
šálan
yatúym
baǧvánux
ʾasúṱ
##ántətva
ʾúrzux
túrcux
zə́dyax
k̭apk̭apóxun
p̂ə́k̭yax
##ə́tva
súpyux
cartág
k̭azi
##rénva
[MASK]
lublə́bban
ʾaryánan
yalə́n
sabránux
túyrux
k̭urránax
tapk̭anóxun
bgírux
ʾás
srípux
##ávar
dášax
mun
goyánan
ṱamrantóxun
suk̭k̭ə́ttax
galdiyy
vusvə́ss
##uyát
bešyáy
##árovat
##ə́rtələ
cundərróxun
mazzəzzánux
k̭adšántan
nammənn
sép
ʾarbáb
bəṱláy
méš
misóxun
šuk̭rək̭k̭
ṱoyantóxun
dušdə́šš
mušk̭ə́llax
k̭uzdóxun
sk̭íṱux
sím
mulpóxun
múzzan
mhadránux
šecánux
jlix
prə́d
maṱṱəssánux
xəzmáy
pašpəššánan
tugbə́rrux
šurrəcc
šəṱyóxun
cat
tə́byax
tumbánax
bavə́ccux
sálan
##ədtéva
muzməṱṱ
talmanóxun
mamr
nəzzám
zany
duym
gurvə́ss
mašləmmánux
párš
##ənnanóxun
zarzanóxun
k̭úyṱ
surrə́pp
burxə́šš
bák̭lux
balk̭əṱṱánux
yurupnét
bajbúj
jandácux
##rəč̭č̭
nə́vyan
yamyánax
##árutunva
ṱvítax
p̂əč̭
murxə́š
##čiyyéla
mušt
zanguylóxun
dablúb
mgurgəššóxun
nucnə́ccux
suxsiyyóxun
saʾ
laczánux
ʾask̭
čabləzz
suplə́ppux
šak̭k̭iyyuyát
mulyəss
lúb
k̭arpánan
macliyy
ṱamáṱux
mcíxan
##ə́xtəvan
súl
šarz
lxím
mdurvəddóxun
masrúx
pn
gumlóxun
halak̭
muxrə́mman
surrə́ppax
murádax
púllux
p̂almánux
č̭ak̭úrk̭
senánux
##təvan
muspiyyóxun
##íritva
zoyánax
ʾuldíyyux
púxlan
yúk̭rux
##áva
##unlux
##rántot
dalləll
k̭díman
čaypáz
dəbbúr
##tol
múxlan
muxziyyóxun
##iyyéxva
jriṱ
nak̭yánux
##əmmóxun
čənn
pallac
k̭ázmux
ʾurzag
ʾasl
júllux
busərtóxun
xátman
xuṱ
k̭abúrǧux
halálax
šalóxun
##ílovat
lúxan
##ayéna
ʾavóxun
xrív
xalúntan
##úninva
muprə́ṱṱux
map̂
brítux
yazánux
zaráyax
##c̭ax
##yátəvən
hirud
zalím
ruk̭rək̭k̭óxun
bəšṱák̭
mač̭riyyánan
məscárux
bárd
gandúlax
mášš
fcírux
nxípax
ṱaxṱ
pusy
##ə́rtətunva
##aténva
##lən
ṱunṱənn
bríz
muk̭rə́mm
k̭etánux
joj
perí
deráyan
xablanóxun
##lántax
č̭uzč̭ə́zzux
##ánlan
mulavá
##áxiva
k̭avvəmmánax
hál
mašliyyánux
##əjj
darbóxun
práxan
mapləṱṱánux
marx
vušvəššóxun
sim
##ij
č̭ulč̭
tpixóxun
##əd
busə́rtan
cumcə́mman
p̂əṱṱ
##ítunvalun
k̭arrəcc
k̭eybat
gumməss
gmiróxun
br
partəll
ʾak̭lóxun
k̭úyux
xašúlax
munyə́xxan
bazaróxun
zúbnux
zuy
##ziyy
##únu
bəšyáš
durdə́žž
mummíyyux
tu
##əby
ʾíd
č̭mə́č̭
garč
##or
mumiyyóxun
xšílax
líyyan
rcə́v
mašp̂ərrántux
coyánan
##ə́r
muk̭rə́ssax
sarbázan
čux
juna
ʾurgə́j
ṱím
pəly
mučrə́xxan
ladánan
k̭ablánax
##acéva
šuršərr
##ə́ntəl
mulyə́s
mucrəbb
murdəxx
##írəvən
maptəllanóxun
maṱmiyy
ʾaǧóxun
##ílox
suxbə́rran
cárrux
nz
nicác
cepánux
##alévan
mank̭ədd
##ə́xtotva
víran
bəč̭l
zubn
##ivat
masməss
##ə́lyan
dabb
##mák̭
tamtəmmánux
fayṱún
saráyax
huraróxun
šak̭
ʾatiróxun
tuk̭nə́k̭k̭ux
p̂ərṱúx
mungərr
rə́vy
manxəssánux
šud
k̭unṱ
##ə́rran
nadyanóxun
##ə́rtitva
coram
bətyáv
garməllánux
simavaróxun
č̭apč̭úp
pušpəšš
##álulə
k̭araváš
šil
vádan
##úyətva
gazgəzzánan
k̭apučíyy
##yatéx
prə́š
žǧišóxun
dardəxx
srík̭ax
məsy
muṱyə́pp
nadrántan
gubgə́bban
sansəllanóxun
##úytovən
múzzux
bə́xyan
putpə́ttan
bəč̭láp
##rax
##élun
##ímax
##vanóxun
##ə́nnux
rcíxax
k̭alláy
zangulyát
burbə́rrax
ʾaryan
ṱurbə́ṱṱux
##ívaloxun
ṱaryánan
bəsnáy
júnax
mušlə́k̭k̭ax
sák̭k̭
mugníyyan
p̂ṱíxax
bəsṱ
pasúk̭an
##úrivat
mundiyyóxun
mavvədd
##panóxun
##ót
šuk̭rə́k̭k̭an
reṱ
mušc
ʾélax
təf
yarm
zullə́zzux
maxniyy
pardənn
bil
##árəvət
bəžǧáš
gargəššánax
xílan
čát
loǧím
č̭arč̭úran
muk̭yə́ppux
dugl
sanj
bərp
k̭amṱ
##var
ṱalyánux
##ayátux
bəmt
guzgə́zzax
mə́ṱyux
mumyətt
gə́rvax
mabyəttánux
ṱləbtóxun
xalṱánux
xarxərranóxun
muxmə́k̭k̭ax
mílax
xalyánux
xəb
mumlí
##yánivət
##lila
musyə́ṱṱax
muk̭rə́vvan
##áxan
javvəbb
púšman
##lə́nvala
bəsx
labl
məscin
pə́sk̭ax
parpiyy
mummə́zz
ṱúmrax
rgə́d
súrgan
gújax
xlisóxun
##ántuvən
##élə
cumcə́mmux
tamáš
ʾurṱiyyát
čríxax
basránt
vəsta
ʾeynác
tummóxun
yárk̭ux
mk̭uṱ
vazzir
cutlə́n
k̭ulín
k̭ə́ryux
mammədd
mk̭aṱk̭
camr
ʾašpáz
tašm
šəmšə
ʾásux
ʾədm
mətʾ
šárxan
šulám
zə́dy
ruytavá
xə́pyux
bancyáy
muč̭riyyóxun
múx
balz
nullə́nnan
manxəss
##rántəva
parčínux
šámmax
mačóxun
gánan
pard
ʾalpa
##ə́mməva
k̭amyánax
mugdə́llux
ʾaváy
##únuvan
muk̭yəmm
bək̭yás
doranóxun
mdúbrax
k̭ərṱálax
mamməllantóxun
ʾak̭
##təntóxun
zǧidóxun
gušk̭óxun
##əšténva
xš
muxníyyux
naplánan
pacránax
rə́k̭
pšík̭ux
##évən
mass
##agóxun
k̭alúp
musnənn
č̭əmy
malxəmmánux
##nazóxun
pə́r
č̭ádrux
mit
##ləm
ʾaml
maṱmərr
##ə́k̭lə
camlánan
daxyánax
ʾujjə́zzan
has
čánn
##ə́rrila
mazviyyánux
ruppíyyax
badúvvan
tanúyran
bazə́ccax
gurrə́l
nṱíran
šapx
##cóxun
bəcráy
zaryánux
##ə́k̭valə
ṱə́vyax
brídax
toxmák̭ux
##iyyéx
šóṱax
t
##úlitva
k̭míč̭ax
ṱavviyyánan
cutrənnóxun
##rək̭
tp
sarsərrántan
č̭angərrántux
k̭arpanóxun
múlpux
dubák̭
xamxəmmánux
zurzəxx
bšílux
p̂urmíyyan
čarčávux
bə́r
pušr
##ə́nnovat
batláǧ
pandənnánux
zumbəllóxun
zub
carázax
dárzux
bək̭s
##íyyil
##ə́ntulə
bək̭š
##əxtéva
muk̭yəmmóxun
xríxan
hunh
pərk̭
gargərránux
bəsk̭
muyyə́k̭k̭ax
##ač
nək̭k̭
bavə́cc
zonanóxun
pə́nyax
mascənnántax
yrítux
namnəmmánax
talyánan
mutrə́s
hammamóxun
gažž
msitóxun
magniyy
##úytuvət
##ə́rtuna
##ṱiyy
mammərr
jamyanóxun
lxepóxun
dm
prík̭ux
##táran
zək̭k̭
cə́ry
mk̭uṱk̭ə́ṱ
zurdənn
##úk̭ax
muk̭rəss
pecánux
nxíp
muṱlíyyax
zanjap
majrəmm
báxč
yaván
##ídux
##hh
##ə́llona
k̭míxax
muštiyy
k̭axk̭úxax
nak̭k̭áš
bək̭láy
lilánk̭
curáxux
mušyə́ppan
patpətt
bəlváx
načlánax
brík̭
tursíyyax
dám
šarzántax
tuntə́s
xaryánan
k̭áṱv
ʾəc
ʾarzačíyyux
čarpántan
##dbáz
ṱuxṱə́xx
šílux
laxmánax
cracé
k̭íšax
##ulévat
pušpəššóxun
##úylux
k̭əly
prišóxun
muk̭k̭əss
muprə́šš
jaryánux
##ə́ntotva
gabgəbbánux
ginavóxun
damurči
bə́rk̭ux
balb
čumčəmmóxun
cód
gú
sank̭
ṱúp
manzəllánux
púsyan
##úpp
##ə́byax
bəpšayóxun
hurbək̭k̭
##ávalax
tridóxun
##ayúy
##ə́ltətun
bambəčč
##nayóxun
zaxmún
muṱbítux
mapriyyánux
##viyy
bədvák̭
šəmm
bənyáttux
##ák̭ova
xap̂k̭ánan
mhadr
musyərróxun
mgargəššánux
sárux
rušnúy
caryanóxun
##árəva
c̭unc̭ə́ššan
ʾə́dd
níc
mutrəss
munpə́ssax
mxušcə́nnan
##čiyyéna
ṱlan
barróxun
č̭uxč̭ə́xx
veran
##bux
guzmóxun
veránux
sə́tvux
čar
##á
bəpt
žǧíš
pašrántux
##tul
xánux
##úno
nasvanóxun
##ə́k̭tunva
maccəmmanóxun
sár
raxšanóxun
latlətt
xə́nyax
xanxək̭k̭ánux
##lun
bəxk̭
##ritva
bəṱvá
ʾahác
##yánto
mundíyyux
k̭ísax
muprə́ššan
murrə́k̭k̭an
č̭arč̭úrax
ctəvtóxun
xtírax
cócan
muṱmíyyux
varidóxun
zríṱan
rísux
sarpánux
langárux
xašxanóxun
noxánux
##ə́mloxun
k̭uč̭č̭
##úsəva
k̭dišóxun
tambəllánux
ʾarəmnáy
garšantóxun
lacxánax
sríx
xaluvvá
malapóxun
šadranóxun
##ə́štiva
palg
cušti
psappís
xón
búxčux
čum
##ə́ntivən
xšixóxun
hə́l
##lij
č̭ád
mušliyy
##ə́nnilə
ʾúmlax
gúryux
##ey
zambúlax
máry
##dəmm
gor
lazl
bəxy
muṱrə́ssan
gam
cl
cil
xup̂xə́p̂p̂ax
buraxóxun
šatyanóxun
bṱínan
k̭dix
camán
k̭uždə́rrax
sənjak̭óxun
nṱip
k̭údmax
blíč̭ax
##uvóxun
nk̭izóxun
##aréxva
nzílax
ṱenánux
zalk̭ánax
zalúz
zulzóxun
##vátva
syiv
manyəxxánux
tíman
ʾaṱṱárux
čamčúm
##rə́
ṱə́s
mríd
##ə́mtot
xalúvvux
č̭urč̭ə́rrux
čak̭k̭ún
dussáǧax
muk̭nə́zzan
ʾel
k̭ṱip
snín
##ə́xtina
##atévax
rk̭íd
sundəllóxun
nálan
##ímunnoxun
xarbús
k̭ablántan
##rílux
səny
murdə́rrax
##ə́ltətunva
msazgərránux
##əblóxun
mašviyyánux
nadránan
paruš
bak̭ránan
hammənn
##ántovən
mušpəxx
bulbə́ltan
ʾodánux
xə́tn
k̭anṱərranóxun
zubbənnóxun
magrúš
##iyyéla
maryúz
##uva
gúlyan
xb
mabbúvvux
šuršíyyax
##rə́k̭tan
šk̭il
ʾəngləznáyux
surgənn
ʾurk̭
gírux
glə́j
žə́d
murgíyyan
mačxantóxun
xə́mk̭
tartíb
k̭əpt
naznəzzánux
##álu
##ə́nnuva
meytárux
p̂ačc̭ənn
mutrə́
gdíšux
gárd
gúčmux
nacnəccánux
xə́ny
tarvád
zullə́zzan
tanyánux
xə́šš
buyb
mutvóxun
malvəxx
txísux
rə́myux
##ílutva
##ratóxun
buzxánan
nálux
šubxóxun
mašt
šlə́k̭tax
ʾətt
zárbux
xurr
magrayátux
##ádax
jvalóxun
lácc
xu
básm
co
##yátonva
šrə́ztan
bús
##ilan
jri
##ə́rtu
štavhərránax
ṱer
šoršó
nadránux
##ádan
sṱím
mərt
k̭ərránux
##ántotun
bək̭raxóxun
maxyánan
madyəllánux
harhəmmánan
balbəllánax
mə́tx
##təc
bə́ggux
šrə́s
gviróxun
p̂up̂íyyan
balbəllántan
xríxax
cə́lyax
k̭užk̭əžžóxun
babavátux
čxísax
balč̭ánux
say
garpánux
##pan
mís
##úk̭ət
ptíxax
k̭armúč̭
dir
šattúš
lək̭yóxun
cərš
k̭ṱípux
šapxánux
##yəxx
caryánux
tazíyyux
mocóxun
muxl
xsix
##ə́nnəx
manp
k̭úv
búxrax
musyə́vv
dúll
nav
##y
jənnák̭
gúyd
nxə́ptan
##lántan
dívan
ṱalyánan
k̭últax
##vətunva
murxə́ššan
mup̂č̭əllóxun
maxpəll
murmə́llux
pandáman
deráyux
luxlə́xxan
munk̭ədd
tác̭c̭
xíšux
natránax
pataryárc
maxrəmmántax
##is
muk̭riyyóxun
buǧ
čangəllánux
čríxux
xusxəssóxun
##ə́mlan
mərč̭
##nénva
búmux
də́d
šṱíxan
##ívala
##áltan
##ə́xtunva
šuplə́ppax
ʾarmún
bajb
k̭ríṱax
busmə́rrux
k̭ənnóp̂
##áyutun
mgandəllánax
barránan
##úvvət
vazvəzzánan
mansərr
maccəppánux
k̭ə́ntan
šulṱiyyóxun
##úruxva
##əllax
##aryatóxun
zrə́z
murmə́llax
muptə́llax
bəšlág
čumčə́mtan
tl
baxxəvvánux
mušcənn
ṱəmy
mucab
##mur
nak̭dánax
tardánux
p̂amp̂əllánax
šurk̭ə́p
xulxəll
vasyáttax
tamtəmm
mak̭yúp
súlyux
gadágax
##uytéva
maṱṱənnánax
píxax
##uléx
##aléx
##séva
##k̭al
huš
tupitóxun
zárrax
rəmy
cáll
daryántax
muk̭dóxun
##tatóxun
ʾahvál
gəvyóxun
k̭amṱánan
cepanóxun
durbínux
rayyiyyánan
tars
k̭azzáxux
bəllás
gužžə́nnan
mríṱax
lə́bn
šarṱanóxun
##ór
##ək̭téva
túyn
damúǧ
sap̂ránux
gərra
##yan
muxrə́ppux
rə́zz
garš
gandulóxun
paspəssánax
zak̭zək̭k̭ántax
muptiyyóxun
mak̭ras
mítan
šacranóxun
vušvə́ššax
č̭ang
bəšvá
##íləla
bəcx
šə́ny
##ə́tta
##ʾáttax
xsíxax
havárux
##acétva
zonantóxun
lumlə́mman
šə́c
luxləxx
parxántan
nazírux
mutpəttóxun
sə́rṱux
nsívax
k̭ənnop̂
k̭ṱíran
bəšrás
mas
parš
mapyəšš
maššəšš
rappiyy
tapuyóxun
donjóxun
##ə́xtotun
##lántux
párrux
bebúnux
k̭uk̭íyyan
##úytəvan
##yántinva
##ləp
mak̭k̭əssánux
lasl
zarṱanóxun
##ántitva
##íriva
zán
dk̭íran
munk̭ə́d
p̂uṱp̂əṱṱóxun
##ə́ntuvax
ṱumšóxun
č̭urč̭iyyóxun
##ə́ntotun
mát
##úytutunva
##uryát
zrə́ṱ
šaṱk̭ánax
gečítux
tupítux
darrənnantóxun
##ə́ltəl
xank̭ánux
jalxánux
šlán
tanəšš
súprax
ʾujáb
muslítux
k̭asídan
č̭amm
muprə́ṱṱax
sník̭an
hurdə́k̭k̭ux
šítax
báxyux
ṱlóxux
nak̭š
xjil
denánux
bədvárax
xviṱ
##rélə
##ásan
šuxlə́pp
zumpə́rrux
##ə́ntax
##álox
səptóxun
yarránan
varídax
##áyivat
šv
saháttan
xurgóxun
jlíxan
č̭ív
naplánux
ʾavánax
šoránan
májj
##təla
naxl
tupítan
sə́ryan
##áru
turm
nuníyyan
##ə́mtova
k̭alk̭ánan
tlə́p
muk̭k̭ə́ddax
gubgə́bbax
ramš
sáddax
##ə́xtol
muštu
mbarx
gečə́c
ʾalúlux
gadlanóxun
k̭uvvə́llan
nə́k̭v
zriṱ
##ántutunva
mammúz
bəzm
maxlánan
sarítax
jeyr
čak̭čək̭k̭ánux
šə́xn
muxšə́xx
xdərtóxun
gaxcánux
munk̭ə́ddax
cardus
ʾúrvan
##ə́tvalun
zrik̭óxun
##vak̭óxun
muxbə́llux
ʾəstáblux
xužbənn
k̭aralúyg
k̭upš
k̭díxax
jvúj
yasranóxun
p̂arm
mask̭ú
zaxmənn
c̭arc̭ərránan
sansəpp
k̭úllax
##ítivat
##ə́ntutva
bəčráx
mupləṱṱóxun
dagálax
mussə́mm
šriṱ
muzzəzzóxun
##yátəva
##áyəvan
čarpantóxun
munxə́pp
žadyánax
##áyivən
p̂əṱṱa
##úmax
ʾasb
zə́vyan
mupyəšš
mč
gzíran
sapləpp
tpínux
bəxmás
suyl
npísan
páy
ʾúrz
carúzux
nsə́vtux
juvv
xəm
zəcyát
##ull
##ot
də́ryux
##ə́ltəva
tamməmmánan
ja
##ángax
buzbək̭k̭óxun
darč
gand
lahlú
tavtúš
k̭aṱk̭úṱan
dullə́llux
##úyut
##ač̭
muspək̭k̭óxun
ʾadavat
garpánan
##əllantóxun
yup
šarc
mašp̂ərranóxun
##čéva
bəmpárux
ṱvíxux
mutrə́ggux
parúšan
yuk̭rənn
p̂up̂p̂unyát
##ílət
ʾarz
##ərrántan
xə́šc
maṱriyyántux
tag
muxšə́vvux
k̭uṱur
məxx
##íran
šunn
k̭alám
durbə́nnan
buxxə́llax
šak̭lanóxun
stúyn
nə́s
bumbə́čč
pušṱóxun
paryánax
xə́ltux
xsítan
damxánan
tup̂p̂
##ə́vvax
yə́lyan
##⁺
k̭urrúš
##ə́dtax
k̭ítux
##xáy
módux
##ləzz
k̭ámx
bəgláj
##úx
zannayóxun
##dən
past
són
jə́myux
cargárax
čumbəllóxun
mugdəllóxun
mactəvvánux
##tux
##ə́xtux
gánux
sahdánax
č̭án
gəll
##ánələ
xašcənnánux
dvík̭an
casyántux
šam
k̭ənyóxun
lel
ʾoyín
bujbə́jjan
nə́k̭zax
##tinva
##ə́rrivan
bət
tfik̭
pús
k̭axk̭əxxánan
##ə́k̭tova
gərvánc̭ux
xalíč
smálan
bəšm
zəngəryát
##árivax
bašílux
ṱalx
yak̭rənnánux
dardúž
musk̭ə́llan
##irét
fac
k̭ám
ṱuvv
##lilə
munpə́s
gužž
mašyanóxun
##ə́ntina
muxšə́xxax
cusitóxun
tušməšš
muplə́ṱṱ
miyy
mulv
sak̭yánan
ʾax
č̭uxč̭əxx
savzóxun
ʾantáran
štavhuróxun
munxəss
tči
##úcax
síṱax
##íyyutva
múštux
bətp
ṱlə́btan
hori
palṱántax
ctiróxun
##únula
muk̭ṱə́llax
mudíyyux
##lak̭óxun
sunsəltóxun
purpiyyóxun
zǧ
šid
buk̭róxun
##uxyát
murvíyyux
taxxəbb
č̭ungərtóxun
č̭urč̭
##ruxva
capšánax
##əpt
darzóxun
jayy
gúbyax
csíxax
bətl
bənvá
gris
##atétva
##ún
dal
bulbə́ss
yaṱṱántan
darrənnanóxun
k̭aran
šok̭ánux
##ə́k̭tət
k̭últux
nánnan
ci
##utunva
jab
gə́syax
ʾəšvá
gut
##rílə
baṱlanóxun
bəlyám
xúvvax
##ə́j
šámmux
iyyóxun
pə́sy
##únivət
##úrətunva
k̭əptə́r
ṱrə́p
č̭oč̭iyyánux
ṱə́m
púrš
lak̭lək̭k̭ántux
##iyyátli
ʾark̭ánax
bərrayóxun
##̄n
jasus
sə́
vak̭vək̭k̭anóxun
k̭ón
šak̭lánan
mutníyyax
məš
hayvánan
lóbyux
##íro
bullə́ss
bəlváš
šarpək̭k̭ánux
cavutr
bərmáy
zak̭ránan
garúvv
bumóxun
##toxva
##úləvat
tuntərróxun
layəǧǧ
č̭ə́my
dula
##ánuvət
xáyy
p̂úr
raxšánux
##iyyátlan
jalxánan
gažgúž
##rúp
šúlpux
k̭axk̭uxóxun
k̭ayr
bəṱṱáp
mamcəxx
mujyə́nnan
map̂k̭
xp̂ík̭
jəlláv
ṱavviyyánax
jandác
ʾəst
ctavóxun
ṱavviyyánux
mašy
p̂ap̂rús
bəsyám
ʾaxlánux
ʾuṱmát
k̭aṱvóxun
muxb
ziván
##íyyəvən
dv
##yanélə
baləxčíyy
##úyəvat
k̭udšóxun
vánan
paršanóxun
muxpíyyan
mugvərr
zarzantóxun
canášan
parsənnanóxun
mírux
k̭ulúnj
maxús
šulləll
marriyyánan
k̭emánax
lams
húslan
lə́pyan
sansəllánux
##léva
čə́z
šilóxun
távux
saxbərránux
xk̭
ʾask̭ánan
čák̭k̭
xar
##əc̭x
##aṱétva
parsúp
tuyróxun
šaxrənn
səxy
myuk̭ərr
séy
naxlánax
##úrina
casyántax
šlípan
xšív
munxə́s
##áyu
##uytéla
carpúč
cə́lyux
čumxə́mmux
ravá
čir
gejak̭úšux
##yánovən
márjax
ʾasírux
musp
##əntétva
mcarməxxánux
nə́k̭vux
ṱə́byax
##lílax
mutvənn
##úxunva
##íton
mulvə́xxax
təvvəll
k̭abaróxun
xúyrax
gurgə́mman
mašmiyyánux
zunb
sunsə́ppax
##dáy
##ədyóxun
ruxrəxx
madyəllánan
k̭alk̭əllánux
p̂ṱ
ṱis
k̭áhb
bək̭ráxux
mutlə́k̭k̭
čamčəmmanóxun
mút
bux
##ílit
gəd
lak̭yanóxun
psix
brisimóxun
pə́šc
naxmánan
bədyáš
ʾargúj
##úxit
##ʾat
tərtúb
bəsnád
jún
nixóxun
císax
gur
cep
šaryántux
gargəššantóxun
jírax
k̭ažd
lízan
msuzgə́rran
bašlánux
gúyux
masliyyantóxun
k̭ṱípax
muk̭rə́ss
lubl
msítax
mazrák̭
mabrəxx
k̭ək̭ván
##étovax
##yávaloxun
curpəšš
gummuryát
máman
xank̭ánan
bə́rz
šadránux
xṱítan
purz
ʾam
še
k̭amáyan
murrə́k̭
##únutunva
puvvərr
##áro
k̭alámux
duz
dabánax
muxjəll
gə́nyax
##ag
mərr
mucrə́zzan
laxmačíyyan
##təv
muṱlíyy
rastóxun
cačlənn
muk̭yə́pp
##ə́mtun
musyə́ddax
lamləmmántux
##íṱ
##əppá
pandóxun
č̭ídan
##lat
##ríṱ
matrúg
##ráxux
baxtún
nuby
xabušyát
yuvvóxun
k̭rípan
səns
šə́ly
garmónux
ṱrísan
sandəllánux
mupvə́rrax
##irə́t
mrə́č̭
##rə́cc
bəčl
čalbiyyánux
ʾəšṱ
suk̭k̭
ruznamačíyyux
##yátvala
zuxmə́nn
mč̭arč̭iyyanóxun
séd
ʾargəjjánux
purk̭
gamməss
báy
##ásta
cán
taləm
xərdal
muzyə́dd
mubrə́k̭
bunpə́rrax
rúppan
k̭ullux
k̭úr
k̭aplánux
k̭ətpún
məllát
ṱíxax
mhadyánan
dand
mtix
mčíx
mujvə́jjan
##lítax
gnáh
túrsux
šark̭
zamp
bəpráy
k̭axk̭əxxántux
##ə́xloxun
p̂uč̭p̂ə́č̭č̭an
zǧə́d
muprə́š
júran
č̭alb
tabák̭č
k̭urk̭ə́rrax
turtə́xxax
maryəssánux
ʾoranóxun
carúb
turtəbbóxun
ʾā́n
##čiyyéx
prák̭
rat
bəzzáz
##éli
##ənla
k̭ubíyyux
nk̭iróxun
súpk̭ux
pasxánux
murcəxxóxun
tantərránax
parčóxun
zambəllánux
##avvət
bsim
##áruvat
bəbrák̭
bəjy
pašmánan
npisóxun
dabóxun
##ánlax
šə́ǧ
bəsráx
catcəttan
gri
bənyáttan
rešánux
samyanóxun
##rot
bədbáš
##arén
##uvax
šut
k̭ə́msax
munšə́rrux
k̭avránax
mə́rč̭
##úm
muprəxxóxun
##əxténa
magəs
##ánnun
ṱríd
galdiyyánux
súlyan
k̭axk̭əxxántan
##úrovət
naplanóxun
##k̭əll
də́k̭k̭
prítan
##ə́nti
##šo
dəlčác
bəč
maxdərr
zalmánax
##ántova
[...]
